{
  "version": "1.0",
  "truncation": null,
  "padding": null,
  "added_tokens": [
    {
      "id": 0,
      "content": "[PAD]",
      "single_word": false,
      "lstrip": false,
      "rstrip": false,
      "normalized": false,
      "special": true
    },
    {
      "id": 1,
      "content": "[UNK]",
      "single_word": false,
      "lstrip": false,
      "rstrip": false,
      "normalized": false,
      "special": true
    },
    {
      "id": 2,
      "content": "[CLS]",
      "single_word": false,
      "lstrip": false,
      "rstrip": false,
      "normalized": false,
      "special": true
    },
    {
      "id": 3,
      "content": "[SEP]",
      "single_word": false,
      "lstrip": false,
      "rstrip": false,
      "normalized": false,
      "special": true
    },
    {
      "id": 4,
      "content": "[MASK]",
      "single_word": false,
      "lstrip": false,
      "rstrip": false,
      "normalized": false,
      "special": true
    }
  ],
  "normalizer": {
    "type": "BertNormalizer",
    "clean_text": true,
    "handle_chinese_chars": true,
    "strip_accents": null,
    "lowercase": true
  },
  "pre_tokenizer": {
    "type": "BertPreTokenizer"
  },
  "post_processor": {
    "type": "BertProcessing",
    "sep": [
      "[SEP]",
      3
    ],
    "cls": [
      "[CLS]",
      2
    ]
  },
  "decoder": {
    "type": "WordPiece",
    "prefix": "##",
    "cleanup": true
  },
  "model": {
    "type": "WordPiece",
    "unk_token": "[UNK]",
    "continuing_subword_prefix": "##",
    "max_input_chars_per_word": 100,
    "vocab": {
      "[PAD]": 0,
      "[UNK]": 1,
      "[CLS]": 2,
      "[SEP]": 3,
      "[MASK]": 4,
      "(": 5,
      ")": 6,
      ",": 7,
      "-": 8,
      ".": 9,
      "/": 10,
      "0": 11,
      "1": 12,
      "2": 13,
      "3": 14,
      "4": 15,
      "5": 16,
      "6": 17,
      "7": 18,
      "8": 19,
      "9": 20,
      "?": 21,
      "a": 22,
      "b": 23,
      "c": 24,
      "d": 25,
      "e": 26,
      "f": 27,
      "g": 28,
      "h": 29,
      "i": 30,
      "j": 31,
      "k": 32,
      "l": 33,
      "m": 34,
      "n": 35,
      "o": 36,
      "p": 37,
      "q": 38,
      "r": 39,
      "s": 40,
      "t": 41,
      "u": 42,
      "v": 43,
      "w": 44,
      "x": 45,
      "y": 46,
      "z": 47,
      "##s": 48,
      "##h": 49,
      "##q": 50,
      "##u": 51,
      "##e": 52,
      "##i": 53,
      "##n": 54,
      "##c": 55,
      "##1": 56,
      "##a": 57,
      "##m": 58,
      "##t": 59,
      "##o": 60,
      "##l": 61,
      "##f": 62,
      "##4": 63,
      "##5": 64,
      "##9": 65,
      "##3": 66,
      "##8": 67,
      "##2": 68,
      "##0": 69,
      "##7": 70,
      "##v": 71,
      "##w": 72,
      "##r": 73,
      "##p": 74,
      "##d": 75,
      "##y": 76,
      "##b": 77,
      "##k": 78,
      "##g": 79,
      "##z": 80,
      "##x": 81,
      "##6": 82,
      "##j": 83,
      "th": 84,
      "the": 85,
      "##er": 86,
      "##on": 87,
      "of": 88,
      "##ed": 89,
      "##at": 90,
      "##in": 91,
      "##nd": 92,
      "in": 93,
      "##en": 94,
      "##ion": 95,
      "##or": 96,
      "##it": 97,
      "##as": 98,
      "##es": 99,
      "##an": 100,
      "##ar": 101,
      "##al": 102,
      "to": 103,
      "##ing": 104,
      "##ct": 105,
      "##ou": 106,
      "##is": 107,
      "and": 108,
      "##ic": 109,
      "no": 110,
      "##om": 111,
      "##ent": 112,
      "is": 113,
      "be": 114,
      "##re": 115,
      "re": 116,
      "that": 117,
      "##pp": 118,
      "pr": 119,
      "##el": 120,
      "on": 121,
      "##le": 122,
      "app": 123,
      "by": 124,
      "##id": 125,
      "as": 126,
      "or": 127,
      "for": 128,
      "it": 129,
      "su": 130,
      "wh": 131,
      "##ant": 132,
      "not": 133,
      "##th": 134,
      "##ur": 135,
      "##il": 136,
      "##ation": 137,
      "com": 138,
      "pro": 139,
      "con": 140,
      "se": 141,
      "20": 142,
      "##st": 143,
      "##ce": 144,
      "##ction": 145,
      "##ad": 146,
      "was": 147,
      "an": 148,
      "has": 149,
      "##ly": 150,
      "de": 151,
      "##ch": 152,
      "cou": 153,
      "##ve": 154,
      "##ain": 155,
      "al": 156,
      "##ment": 157,
      "##ut": 158,
      "##ith": 159,
      "##ri": 160,
      "sh": 161,
      "##ow": 162,
      "comp": 163,
      "##ol": 164,
      "with": 165,
      "##se": 166,
      "##im": 167,
      "##ay": 168,
      "##ate": 169,
      "##ter": 170,
      "##nder": 171,
      "##der": 172,
      "##et": 173,
      "cas": 174,
      "##ir": 175,
      "##am": 176,
      "##ear": 177,
      "under": 178,
      "##ig": 179,
      "##ated": 180,
      "res": 181,
      "201": 182,
      "ex": 183,
      "order": 184,
      "cour": 185,
      "ac": 186,
      "##ther": 187,
      "per": 188,
      "act": 189,
      "##ble": 190,
      "##ell": 191,
      "st": 192,
      "fr": 193,
      "section": 194,
      "##us": 195,
      "##nt": 196,
      "court": 197,
      "case": 198,
      "ha": 199,
      "##ich": 200,
      "##ition": 201,
      "which": 202,
      "##ted": 203,
      "fa": 204,
      "from": 205,
      "inc": 206,
      "##ere": 207,
      "this": 208,
      "##ul": 209,
      "ad": 210,
      "##ud": 211,
      "##ver": 212,
      "##for": 213,
      "acc": 214,
      "##os": 215,
      "ta": 216,
      "##ge": 217,
      "##ned": 218,
      "##pon": 219,
      "been": 220,
      "par": 221,
      "at": 222,
      "##la": 223,
      "appell": 224,
      "are": 225,
      "any": 226,
      "ch": 227,
      "##aid": 228,
      "sub": 229,
      "##lic": 230,
      "appellant": 231,
      "##ice": 232,
      "##est": 233,
      "##ome": 234,
      "##ci": 235,
      "##od": 236,
      "##ount": 237,
      "##qu": 238,
      "have": 239,
      "##mp": 240,
      "##su": 241,
      "##eal": 242,
      "prov": 243,
      "##ity": 244,
      "##ra": 245,
      "la": 246,
      "##ect": 247,
      "dis": 248,
      "appeal": 249,
      "##ord": 250,
      "##mit": 251,
      "##ld": 252,
      "part": 253,
      "##all": 254,
      "respon": 255,
      "applic": 256,
      "##so": 257,
      "##dent": 258,
      "dated": 259,
      "##igh": 260,
      "##ies": 261,
      "##ision": 262,
      "he": 263,
      "income": 264,
      "##lain": 265,
      "off": 266,
      "##un": 267,
      "##ard": 268,
      "ar": 269,
      "##iled": 270,
      "ag": 271,
      "##iv": 272,
      "respondent": 273,
      "##ess": 274,
      "##rou": 275,
      "##ade": 276,
      "pet": 277,
      "also": 278,
      "##if": 279,
      "##ot": 280,
      "petition": 281,
      "fact": 282,
      "co": 283,
      "cont": 284,
      "##erv": 285,
      "there": 286,
      "am": 287,
      "##ame": 288,
      "##ance": 289,
      "cons": 290,
      "##able": 291,
      "rec": 292,
      "ab": 293,
      "all": 294,
      "##um": 295,
      "tr": 296,
      "tax": 297,
      "##ers": 298,
      "such": 299,
      "do": 300,
      "##ied": 301,
      "ld": 302,
      "##ust": 303,
      "issu": 304,
      "19": 305,
      "had": 306,
      "cla": 307,
      "made": 308,
      "fin": 309,
      "can": 310,
      "##gh": 311,
      "##ort": 312,
      "cr": 313,
      "ind": 314,
      "year": 315,
      "##and": 316,
      "##per": 317,
      "##mitted": 318,
      "cit": 319,
      "compan": 320,
      "we": 321,
      "##ider": 322,
      "##ould": 323,
      "other": 324,
      "lt": 325,
      "##ure": 326,
      "##age": 327,
      "vi": 328,
      "comm": 329,
      "##fore": 330,
      "fur": 331,
      "his": 332,
      "before": 333,
      "##ial": 334,
      "##ire": 335,
      "##ide": 336,
      "filed": 337,
      "reg": 338,
      "##ew": 339,
      "tri": 340,
      "consider": 341,
      "ltd": 342,
      "were": 343,
      "##end": 344,
      "complain": 345,
      "mat": 346,
      "af": 347,
      "said": 348,
      "rs": 349,
      "202": 350,
      "##sel": 351,
      "del": 352,
      "ob": 353,
      "rep": 354,
      "lear": 355,
      "##ass": 356,
      "learned": 357,
      "##ia": 358,
      "##ans": 359,
      "vs": 360,
      "##used": 361,
      "##sion": 362,
      "pay": 363,
      "pres": 364,
      "14": 365,
      "hon": 366,
      "dec": 367,
      "company": 368,
      "##ments": 369,
      "same": 370,
      "imp": 371,
      "record": 372,
      "le": 373,
      "##ak": 374,
      "rel": 375,
      "au": 376,
      "##pe": 377,
      "##pt": 378,
      "law": 379,
      "me": 380,
      "un": 381,
      "jud": 382,
      "further": 383,
      "qu": 384,
      "amount": 385,
      "honble": 386,
      "##ill": 387,
      "bo": 388,
      "serv": 389,
      "claim": 390,
      "high": 391,
      "##ary": 392,
      "##thor": 393,
      "##ced": 394,
      "inter": 395,
      "##eld": 396,
      "again": 397,
      "pass": 398,
      "grou": 399,
      "##ue": 400,
      "##dition": 401,
      "author": 402,
      "coun": 403,
      "so": 404,
      "##ous": 405,
      "offic": 406,
      "dep": 407,
      "##ission": 408,
      "where": 409,
      "##ings": 410,
      "tak": 411,
      "its": 412,
      "pur": 413,
      "##low": 414,
      "facts": 415,
      "out": 416,
      "account": 417,
      "##hi": 418,
      "go": 419,
      "sc": 420,
      "##our": 421,
      "ban": 422,
      "ne": 423,
      "en": 424,
      "dire": 425,
      "##ty": 426,
      "##ive": 427,
      "pre": 428,
      "ao": 429,
      "counsel": 430,
      "13": 431,
      "##ish": 432,
      "would": 433,
      "provision": 434,
      "petitioner": 435,
      "against": 436,
      "##ove": 437,
      "submitted": 438,
      "ca": 439,
      "application": 440,
      "trans": 441,
      "accused": 442,
      "sup": 443,
      "if": 444,
      "held": 445,
      "complainant": 446,
      "only": 447,
      "ita": 448,
      "##cl": 449,
      "ground": 450,
      "after": 451,
      "##ence": 452,
      "##ceed": 453,
      "##out": 454,
      "##use": 455,
      "inv": 456,
      "10": 457,
      "ra": 458,
      "##fer": 459,
      "exp": 460,
      "##ok": 461,
      "proceed": 462,
      "page": 463,
      "officer": 464,
      "##ged": 465,
      "15": 466,
      "commission": 467,
      "##ution": 468,
      "trib": 469,
      "above": 470,
      "but": 471,
      "bank": 472,
      "po": 473,
      "ev": 474,
      "view": 475,
      "##son": 476,
      "notice": 477,
      "##du": 478,
      "passed": 479,
      "bas": 480,
      "##form": 481,
      "##one": 482,
      "##ating": 483,
      "tim": 484,
      "##are": 485,
      "india": 486,
      "person": 487,
      "date": 488,
      "##unal": 489,
      "tribunal": 490,
      "applicant": 491,
      "ins": 492,
      "shall": 493,
      "##ist": 494,
      "may": 495,
      "man": 496,
      "##ile": 497,
      "##ro": 498,
      "fol": 499,
      "##ight": 500,
      "##uring": 501,
      "fir": 502,
      "ben": 503,
      "decision": 504,
      "follow": 505,
      "##me": 506,
      "##ose": 507,
      "##ason": 508,
      "##not": 509,
      "##tain": 510,
      "##ical": 511,
      "cannot": 512,
      "ent": 513,
      "present": 514,
      "time": 515,
      "##cu": 516,
      "##ach": 517,
      "##ject": 518,
      "##ab": 519,
      "interest": 520,
      "sec": 521,
      "being": 522,
      "reason": 523,
      "##pect": 524,
      "lo": 525,
      "##ru": 526,
      "addition": 527,
      "int": 528,
      "giv": 529,
      "cor": 530,
      "direct": 531,
      "##cial": 532,
      "12": 533,
      "judg": 534,
      "issue": 535,
      "##bt": 536,
      "##ited": 537,
      "##ong": 538,
      "issued": 539,
      "##ail": 540,
      "authority": 541,
      "##ely": 542,
      "find": 543,
      "docu": 544,
      "##led": 545,
      "200": 546,
      "##iz": 547,
      "##ef": 548,
      "##ag": 549,
      "##red": 550,
      "##rough": 551,
      "state": 552,
      "##ck": 553,
      "##ug": 554,
      "provid": 555,
      "##quir": 556,
      "during": 557,
      "their": 558,
      "disp": 559,
      "inform": 560,
      "spe": 561,
      "proceedings": 562,
      "regard": 563,
      "cred": 564,
      "##tur": 565,
      "##cess": 566,
      "proper": 567,
      "parties": 568,
      "gr": 569,
      "##ms": 570,
      "2019": 571,
      "##ices": 572,
      "##edu": 573,
      "impug": 574,
      "how": 575,
      "provisions": 576,
      "impugned": 577,
      "who": 578,
      "11": 579,
      "##ward": 580,
      "him": 581,
      "##ital": 582,
      "##ound": 583,
      "matter": 584,
      "##oss": 585,
      "ter": 586,
      "char": 587,
      "us": 588,
      "sal": 589,
      "credit": 590,
      "##ise": 591,
      "##ved": 592,
      "##erial": 593,
      "##ations": 594,
      "when": 595,
      "taken": 596,
      "these": 597,
      "upon": 598,
      "##ite": 599,
      "vide": 600,
      "##old": 601,
      "judgment": 602,
      "set": 603,
      "##ised": 604,
      "obs": 605,
      "given": 606,
      "##ever": 607,
      "##ious": 608,
      "one": 609,
      "##osed": 610,
      "##ore": 611,
      "##ff": 612,
      "def": 613,
      "material": 614,
      "pla": 615,
      "show": 616,
      "peri": 617,
      "##ature": 618,
      "period": 619,
      "hear": 620,
      "val": 621,
      "wr": 622,
      "supp": 623,
      "##ention": 624,
      "mar": 625,
      "##amin": 626,
      "cle": 627,
      "##ving": 628,
      "##int": 629,
      "years": 630,
      "without": 631,
      "##cy": 632,
      "16": 633,
      "li": 634,
      "##lan": 635,
      "##jud": 636,
      "##ough": 637,
      "##ctions": 638,
      "delhi": 639,
      "they": 640,
      "debt": 641,
      "observ": 642,
      "clear": 643,
      "##vt": 644,
      "retur": 645,
      "mak": 646,
      "##wn": 647,
      "will": 648,
      "2021": 649,
      "det": 650,
      "##ular": 651,
      "##ee": 652,
      "respect": 653,
      "##tion": 654,
      "up": 655,
      "thus": 656,
      "right": 657,
      "however": 658,
      "examin": 659,
      "##ult": 660,
      "##li": 661,
      "op": 662,
      "inst": 663,
      "##art": 664,
      "allow": 665,
      "wor": 666,
      "te": 667,
      "stated": 668,
      "payment": 669,
      "accord": 670,
      "##estion": 671,
      "within": 672,
      "her": 673,
      "18": 674,
      "##lo": 675,
      "due": 676,
      "through": 677,
      "supre": 678,
      "whe": 679,
      "##ors": 680,
      "##rib": 681,
      "supreme": 682,
      "##lev": 683,
      "sig": 684,
      "even": 685,
      "gu": 686,
      "she": 687,
      "according": 688,
      "considered": 689,
      "consideration": 690,
      "information": 691,
      "following": 692,
      "che": 693,
      "##levant": 694,
      "question": 695,
      "whether": 696,
      "2018": 697,
      "##ual": 698,
      "##esh": 699,
      "basis": 700,
      "er": 701,
      "lim": 702,
      "##por": 703,
      "##min": 704,
      "pvt": 705,
      "##und": 706,
      "service": 707,
      "##ip": 708,
      "relevant": 709,
      "oper": 710,
      "##its": 711,
      "##ract": 712,
      "incl": 713,
      "into": 714,
      "##judic": 715,
      "services": 716,
      "while": 717,
      "##act": 718,
      "sin": 719,
      "##ber": 720,
      "##tif": 721,
      "adv": 722,
      "##gal": 723,
      "pow": 724,
      "should": 725,
      "##gu": 726,
      "##ond": 727,
      "nos": 728,
      "let": 729,
      "dedu": 730,
      "17": 731,
      "return": 732,
      "tw": 733,
      "work": 734,
      "purp": 735,
      "respondents": 736,
      "##ory": 737,
      "pol": 738,
      "mr": 739,
      "land": 740,
      "sing": 741,
      "##ind": 742,
      "opp": 743,
      "cer": 744,
      "2017": 745,
      "paid": 746,
      "transa": 747,
      "2016": 748,
      "since": 749,
      "##ash": 750,
      "documents": 751,
      "##pital": 752,
      "form": 753,
      "##ates": 754,
      "just": 755,
      "found": 756,
      "##olution": 757,
      "first": 758,
      "disput": 759,
      "##ident": 760,
      "includ": 761,
      "cop": 762,
      "##ub": 763,
      "could": 764,
      "bench": 765,
      "writ": 766,
      "property": 767,
      "alle": 768,
      "26": 769,
      "afor": 770,
      "rem": 771,
      "day": 772,
      "appro": 773,
      "##tal": 774,
      "##esaid": 775,
      "does": 776,
      "well": 777,
      "##porate": 778,
      "##ry": 779,
      "aforesaid": 780,
      "trial": 781,
      "speci": 782,
      "corporate": 783,
      "hence": 784,
      "##ible": 785,
      "##umar": 786,
      "produ": 787,
      "specif": 788,
      "mention": 789,
      "prof": 790,
      "chequ": 791,
      "grant": 792,
      "requir": 793,
      "letter": 794,
      "pen": 795,
      "ear": 796,
      "##ency": 797,
      "##cer": 798,
      "complaint": 799,
      "having": 800,
      "sch": 801,
      "resolution": 802,
      "mer": 803,
      "##ase": 804,
      "two": 805,
      "hand": 806,
      "##ral": 807,
      "report": 808,
      "##ities": 809,
      "##ath": 810,
      "shri": 811,
      "ru": 812,
      "kumar": 813,
      "share": 814,
      "supra": 815,
      "##ified": 816,
      "both": 817,
      "book": 818,
      "party": 819,
      "rev": 820,
      "grounds": 821,
      "sale": 822,
      "ver": 823,
      "##ode": 824,
      "argu": 825,
      "read": 826,
      "##av": 827,
      "adjudic": 828,
      "comple": 829,
      "##ized": 830,
      "provided": 831,
      "##ine": 832,
      "##ces": 833,
      "mem": 834,
      "cl": 835,
      "##ative": 836,
      "cent": 837,
      "mo": 838,
      "commissioner": 839,
      "est": 840,
      "over": 841,
      "shar": 842,
      "dist": 843,
      "##mption": 844,
      "##rict": 845,
      "post": 846,
      "own": 847,
      "##iling": 848,
      "limited": 849,
      "pw": 850,
      "2023": 851,
      "##ex": 852,
      "total": 853,
      "bec": 854,
      "clause": 855,
      "invest": 856,
      "27": 857,
      "##ac": 858,
      "##cip": 859,
      "transfer": 860,
      "30": 861,
      "##op": 862,
      "contract": 863,
      "depos": 864,
      "deduction": 865,
      "25": 866,
      "sum": 867,
      "dr": 868,
      "power": 869,
      "terms": 870,
      "##te": 871,
      "delay": 872,
      "raised": 873,
      "did": 874,
      "car": 875,
      "finan": 876,
      "nature": 877,
      "see": 878,
      "purch": 879,
      "exe": 880,
      "##ree": 881,
      "mon": 882,
      "var": 883,
      "depart": 884,
      "ro": 885,
      "financial": 886,
      "##icle": 887,
      "##ior": 888,
      "##quent": 889,
      "copy": 890,
      "gover": 891,
      "accordingly": 892,
      "prin": 893,
      "rece": 894,
      "ext": 895,
      "2015": 896,
      "appear": 897,
      "conf": 898,
      "2014": 899,
      "reli": 900,
      "allowed": 901,
      "aff": 902,
      "gen": 903,
      "pub": 904,
      "##ens": 905,
      "singh": 906,
      "hold": 907,
      "appeals": 908,
      "sim": 909,
      "debtor": 910,
      "##ient": 911,
      "##sequent": 912,
      "required": 913,
      "princip": 914,
      "24": 915,
      "##med": 916,
      "filing": 917,
      "##lied": 918,
      "##ai": 919,
      "##ting": 920,
      "code": 921,
      "##bit": 922,
      "here": 923,
      "fund": 924,
      "##own": 925,
      "##allow": 926,
      "##nment": 927,
      "##man": 928,
      "sp": 929,
      "disallow": 930,
      "##ended": 931,
      "mentioned": 932,
      "acce": 933,
      "department": 934,
      "23": 935,
      "purpose": 936,
      "para": 937,
      "good": 938,
      "legal": 939,
      "capital": 940,
      "more": 941,
      "appellants": 942,
      "observed": 943,
      "mark": 944,
      "sat": 945,
      "wherein": 946,
      "then": 947,
      "public": 948,
      "new": 949,
      "##ress": 950,
      "##ration": 951,
      "scc": 952,
      "##alty": 953,
      "2013": 954,
      "concer": 955,
      "course": 956,
      "21": 957,
      "##ipt": 958,
      "itr": 959,
      "condition": 960,
      "loan": 961,
      "orders": 962,
      "receipt": 963,
      "various": 964,
      "cases": 965,
      "emp": 966,
      "cheque": 967,
      "rule": 968,
      "admitted": 969,
      "2020": 970,
      "31": 971,
      "##ational": 972,
      "relied": 973,
      "##ily": 974,
      "196": 975,
      "cash": 976,
      "es": 977,
      "const": 978,
      "recorded": 979,
      "process": 980,
      "##ap": 981,
      "##ises": 982,
      "month": 983,
      "##itled": 984,
      "rul": 985,
      "detail": 986,
      "stand": 987,
      "than": 988,
      "adjudicating": 989,
      "contr": 990,
      "point": 991,
      "failed": 992,
      "nor": 993,
      "heard": 994,
      "prem": 995,
      "concl": 996,
      "ors": 997,
      "##orted": 998,
      "government": 999,
      "##arch": 1000,
      "##ished": 1001,
      "##lect": 1002,
      "benef": 1003,
      "cir": 1004,
      "them": 1005,
      "##ix": 1006,
      "value": 1007,
      "about": 1008,
      "award": 1009,
      "##self": 1010,
      "district": 1011,
      "tre": 1012,
      "##ady": 1013,
      "search": 1014,
      "insur": 1015,
      "##em": 1016,
      "claimed": 1017,
      "some": 1018,
      "beh": 1019,
      "placed": 1020,
      "dut": 1021,
      "##ither": 1022,
      "##vi": 1023,
      "ann": 1024,
      "80": 1025,
      "##io": 1026,
      "reasons": 1027,
      "subject": 1028,
      "days": 1029,
      "143": 1030,
      "plain": 1031,
      "des": 1032,
      "explan": 1033,
      "##ack": 1034,
      "cp": 1035,
      "along": 1036,
      "chall": 1037,
      "eff": 1038,
      "fav": 1039,
      "##very": 1040,
      "pl": 1041,
      "2012": 1042,
      "petitioners": 1043,
      "sign": 1044,
      "central": 1045,
      "erred": 1046,
      "our": 1047,
      "ple": 1048,
      "##ained": 1049,
      "##isf": 1050,
      "mum": 1051,
      "##ast": 1052,
      "dem": 1053,
      "sur": 1054,
      "##lig": 1055,
      "rules": 1056,
      "alre": 1057,
      "199": 1058,
      "partic": 1059,
      "already": 1060,
      "gener": 1061,
      "action": 1062,
      "##abl": 1063,
      "satisf": 1064,
      "##rie": 1065,
      "##ft": 1066,
      "br": 1067,
      "cost": 1068,
      "##je": 1069,
      "second": 1070,
      "##wards": 1071,
      "challen": 1072,
      "##cit": 1073,
      "##crib": 1074,
      "details": 1075,
      "##kh": 1076,
      "##ful": 1077,
      "constru": 1078,
      "##ner": 1079,
      "seek": 1080,
      "opin": 1081,
      "cri": 1082,
      "med": 1083,
      "submit": 1084,
      "document": 1085,
      "pun": 1086,
      "companies": 1087,
      "bu": 1088,
      "##alf": 1089,
      "dif": 1090,
      "furn": 1091,
      "sour": 1092,
      "reply": 1093,
      "favour": 1094,
      "decl": 1095,
      "dispute": 1096,
      "based": 1097,
      "necess": 1098,
      "du": 1099,
      "36": 1100,
      "consu": 1101,
      "pat": 1102,
      "##tc": 1103,
      "cause": 1104,
      "ref": 1105,
      "##og": 1106,
      "##ric": 1107,
      "effect": 1108,
      "make": 1109,
      "##ought": 1110,
      "50": 1111,
      "col": 1112,
      "##reci": 1113,
      "##ending": 1114,
      "explanation": 1115,
      "##rect": 1116,
      "arbit": 1117,
      "hearing": 1118,
      "transaction": 1119,
      "dra": 1120,
      "art": 1121,
      "abs": 1122,
      "plan": 1123,
      "name": 1124,
      "alleged": 1125,
      "ay": 1126,
      "##ising": 1127,
      "28": 1128,
      "##ilar": 1129,
      "similar": 1130,
      "198": 1131,
      "must": 1132,
      "29": 1133,
      "loss": 1134,
      "place": 1135,
      "appo": 1136,
      "##ten": 1137,
      "##aring": 1138,
      "cust": 1139,
      "kn": 1140,
      "##duct": 1141,
      "##ild": 1142,
      "bh": 1143,
      "including": 1144,
      "shares": 1145,
      "goods": 1146,
      "penalty": 1147,
      "##ety": 1148,
      "22": 1149,
      "persons": 1150,
      "##eh": 1151,
      "support": 1152,
      "opinion": 1153,
      "##by": 1154,
      "concerned": 1155,
      "##ian": 1156,
      "signed": 1157,
      "aside": 1158,
      "towards": 1159,
      "##ges": 1160,
      "what": 1161,
      "##usion": 1162,
      "certif": 1163,
      "##olv": 1164,
      "behalf": 1165,
      "making": 1166,
      "project": 1167,
      "##sec": 1168,
      "##lier": 1169,
      "##ption": 1170,
      "way": 1171,
      "soci": 1172,
      "##minal": 1173,
      "etc": 1174,
      "authorities": 1175,
      "##loy": 1176,
      "entire": 1177,
      "##ause": 1178,
      "particular": 1179,
      "confir": 1180,
      "ap": 1181,
      "considering": 1182,
      "##tained": 1183,
      "down": 1184,
      "##odu": 1185,
      "because": 1186,
      "##ries": 1187,
      "final": 1188,
      "ii": 1189,
      "file": 1190,
      "suit": 1191,
      "duty": 1192,
      "plaintif": 1193,
      "plaintiff": 1194,
      "directed": 1195,
      "40": 1196,
      "regarding": 1197,
      "##rodu": 1198,
      "non": 1199,
      "den": 1200,
      "conduct": 1201,
      "take": 1202,
      "consum": 1203,
      "##les": 1204,
      "##ange": 1205,
      "##oney": 1206,
      "establ": 1207,
      "##par": 1208,
      "money": 1209,
      "call": 1210,
      "ma": 1211,
      "additional": 1212,
      "polic": 1213,
      "##inal": 1214,
      "bal": 1215,
      "equ": 1216,
      "main": 1217,
      "compens": 1218,
      "agg": 1219,
      "now": 1220,
      "entitled": 1221,
      "34": 1222,
      "written": 1223,
      "differ": 1224,
      "note": 1225,
      "disallowance": 1226,
      "deal": 1227,
      "ass": 1228,
      "##of": 1229,
      "granted": 1230,
      "though": 1231,
      "examination": 1232,
      "comput": 1233,
      "##ti": 1234,
      "civ": 1235,
      "##val": 1236,
      "defend": 1237,
      "employ": 1238,
      "judge": 1239,
      "##ents": 1240,
      "criminal": 1241,
      "##usal": 1242,
      "justice": 1243,
      "necessary": 1244,
      "##osite": 1245,
      "43": 1246,
      "subsequent": 1247,
      "insolv": 1248,
      "earlier": 1249,
      "applicable": 1250,
      "tech": 1251,
      "pa": 1252,
      "insolvency": 1253,
      "different": 1254,
      "policy": 1255,
      "sought": 1256,
      "orig": 1257,
      "police": 1258,
      "##other": 1259,
      "mis": 1260,
      "quash": 1261,
      "03": 1262,
      "clearly": 1263,
      "applicants": 1264,
      "##cribed": 1265,
      "each": 1266,
      "regist": 1267,
      "civil": 1268,
      "board": 1269,
      "another": 1270,
      "judic": 1271,
      "32": 1272,
      "##ouse": 1273,
      "used": 1274,
      "original": 1275,
      "insurance": 1276,
      "contrib": 1277,
      "instant": 1278,
      "num": 1279,
      "three": 1280,
      "veh": 1281,
      "##pted": 1282,
      "compensation": 1283,
      "trust": 1284,
      "requ": 1285,
      "prev": 1286,
      "back": 1287,
      "appellate": 1288,
      "defendant": 1289,
      "society": 1290,
      "certain": 1291,
      "37": 1292,
      "min": 1293,
      "##ma": 1294,
      "sto": 1295,
      "##icate": 1296,
      "##uf": 1297,
      "accounts": 1298,
      "liable": 1299,
      "amend": 1300,
      "techn": 1301,
      "transactions": 1302,
      "##ave": 1303,
      "sett": 1304,
      "manner": 1305,
      "##ically": 1306,
      "1961": 1307,
      "regul": 1308,
      "##hip": 1309,
      "opposite": 1310,
      "general": 1311,
      "fe": 1312,
      "books": 1313,
      "aggrie": 1314,
      "short": 1315,
      "aggrieved": 1316,
      "perusal": 1317,
      "circ": 1318,
      "nam": 1319,
      "##ify": 1320,
      "apply": 1321,
      "courts": 1322,
      "accepted": 1323,
      "pray": 1324,
      "##ured": 1325,
      "suff": 1326,
      "##ata": 1327,
      "##quiry": 1328,
      "charge": 1329,
      "consumer": 1330,
      "rest": 1331,
      "annex": 1332,
      "noted": 1333,
      "far": 1334,
      "source": 1335,
      "result": 1336,
      "##ign": 1337,
      "##ks": 1338,
      "conditions": 1339,
      "shown": 1340,
      "##han": 1341,
      "office": 1342,
      "purchas": 1343,
      "prosec": 1344,
      "##char": 1345,
      "offence": 1346,
      "reported": 1347,
      "examined": 1348,
      "article": 1349,
      "pos": 1350,
      "153": 1351,
      "use": 1352,
      "jo": 1353,
      "indian": 1354,
      "others": 1355,
      "holding": 1356,
      "those": 1357,
      "##ke": 1358,
      "##eme": 1359,
      "##ading": 1360,
      "sit": 1361,
      "ape": 1362,
      "##ging": 1363,
      "dou": 1364,
      "finance": 1365,
      "custom": 1366,
      "##eting": 1367,
      "scheme": 1368,
      "##way": 1369,
      "explain": 1370,
      "add": 1371,
      "contribution": 1372,
      "apex": 1373,
      "35": 1374,
      "##ateg": 1375,
      "##ather": 1376,
      "exemption": 1377,
      "priv": 1378,
      "itself": 1379,
      "cover": 1380,
      "finding": 1381,
      "cross": 1382,
      "ph": 1383,
      "##ness": 1384,
      "##icient": 1385,
      "seeking": 1386,
      "medical": 1387,
      "##bers": 1388,
      "##oc": 1389,
      "below": 1390,
      "##rought": 1391,
      "##pc": 1392,
      "brought": 1393,
      "##inted": 1394,
      "correct": 1395,
      "perused": 1396,
      "end": 1397,
      "prescribed": 1398,
      "very": 1399,
      "prove": 1400,
      "judicial": 1401,
      "obje": 1402,
      "##ys": 1403,
      "benefit": 1404,
      "rti": 1405,
      "##roduced": 1406,
      "##uation": 1407,
      "itat": 1408,
      "provide": 1409,
      "demand": 1410,
      "prop": 1411,
      "regular": 1412,
      "profit": 1413,
      "##mission": 1414,
      "records": 1415,
      "categ": 1416,
      "number": 1417,
      "indust": 1418,
      "ah": 1419,
      "fam": 1420,
      "settled": 1421,
      "##ional": 1422,
      "purchase": 1423,
      "bearing": 1424,
      "word": 1425,
      "special": 1426,
      "taking": 1427,
      "dig": 1428,
      "need": 1429,
      "duly": 1430,
      "conclusion": 1431,
      "##ta": 1432,
      "av": 1433,
      "##urred": 1434,
      "oc": 1435,
      "relief": 1436,
      "premises": 1437,
      "discl": 1438,
      "##ined": 1439,
      "sm": 1440,
      "eng": 1441,
      "ten": 1442,
      "object": 1443,
      "sen": 1444,
      "invol": 1445,
      "exc": 1446,
      "contended": 1447,
      "rate": 1448,
      "family": 1449,
      "263": 1450,
      "position": 1451,
      "##ugh": 1452,
      "aud": 1453,
      "appreci": 1454,
      "herein": 1455,
      "commer": 1456,
      "##atory": 1457,
      "construction": 1458,
      "decisions": 1459,
      "manuf": 1460,
      "manufact": 1461,
      "##ater": 1462,
      "##ailed": 1463,
      "adj": 1464,
      "declar": 1465,
      "produced": 1466,
      "##taining": 1467,
      "balance": 1468,
      "vehicle": 1469,
      "##older": 1470,
      "digital": 1471,
      "sa": 1472,
      "done": 1473,
      "private": 1474,
      "specific": 1475,
      "dischar": 1476,
      "mean": 1477,
      "proced": 1478,
      "came": 1479,
      "treated": 1480,
      "prior": 1481,
      "##ately": 1482,
      "charges": 1483,
      "ful": 1484,
      "creditor": 1485,
      "subst": 1486,
      "either": 1487,
      "laid": 1488,
      "group": 1489,
      "raj": 1490,
      "till": 1491,
      "actual": 1492,
      "sufficient": 1493,
      "get": 1494,
      "##ife": 1495,
      "deed": 1496,
      "know": 1497,
      "oa": 1498,
      "reliance": 1499,
      "lakh": 1500,
      "33": 1501,
      "national": 1502,
      "viol": 1503,
      "##wal": 1504,
      "members": 1505,
      "taxman": 1506,
      "payments": 1507,
      "##ortun": 1508,
      "paper": 1509,
      "opportun": 1510,
      "port": 1511,
      "follows": 1512,
      "##na": 1513,
      "im": 1514,
      "deposit": 1515,
      "pending": 1516,
      "bail": 1517,
      "##ores": 1518,
      "##unic": 1519,
      "revision": 1520,
      "submits": 1521,
      "sections": 1522,
      "approval": 1523,
      "digitally": 1524,
      "##ages": 1525,
      "68": 1526,
      "##ried": 1527,
      "findings": 1528,
      "mand": 1529,
      "director": 1530,
      "sheet": 1531,
      "##ator": 1532,
      "##ines": 1533,
      "##aged": 1534,
      "rent": 1535,
      "05": 1536,
      "##gn": 1537,
      "registration": 1538,
      "presu": 1539,
      "##ached": 1540,
      "ser": 1541,
      "open": 1542,
      "argued": 1543,
      "appoint": 1544,
      "##uch": 1545,
      "elect": 1546,
      "ident": 1547,
      "lev": 1548,
      "##har": 1549,
      "err": 1550,
      "##ps": 1551,
      "und": 1552,
      "##ger": 1553,
      "funds": 1554,
      "fall": 1555,
      "##ha": 1556,
      "care": 1557,
      "profess": 1558,
      "hus": 1559,
      "secur": 1560,
      "anr": 1561,
      "##set": 1562,
      "##oneous": 1563,
      "creditors": 1564,
      "investment": 1565,
      "ib": 1566,
      "##band": 1567,
      "erroneous": 1568,
      "bar": 1569,
      "certificate": 1570,
      "##over": 1571,
      "come": 1572,
      "san": 1573,
      "test": 1574,
      "##oses": 1575,
      "signature": 1576,
      "##idav": 1577,
      "prim": 1578,
      "gain": 1579,
      "09": 1580,
      "affidav": 1581,
      "ia": 1582,
      "term": 1583,
      "doubt": 1584,
      "##ium": 1585,
      "presumption": 1586,
      "instru": 1587,
      "##ures": 1588,
      "put": 1589,
      "39": 1590,
      "ram": 1591,
      "##less": 1592,
      "38": 1593,
      "valid": 1594,
      "months": 1595,
      "thir": 1596,
      "crores": 1597,
      "##ural": 1598,
      "139": 1599,
      "commit": 1600,
      "alleg": 1601,
      "prosecution": 1602,
      "neg": 1603,
      "ms": 1604,
      "sy": 1605,
      "commercial": 1606,
      "seized": 1607,
      "fix": 1608,
      "annexure": 1609,
      "arbitration": 1610,
      "senior": 1611,
      "merely": 1612,
      "exist": 1613,
      "sust": 1614,
      "head": 1615,
      "price": 1616,
      "called": 1617,
      "opportunity": 1618,
      "stock": 1619,
      "absence": 1620,
      "reproduced": 1621,
      "working": 1622,
      "air": 1623,
      "04": 1624,
      "furnished": 1625,
      "husband": 1626,
      "disc": 1627,
      "dri": 1628,
      "son": 1629,
      "bey": 1630,
      "beyond": 1631,
      "arguments": 1632,
      "kol": 1633,
      "operative": 1634,
      "bill": 1635,
      "excl": 1636,
      "amendment": 1637,
      "##mon": 1638,
      "##air": 1639,
      "48": 1640,
      "house": 1641,
      "proceeding": 1642,
      "union": 1643,
      "pursu": 1644,
      "##cation": 1645,
      "##wise": 1646,
      "##rate": 1647,
      "##ya": 1648,
      "att": 1649,
      "mind": 1650,
      "defa": 1651,
      "uph": 1652,
      "08": 1653,
      "undert": 1654,
      "excise": 1655,
      "inj": 1656,
      "accident": 1657,
      "##ances": 1658,
      "ans": 1659,
      "otherwise": 1660,
      "edu": 1661,
      "carried": 1662,
      "ito": 1663,
      "affidavit": 1664,
      "control": 1665,
      "real": 1666,
      "##ody": 1667,
      "accept": 1668,
      "sales": 1669,
      "bri": 1670,
      "leg": 1671,
      "##pl": 1672,
      "cre": 1673,
      "fore": 1674,
      "specified": 1675,
      "##ware": 1676,
      "197": 1677,
      "confirm": 1678,
      "denied": 1679,
      "42": 1680,
      "##ds": 1681,
      "##ility": 1682,
      "##bai": 1683,
      "##ts": 1684,
      "stage": 1685,
      "once": 1686,
      "suf": 1687,
      "exce": 1688,
      "suffer": 1689,
      "principal": 1690,
      "##ants": 1691,
      "hos": 1692,
      "detention": 1693,
      "provis": 1694,
      "##inate": 1695,
      "##tee": 1696,
      "contrary": 1697,
      "relating": 1698,
      "##eep": 1699,
      "mumbai": 1700,
      "light": 1701,
      "challenged": 1702,
      "undertak": 1703,
      "direction": 1704,
      "procedure": 1705,
      "cpio": 1706,
      "consequent": 1707,
      "wrong": 1708,
      "establish": 1709,
      "long": 1710,
      "##ences": 1711,
      "bel": 1712,
      "##ivity": 1713,
      "provides": 1714,
      "##war": 1715,
      "like": 1716,
      "##pr": 1717,
      "unless": 1718,
      "pan": 1719,
      "got": 1720,
      "mot": 1721,
      "express": 1722,
      "product": 1723,
      "##ying": 1724,
      "coc": 1725,
      "pe": 1726,
      "##bi": 1727,
      "reasonable": 1728,
      "purposes": 1729,
      "pcit": 1730,
      "offer": 1731,
      "giving": 1732,
      "enter": 1733,
      "arr": 1734,
      "proved": 1735,
      "contin": 1736,
      "45": 1737,
      "applied": 1738,
      "07": 1739,
      "##amp": 1740,
      "remain": 1741,
      "54": 1742,
      "##vey": 1743,
      "appearing": 1744,
      "##wer": 1745,
      "proviso": 1746,
      "covered": 1747,
      "arising": 1748,
      "ut": 1749,
      "hospital": 1750,
      "##vers": 1751,
      "41": 1752,
      "incurred": 1753,
      "technical": 1754,
      "default": 1755,
      "complete": 1756,
      "har": 1757,
      "mag": 1758,
      "circular": 1759,
      "exec": 1760,
      "##itness": 1761,
      "namely": 1762,
      "2010": 1763,
      "hy": 1764,
      "fram": 1765,
      "age": 1766,
      "seen": 1767,
      "iv": 1768,
      "less": 1769,
      "fail": 1770,
      "child": 1771,
      "neither": 1772,
      "rights": 1773,
      "147": 1774,
      "leave": 1775,
      "conducted": 1776,
      "verified": 1777,
      "payable": 1778,
      "whereas": 1779,
      "observations": 1780,
      "give": 1781,
      "separ": 1782,
      "crl": 1783,
      "my": 1784,
      "01": 1785,
      "lakhs": 1786,
      "##ked": 1787,
      "member": 1788,
      "##00": 1789,
      "##aj": 1790,
      "##hing": 1791,
      "oblig": 1792,
      "69": 1793,
      "sent": 1794,
      "deposited": 1795,
      "##ani": 1796,
      "every": 1797,
      "committee": 1798,
      "mad": 1799,
      "guar": 1800,
      "##cing": 1801,
      "##ested": 1802,
      "therein": 1803,
      "guarant": 1804,
      "communic": 1805,
      "pw1": 1806,
      "professional": 1807,
      "##oid": 1808,
      "forum": 1809,
      "sr": 1810,
      "brief": 1811,
      "substant": 1812,
      "offences": 1813,
      "related": 1814,
      "##ival": 1815,
      "##dra": 1816,
      "matters": 1817,
      "lic": 1818,
      "merits": 1819,
      "##ected": 1820,
      "44": 1821,
      "agre": 1822,
      "tra": 1823,
      "ste": 1824,
      "request": 1825,
      "involved": 1826,
      "dcit": 1827,
      "witness": 1828,
      "amounts": 1829,
      "contained": 1830,
      "audit": 1831,
      "extent": 1832,
      "activity": 1833,
      "directions": 1834,
      "##ulated": 1835,
      "invok": 1836,
      "committed": 1837,
      "market": 1838,
      "enquiry": 1839,
      "bom": 1840,
      "##ligible": 1841,
      "195": 1842,
      "providing": 1843,
      "jain": 1844,
      "prom": 1845,
      "##aded": 1846,
      "smt": 1847,
      "perform": 1848,
      "2011": 1849,
      "##ake": 1850,
      "1st": 1851,
      "##ally": 1852,
      "carry": 1853,
      "owner": 1854,
      "completed": 1855,
      "aver": 1856,
      "adjust": 1857,
      "ipc": 1858,
      "06": 1859,
      "previous": 1860,
      "taxmann": 1861,
      "appointment": 1862,
      "##iss": 1863,
      "passing": 1864,
      "##pite": 1865,
      "##sh": 1866,
      "cal": 1867,
      "teach": 1868,
      "third": 1869,
      "eligible": 1870,
      "##wor": 1871,
      "firm": 1872,
      "di": 1873,
      "##arat": 1874,
      "##uded": 1875,
      "you": 1876,
      "trade": 1877,
      "withdra": 1878,
      "occ": 1879,
      "46": 1880,
      "##po": 1881,
      "138": 1882,
      "##ood": 1883,
      "never": 1884,
      "inf": 1885,
      "drawn": 1886,
      "furnish": 1887,
      "compet": 1888,
      "incor": 1889,
      "deter": 1890,
      "nothing": 1891,
      "convi": 1892,
      "four": 1893,
      "took": 1894,
      "chand": 1895,
      "agreed": 1896,
      "##overy": 1897,
      "aspect": 1898,
      "station": 1899,
      "satisfied": 1900,
      "principle": 1901,
      "fixed": 1902,
      "em": 1903,
      "bad": 1904,
      "means": 1905,
      "magist": 1906,
      "words": 1907,
      "build": 1908,
      "##osal": 1909,
      "common": 1910,
      "clar": 1911,
      "##cs": 1912,
      "punish": 1913,
      "sel": 1914,
      "cheques": 1915,
      "asset": 1916,
      "served": 1917,
      "acit": 1918,
      "60": 1919,
      "declared": 1920,
      "claims": 1921,
      "##pur": 1922,
      "guj": 1923,
      "mod": 1924,
      "##ides": 1925,
      "cap": 1926,
      "##lt": 1927,
      "scr": 1928,
      "objection": 1929,
      "response": 1930,
      "last": 1931,
      "explained": 1932,
      "principles": 1933,
      "class": 1934,
      "47": 1935,
      "adver": 1936,
      "agric": 1937,
      "collect": 1938,
      "magistrate": 1939,
      "allot": 1940,
      "list": 1941,
      "determin": 1942,
      "##fully": 1943,
      "##action": 1944,
      "##iding": 1945,
      "judgments": 1946,
      "arbitral": 1947,
      "approved": 1948,
      "##anch": 1949,
      "subs": 1950,
      "recovery": 1951,
      "resident": 1952,
      "powers": 1953,
      "##jay": 1954,
      "271": 1955,
      "ir": 1956,
      "area": 1957,
      "##ties": 1958,
      "much": 1959,
      "dh": 1960,
      "##ught": 1961,
      "disposed": 1962,
      "56": 1963,
      "49": 1964,
      "sole": 1965,
      "justified": 1966,
      "sold": 1967,
      "quashed": 1968,
      "##go": 1969,
      "sharma": 1970,
      "himself": 1971,
      "tur": 1972,
      "specifically": 1973,
      "six": 1974,
      "thereof": 1975,
      "ur": 1976,
      "undis": 1977,
      "subsequently": 1978,
      "fl": 1979,
      "security": 1980,
      "unit": 1981,
      "##ister": 1982,
      "personal": 1983,
      "electric": 1984,
      "low": 1985,
      "obtained": 1986,
      "disputes": 1987,
      "answer": 1988,
      "materials": 1989,
      "import": 1990,
      "asso": 1991,
      "sell": 1992,
      "injur": 1993,
      "##con": 1994,
      "hands": 1995,
      "relation": 1996,
      "reads": 1997,
      "##isl": 1998,
      "2009": 1999,
      "appears": 2000,
      "##agar": 2001,
      "associ": 2002,
      "despite": 2003,
      "address": 2004,
      "syst": 2005,
      "shows": 2006,
      "148": 2007,
      "manag": 2008,
      "meaning": 2009,
      "##put": 2010,
      "rightly": 2011,
      "##ope": 2012,
      "road": 2013,
      "##lying": 2014,
      "legisl": 2015,
      "##cell": 2016,
      "ord": 2017,
      "##ently": 2018,
      "roy": 2019,
      "father": 2020,
      "march": 2021,
      "ret": 2022,
      "mother": 2023,
      "established": 2024,
      "sl": 2025,
      "liqu": 2026,
      "apr": 2027,
      "deposed": 2028,
      "##closed": 2029,
      "examine": 2030,
      "##mpt": 2031,
      "your": 2032,
      "##pa": 2033,
      "vis": 2034,
      "guid": 2035,
      "arri": 2036,
      "##une": 2037,
      "loc": 2038,
      "2005": 2039,
      "##ren": 2040,
      "refer": 2041,
      "##arily": 2042,
      "survey": 2043,
      "engaged": 2044,
      "##ne": 2045,
      "confirmed": 2046,
      "##ka": 2047,
      "fresh": 2048,
      "##olog": 2049,
      "force": 2050,
      "supplied": 2051,
      "prote": 2052,
      "official": 2053,
      "net": 2054,
      "followed": 2055,
      "##urr": 2056,
      "violation": 2057,
      "bre": 2058,
      "argument": 2059,
      "##ired": 2060,
      "refund": 2061,
      "bor": 2062,
      "fee": 2063,
      "advance": 2064,
      "alia": 2065,
      "anal": 2066,
      "say": 2067,
      "education": 2068,
      "ought": 2069,
      "scrut": 2070,
      "evident": 2071,
      "scrutin": 2072,
      "earned": 2073,
      "operational": 2074,
      "prejudic": 2075,
      "va": 2076,
      "detailed": 2077,
      "operation": 2078,
      "sever": 2079,
      "nex": 2080,
      "compli": 2081,
      "02": 2082,
      "foreign": 2083,
      "##ah": 2084,
      "appointed": 2085,
      "##arr": 2086,
      "april": 2087,
      "redu": 2088,
      "##osing": 2089,
      "count": 2090,
      "alter": 2091,
      "compar": 2092,
      "scope": 2093,
      "##als": 2094,
      "75": 2095,
      "calc": 2096,
      "132": 2097,
      "meth": 2098,
      "entries": 2099,
      "receipts": 2100,
      "notic": 2101,
      "2008": 2102,
      "cand": 2103,
      "conte": 2104,
      "##ossible": 2105,
      "additions": 2106,
      "mach": 2107,
      "method": 2108,
      "##ization": 2109,
      "gone": 2110,
      "##ners": 2111,
      "old": 2112,
      "53": 2113,
      "substantial": 2114,
      "categor": 2115,
      "##ealth": 2116,
      "protection": 2117,
      "lab": 2118,
      "153a": 2119,
      "##with": 2120,
      "##has": 2121,
      "dam": 2122,
      "purchased": 2123,
      "prejudicial": 2124,
      "keep": 2125,
      "loans": 2126,
      "candid": 2127,
      "manage": 2128,
      "shareh": 2129,
      "##den": 2130,
      "discharge": 2131,
      "##ny": 2132,
      "##gt": 2133,
      "nat": 2134,
      "qual": 2135,
      "conce": 2136,
      "65": 2137,
      "framed": 2138,
      "bro": 2139,
      "vac": 2140,
      "electricity": 2141,
      "57": 2142,
      "##pta": 2143,
      "##edule": 2144,
      "##iew": 2145,
      "##inder": 2146,
      "##ery": 2147,
      "pointed": 2148,
      "schedule": 2149,
      "fac": 2150,
      "supply": 2151,
      "##ledge": 2152,
      "returned": 2153,
      "states": 2154,
      "43b": 2155,
      "##ultur": 2156,
      "satisfaction": 2157,
      "upheld": 2158,
      "##ening": 2159,
      "##clt": 2160,
      "review": 2161,
      "stud": 2162,
      "id": 2163,
      "##olders": 2164,
      "sug": 2165,
      "gupta": 2166,
      "entry": 2167,
      "full": 2168,
      "going": 2169,
      "##aff": 2170,
      "category": 2171,
      "##ters": 2172,
      "100": 2173,
      "##acity": 2174,
      "64": 2175,
      "merit": 2176,
      "laws": 2177,
      "##els": 2178,
      "informed": 2179,
      "premium": 2180,
      "ka": 2181,
      "look": 2182,
      "summon": 2183,
      "existing": 2184,
      "##ool": 2185,
      "prepar": 2186,
      "red": 2187,
      "##reciation": 2188,
      "lease": 2189,
      "joint": 2190,
      "meeting": 2191,
      "mere": 2192,
      "cirp": 2193,
      "tds": 2194,
      "dev": 2195,
      "natural": 2196,
      "bomb": 2197,
      "valuation": 2198,
      "thereby": 2199,
      "later": 2200,
      "ke": 2201,
      "change": 2202,
      "scrutiny": 2203,
      "58": 2204,
      "side": 2205,
      "wife": 2206,
      "rival": 2207,
      "plea": 2208,
      "agricultur": 2209,
      "##gr": 2210,
      "advoc": 2211,
      "chan": 2212,
      "##medi": 2213,
      "90": 2214,
      "taxable": 2215,
      "notices": 2216,
      "##ici": 2217,
      "depreciation": 2218,
      "da": 2219,
      "conn": 2220,
      "offered": 2221,
      "bur": 2222,
      "##ored": 2223,
      "noticed": 2224,
      "partners": 2225,
      "similarly": 2226,
      "prayed": 2227,
      "##ext": 2228,
      "fal": 2229,
      "stat": 2230,
      "reb": 2231,
      "deli": 2232,
      "vir": 2233,
      "invo": 2234,
      "profits": 2235,
      "several": 2236,
      "interim": 2237,
      "incre": 2238,
      "##thing": 2239,
      "67": 2240,
      "completion": 2241,
      "##ordinate": 2242,
      "##ems": 2243,
      "rat": 2244,
      "soft": 2245,
      "61": 2246,
      "proof": 2247,
      "apart": 2248,
      "bombay": 2249,
      "compliance": 2250,
      "##gth": 2251,
      "##abad": 2252,
      "industries": 2253,
      "##ale": 2254,
      "cb": 2255,
      "ce": 2256,
      "stands": 2257,
      "regulations": 2258,
      "true": 2259,
      "fair": 2260,
      "belong": 2261,
      "52": 2262,
      "left": 2263,
      "cpc": 2264,
      "##ang": 2265,
      "##sure": 2266,
      "51": 2267,
      "higher": 2268,
      "management": 2269,
      "##ief": 2270,
      "ow": 2271,
      "71": 2272,
      "prad": 2273,
      "outs": 2274,
      "applications": 2275,
      "investig": 2276,
      "##mal": 2277,
      "##cted": 2278,
      "appeared": 2279,
      "lower": 2280,
      "194": 2281,
      "execution": 2282,
      "##elines": 2283,
      "whereby": 2284,
      "turn": 2285,
      "tar": 2286,
      "liquid": 2287,
      "possible": 2288,
      "agricultural": 2289,
      "##ca": 2290,
      "knowledge": 2291,
      "lal": 2292,
      "mut": 2293,
      "immedi": 2294,
      "ess": 2295,
      "sol": 2296,
      "assu": 2297,
      "branch": 2298,
      "amounting": 2299,
      "deposits": 2300,
      "##judice": 2301,
      "fees": 2302,
      "punj": 2303,
      "##ib": 2304,
      "situ": 2305,
      "titled": 2306,
      "##ctor": 2307,
      "disputed": 2308,
      "issuance": 2309,
      "five": 2310,
      "vers": 2311,
      "inquiry": 2312,
      "##mar": 2313,
      "system": 2314,
      "except": 2315,
      "ps": 2316,
      "##line": 2317,
      "prejudice": 2318,
      "separate": 2319,
      "single": 2320,
      "gujarat": 2321,
      "##acc": 2322,
      "tenant": 2323,
      "taxation": 2324,
      "lead": 2325,
      "rp": 2326,
      "directors": 2327,
      "##uses": 2328,
      "##mo": 2329,
      "recru": 2330,
      "continu": 2331,
      "##ably": 2332,
      "investments": 2333,
      "building": 2334,
      "copies": 2335,
      "claimant": 2336,
      "##itable": 2337,
      "rail": 2338,
      "event": 2339,
      "dt": 2340,
      "##icles": 2341,
      "fun": 2342,
      "rebut": 2343,
      "##ning": 2344,
      "exch": 2345,
      "ign": 2346,
      "regulation": 2347,
      "63": 2348,
      "punjab": 2349,
      "##stand": 2350,
      "penal": 2351,
      "extract": 2352,
      "##miss": 2353,
      "incident": 2354,
      "software": 2355,
      "appar": 2356,
      "drp": 2357,
      "ja": 2358,
      "##rial": 2359,
      "der": 2360,
      "55": 2361,
      "led": 2362,
      "gross": 2363,
      "school": 2364,
      "##ential": 2365,
      "status": 2366,
      "pension": 2367,
      "kind": 2368,
      "stating": 2369,
      "concern": 2370,
      "##ph": 2371,
      "stip": 2372,
      "##ony": 2373,
      "trading": 2374,
      "owners": 2375,
      "revised": 2376,
      "##ived": 2377,
      "met": 2378,
      "factual": 2379,
      "challenge": 2380,
      "##ancy": 2381,
      "communication": 2382,
      "asked": 2383,
      "ash": 2384,
      "patient": 2385,
      "##ron": 2386,
      "2006": 2387,
      "ss": 2388,
      "70": 2389,
      "standard": 2390,
      "62": 2391,
      "portion": 2392,
      "staff": 2393,
      "capacity": 2394,
      "objections": 2395,
      "quant": 2396,
      "##ways": 2397,
      "##missible": 2398,
      "##ala": 2399,
      "competent": 2400,
      "advocate": 2401,
      "imposed": 2402,
      "59": 2403,
      "sustained": 2404,
      "fit": 2405,
      "2024": 2406,
      "home": 2407,
      "caused": 2408,
      "admission": 2409,
      "whole": 2410,
      "##iving": 2411,
      "maintained": 2412,
      "identical": 2413,
      "92": 2414,
      "late": 2415,
      "simp": 2416,
      "employer": 2417,
      "##kata": 2418,
      "termin": 2419,
      "cited": 2420,
      "##osure": 2421,
      "approach": 2422,
      "expression": 2423,
      "pf": 2424,
      "particulars": 2425,
      "adop": 2426,
      "pradesh": 2427,
      "why": 2428,
      "allegations": 2429,
      "adopted": 2430,
      "context": 2431,
      "reject": 2432,
      "officers": 2433,
      "limit": 2434,
      "##rom": 2435,
      "##ote": 2436,
      "admittedly": 2437,
      "tpo": 2438,
      "ibc": 2439,
      "viz": 2440,
      "still": 2441,
      "fut": 2442,
      "2007": 2443,
      "industrial": 2444,
      "bring": 2445,
      "cancell": 2446,
      "flat": 2447,
      "chief": 2448,
      "include": 2449,
      "##oted": 2450,
      "death": 2451,
      "punishable": 2452,
      "##pping": 2453,
      "guidelines": 2454,
      "80p": 2455,
      "discre": 2456,
      "##ead": 2457,
      "consent": 2458,
      "chny": 2459,
      "concluded": 2460,
      "connected": 2461,
      "pursuant": 2462,
      "pertaining": 2463,
      "##port": 2464,
      "reop": 2465,
      "ct": 2466,
      "decide": 2467,
      "allegation": 2468,
      "lar": 2469,
      "failure": 2470,
      "ahd": 2471,
      "prepared": 2472,
      "needs": 2473,
      "proposed": 2474,
      "disclosed": 2475,
      "##ven": 2476,
      "##aud": 2477,
      "royalty": 2478,
      "advan": 2479,
      "##ainable": 2480,
      "whom": 2481,
      "outside": 2482,
      "points": 2483,
      "74": 2484,
      "##kar": 2485,
      "equip": 2486,
      "situation": 2487,
      "remand": 2488,
      "pract": 2489,
      "##illa": 2490,
      "bengal": 2491,
      "66": 2492,
      "onus": 2493,
      "adjustment": 2494,
      "life": 2495,
      "defined": 2496,
      "benefits": 2497,
      "ed": 2498,
      "data": 2499,
      "kolkata": 2500,
      "##isted": 2501,
      "burden": 2502,
      "documentary": 2503,
      "incorrect": 2504,
      "##exp": 2505,
      "permission": 2506,
      "suffering": 2507,
      "##now": 2508,
      "online": 2509,
      "gains": 2510,
      "supported": 2511,
      "ju": 2512,
      "##res": 2513,
      "health": 2514,
      "allowing": 2515,
      "dom": 2516,
      "warr": 2517,
      "included": 2518,
      "##ection": 2519,
      "affir": 2520,
      "buy": 2521,
      "bangal": 2522,
      "indic": 2523,
      "products": 2524,
      "grie": 2525,
      "##ension": 2526,
      "griev": 2527,
      "regards": 2528,
      "approached": 2529,
      "disallowed": 2530,
      "next": 2531,
      "conver": 2532,
      "##ret": 2533,
      "##itle": 2534,
      "export": 2535,
      "mah": 2536,
      "##uk": 2537,
      "recruit": 2538,
      "salary": 2539,
      "##ie": 2540,
      "unexp": 2541,
      "virt": 2542,
      "body": 2543,
      "curr": 2544,
      "forward": 2545,
      "bills": 2546,
      "identity": 2547,
      "##to": 2548,
      "plant": 2549,
      "2003": 2550,
      "##ased": 2551,
      "bi": 2552,
      "esi": 2553,
      "arise": 2554,
      "##riage": 2555,
      "unexplain": 2556,
      "qua": 2557,
      "stay": 2558,
      "acquir": 2559,
      "memo": 2560,
      "##ane": 2561,
      "carrying": 2562,
      "obligation": 2563,
      "barred": 2564,
      "##mpl": 2565,
      "cond": 2566,
      "unexplained": 2567,
      "kh": 2568,
      "yes": 2569,
      "vict": 2570,
      "uni": 2571,
      "whose": 2572,
      "vol": 2573,
      "free": 2574,
      "produce": 2575,
      "children": 2576,
      "claiming": 2577,
      "inser": 2578,
      "computation": 2579,
      "site": 2580,
      "victim": 2581,
      "devi": 2582,
      "genu": 2583,
      "remo": 2584,
      "bangalore": 2585,
      "rupe": 2586,
      "draw": 2587,
      "72": 2588,
      "consult": 2589,
      "complainants": 2590,
      "shop": 2591,
      "bog": 2592,
      "exchange": 2593,
      "blo": 2594,
      "kv": 2595,
      "consequently": 2596,
      "prayer": 2597,
      "##gether": 2598,
      "phys": 2599,
      "advanced": 2600,
      "2004": 2601,
      "excess": 2602,
      "##iness": 2603,
      "cw": 2604,
      "customers": 2605,
      "technolog": 2606,
      "shi": 2607,
      "##tin": 2608,
      "enc": 2609,
      "properties": 2610,
      "charged": 2611,
      "00": 2612,
      "##oper": 2613,
      "bind": 2614,
      "directly": 2615,
      "142": 2616,
      "hereby": 2617,
      "##gan": 2618,
      "adjudication": 2619,
      "analys": 2620,
      "moreover": 2621,
      "recruitment": 2622,
      "future": 2623,
      "flo": 2624,
      "bon": 2625,
      "cc": 2626,
      "bang": 2627,
      "setting": 2628,
      "sw": 2629,
      "become": 2630,
      "jan": 2631,
      "##iable": 2632,
      "bogus": 2633,
      "##lies": 2634,
      "lacs": 2635,
      "ga": 2636,
      "daugh": 2637,
      "nclt": 2638,
      "imple": 2639,
      "relying": 2640,
      "estate": 2641,
      "rupees": 2642,
      "sri": 2643,
      "##ipur": 2644,
      "quashing": 2645,
      "most": 2646,
      "able": 2647,
      "##elf": 2648,
      "115": 2649,
      "proposal": 2650,
      "dd": 2651,
      "##row": 2652,
      "##co": 2653,
      "plot": 2654,
      "ratio": 2655,
      "undisclosed": 2656,
      "repay": 2657,
      "sanction": 2658,
      "ty": 2659,
      "bid": 2660,
      "emphas": 2661,
      "sun": 2662,
      "costs": 2663,
      "keeping": 2664,
      "amended": 2665,
      "known": 2666,
      "73": 2667,
      "79": 2668,
      "##iff": 2669,
      "din": 2670,
      "buil": 2671,
      "appreciate": 2672,
      "unt": 2673,
      "##atch": 2674,
      "om": 2675,
      "guarantee": 2676,
      "cooper": 2677,
      "##ras": 2678,
      "ni": 2679,
      "85": 2680,
      "portal": 2681,
      "##sp": 2682,
      "centre": 2683,
      "villa": 2684,
      "confirming": 2685,
      "immediately": 2686,
      "manager": 2687,
      "##erc": 2688,
      "##igned": 2689,
      "serious": 2690,
      "asst": 2691,
      "##king": 2692,
      "hard": 2693,
      "78": 2694,
      "##ees": 2695,
      "treat": 2696,
      "fully": 2697,
      "str": 2698,
      "deduct": 2699,
      "estim": 2700,
      "esc": 2701,
      "##cie": 2702,
      "genuine": 2703,
      "instead": 2704,
      "entity": 2705,
      "sar": 2706,
      "##her": 2707,
      "replied": 2708,
      "labour": 2709,
      "awarded": 2710,
      "brok": 2711,
      "sources": 2712,
      "##ively": 2713,
      "chap": 2714,
      "##ogn": 2715,
      "arises": 2716,
      "customs": 2717,
      "liquidator": 2718,
      "rather": 2719,
      "discharged": 2720,
      "2002": 2721,
      "important": 2722,
      "##ati": 2723,
      "situated": 2724,
      "clauses": 2725,
      "fill": 2726,
      "coming": 2727,
      "avoid": 2728,
      "cli": 2729,
      "dealt": 2730,
      "recogn": 2731,
      "len": 2732,
      "bound": 2733,
      "##thiness": 2734,
      "76": 2735,
      "false": 2736,
      "##omes": 2737,
      "driver": 2738,
      "actually": 2739,
      "enterpr": 2740,
      "render": 2741,
      "##iter": 2742,
      "##dt": 2743,
      "primary": 2744,
      "fi": 2745,
      "facie": 2746,
      "##iciency": 2747,
      "warrant": 2748,
      "patna": 2749,
      "##day": 2750,
      "counter": 2751,
      "essential": 2752,
      "reve": 2753,
      "##chan": 2754,
      "spouse": 2755,
      "authorized": 2756,
      "##ics": 2757,
      "##ja": 2758,
      "returns": 2759,
      "many": 2760,
      "selection": 2761,
      "##ita": 2762,
      "lod": 2763,
      "##uru": 2764,
      "mist": 2765,
      "dues": 2766,
      "mill": 2767,
      "##af": 2768,
      "##ison": 2769,
      "conviction": 2770,
      "##spect": 2771,
      "tariff": 2772,
      "projects": 2773,
      "marked": 2774,
      "chapter": 2775,
      "##asion": 2776,
      "together": 2777,
      "brother": 2778,
      "##30": 2779,
      "design": 2780,
      "issuing": 2781,
      "##ense": 2782,
      "govt": 2783,
      "certified": 2784,
      "computing": 2785,
      "ult": 2786,
      "fraud": 2787,
      "##ulted": 2788,
      "apparent": 2789,
      "perman": 2790,
      "motor": 2791,
      "pages": 2792,
      "kept": 2793,
      "observation": 2794,
      "ensure": 2795,
      "##cies": 2796,
      "saf": 2797,
      "tgt": 2798,
      "reading": 2799,
      "mandatory": 2800,
      "reopening": 2801,
      "line": 2802,
      "machin": 2803,
      "relations": 2804,
      "face": 2805,
      "lan": 2806,
      "pertin": 2807,
      "marriage": 2808,
      "valu": 2809,
      "spot": 2810,
      "impr": 2811,
      "##inary": 2812,
      "144": 2813,
      "gre": 2814,
      "register": 2815,
      "moh": 2816,
      "nil": 2817,
      "##lax": 2818,
      "coordinate": 2819,
      "prima": 2820,
      "##ding": 2821,
      "banks": 2822,
      "length": 2823,
      "option": 2824,
      "makes": 2825,
      "crore": 2826,
      "95": 2827,
      "judgement": 2828,
      "remained": 2829,
      "mv": 2830,
      "daughter": 2831,
      "sk": 2832,
      "##uary": 2833,
      "item": 2834,
      "##ends": 2835,
      "handed": 2836,
      "liber": 2837,
      "recording": 2838,
      "dw": 2839,
      "##ik": 2840,
      "charitable": 2841,
      "manufacturing": 2842,
      "cbdt": 2843,
      "91": 2844,
      "disclosure": 2845,
      "##oring": 2846,
      "deleting": 2847,
      "##oting": 2848,
      "equity": 2849,
      "food": 2850,
      "##iary": 2851,
      "shipping": 2852,
      "determination": 2853,
      "##com": 2854,
      "##enn": 2855,
      "arrived": 2856,
      "alth": 2857,
      "contents": 2858,
      "title": 2859,
      "prob": 2860,
      "star": 2861,
      "97": 2862,
      "##jo": 2863,
      "posted": 2864,
      "undertaking": 2865,
      "although": 2866,
      "purchases": 2867,
      "##ude": 2868,
      "alongwith": 2869,
      "works": 2870,
      "signing": 2871,
      "june": 2872,
      "##ush": 2873,
      "kar": 2874,
      "14a": 2875,
      "kr": 2876,
      "water": 2877,
      "gra": 2878,
      "94": 2879,
      "consist": 2880,
      "equipment": 2881,
      "install": 2882,
      "pm": 2883,
      "##ives": 2884,
      "anything": 2885,
      "##standing": 2886,
      "candidates": 2887,
      "sou": 2888,
      "casual": 2889,
      "admit": 2890,
      "railway": 2891,
      "furnishing": 2892,
      "77": 2893,
      "marks": 2894,
      "shif": 2895,
      "binding": 2896,
      "requires": 2897,
      "card": 2898,
      "##aining": 2899,
      "pertinent": 2900,
      "##iti": 2901,
      "maj": 2902,
      "challenging": 2903,
      "departmental": 2904,
      "nagar": 2905,
      "##ep": 2906,
      "##ounted": 2907,
      "86": 2908,
      "granting": 2909,
      "el": 2910,
      "exception": 2911,
      "##hon": 2912,
      "appreciating": 2913,
      "banking": 2914,
      "extension": 2915,
      "outstanding": 2916,
      "87": 2917,
      "contempl": 2918,
      "cooperative": 2919,
      "chenn": 2920,
      "dta": 2921,
      "98": 2922,
      "arrange": 2923,
      "482": 2924,
      "lender": 2925,
      "permitted": 2926,
      "analysis": 2927,
      "chennai": 2928,
      "##usive": 2929,
      "84": 2930,
      "##ute": 2931,
      "dealing": 2932,
      "instructions": 2933,
      "observing": 2934,
      "il": 2935,
      "acquired": 2936,
      "permanent": 2937,
      "writing": 2938,
      "particularly": 2939,
      "contain": 2940,
      "mode": 2941,
      "aug": 2942,
      "none": 2943,
      "##onst": 2944,
      "relax": 2945,
      "includes": 2946,
      "##ize": 2947,
      "stipulated": 2948,
      "##olding": 2949,
      "informant": 2950,
      "1996": 2951,
      "delivery": 2952,
      "##ink": 2953,
      "acqu": 2954,
      "##arwal": 2955,
      "ahmed": 2956,
      "matri": 2957,
      "##idence": 2958,
      "hous": 2959,
      "mechan": 2960,
      "customer": 2961,
      "mult": 2962,
      "ack": 2963,
      "meet": 2964,
      "injuries": 2965,
      "##20": 2966,
      "circle": 2967,
      "server": 2968,
      "normal": 2969,
      "colle": 2970,
      "153c": 2971,
      "##rop": 2972,
      "oct": 2973,
      "creditwor": 2974,
      "created": 2975,
      "machinery": 2976,
      "unable": 2977,
      "##adi": 2978,
      "email": 2979,
      "july": 2980,
      "discretion": 2981,
      "exempt": 2982,
      "##mi": 2983,
      "##umb": 2984,
      "enterprises": 2985,
      "whol": 2986,
      "directing": 2987,
      "lay": 2988,
      "##versity": 2989,
      "squ": 2990,
      "##rd": 2991,
      "accounting": 2992,
      "slp": 2993,
      "##ari": 2994,
      "doing": 2995,
      "mal": 2996,
      "january": 2997,
      "chargeable": 2998,
      "##ability": 2999,
      "guil": 3000,
      "##be": 3001,
      "borrow": 3002,
      "relationship": 3003,
      "234": 3004,
      "##ders": 3005,
      "residential": 3006,
      "madras": 3007,
      "comes": 3008,
      "custody": 3009,
      "2nd": 3010,
      "temp": 3011,
      "creditworthiness": 3012,
      "units": 3013,
      "kaur": 3014,
      "12a": 3015,
      "langu": 3016,
      "##ulation": 3017,
      "applying": 3018,
      "subsid": 3019,
      "wom": 3020,
      "thous": 3021,
      "susp": 3022,
      "deficiency": 3023,
      "thousand": 3024,
      "too": 3025,
      "##up": 3026,
      "133": 3027,
      "negot": 3028,
      "declaring": 3029,
      "restrict": 3030,
      "entities": 3031,
      "defendants": 3032,
      "##uled": 3033,
      "village": 3034,
      "hel": 3035,
      "license": 3036,
      "prot": 3037,
      "charter": 3038,
      "yet": 3039,
      "dishon": 3040,
      "accru": 3041,
      "vii": 3042,
      "##akash": 3043,
      "organ": 3044,
      "manufacture": 3045,
      "oral": 3046,
      "today": 3047,
      "draft": 3048,
      "absol": 3049,
      "##vat": 3050,
      "ey": 3051,
      "ing": 3052,
      "secret": 3053,
      "insured": 3054,
      "near": 3055,
      "declaration": 3056,
      "##going": 3057,
      "81": 3058,
      "acknow": 3059,
      "scch": 3060,
      "##using": 3061,
      "##cri": 3062,
      "fo": 3063,
      "pleaded": 3064,
      "determining": 3065,
      "##istry": 3066,
      "physical": 3067,
      "ran": 3068,
      "##oned": 3069,
      "letters": 3070,
      "dates": 3071,
      "aged": 3072,
      "inte": 3073,
      "stamp": 3074,
      "nar": 3075,
      "minor": 3076,
      "avail": 3077,
      "plead": 3078,
      "cogn": 3079,
      "##onent": 3080,
      "wee": 3081,
      "rejecting": 3082,
      "items": 3083,
      "facility": 3084,
      "floor": 3085,
      "want": 3086,
      "association": 3087,
      "carefully": 3088,
      "prospect": 3089,
      "continue": 3090,
      "##erve": 3091,
      "securities": 3092,
      "levy": 3093,
      "mutual": 3094,
      "agree": 3095,
      "ultim": 3096,
      "aut": 3097,
      "96": 3098,
      "dtaa": 3099,
      "showing": 3100,
      "summons": 3101,
      "mvc": 3102,
      "kvs": 3103,
      "deciding": 3104,
      "unacc": 3105,
      "invoking": 3106,
      "meas": 3107,
      "conceal": 3108,
      "deput": 3109,
      "sake": 3110,
      "##bal": 3111,
      "taxes": 3112,
      "mistake": 3113,
      "div": 3114,
      "landl": 3115,
      "##rs": 3116,
      "defect": 3117,
      "major": 3118,
      "pap": 3119,
      "permissible": 3120,
      "provident": 3121,
      "team": 3122,
      "ministry": 3123,
      "##airs": 3124,
      "complied": 3125,
      "partnership": 3126,
      "occasion": 3127,
      "tru": 3128,
      "treating": 3129,
      "language": 3130,
      "##nel": 3131,
      "sugg": 3132,
      "deb": 3133,
      "breach": 3134,
      "##ull": 3135,
      "cogniz": 3136,
      "prakash": 3137,
      "bengaluru": 3138,
      "##bs": 3139,
      "holder": 3140,
      "adverse": 3141,
      "unaccounted": 3142,
      "fine": 3143,
      "remaining": 3144,
      "##cup": 3145,
      "88": 3146,
      "invoked": 3147,
      "employment": 3148,
      "##ifying": 3149,
      "invoices": 3150,
      "posts": 3151,
      "cen": 3152,
      "block": 3153,
      "dred": 3154,
      "ris": 3155,
      "observe": 3156,
      "89": 3157,
      "deem": 3158,
      "occup": 3159,
      "cha": 3160,
      "qr": 3161,
      "##cd": 3162,
      "##ling": 3163,
      "##ves": 3164,
      "contro": 3165,
      "injury": 3166,
      "undertaken": 3167,
      "83": 3168,
      "expir": 3169,
      "sched": 3170,
      "dhc": 3171,
      "feb": 3172,
      "stru": 3173,
      "nd": 3174,
      "io": 3175,
      "shareholders": 3176,
      "pal": 3177,
      "landlord": 3178,
      "remed": 3179,
      "proble": 3180,
      "prt": 3181,
      "hot": 3182,
      "##endra": 3183,
      "pand": 3184,
      "contractor": 3185,
      "##15": 3186,
      "hu": 3187,
      "##ship": 3188,
      "steel": 3189,
      "##ceding": 3190,
      "levied": 3191,
      "notes": 3192,
      "testim": 3193,
      "ordinate": 3194,
      "tel": 3195,
      "acknowled": 3196,
      "plaintiffs": 3197,
      "maintain": 3198,
      "west": 3199,
      "##aneous": 3200,
      "ist": 3201,
      "fig": 3202,
      "82": 3203,
      "clarified": 3204,
      "util": 3205,
      "acts": 3206,
      "damages": 3207,
      "emphasis": 3208,
      "getting": 3209,
      "1986": 3210,
      "##cil": 3211,
      "preceding": 3212,
      "instance": 3213,
      "please": 3214,
      "suc": 3215,
      "##ace": 3216,
      "##cription": 3217,
      "sides": 3218,
      "ado": 3219,
      "pc": 3220,
      "comprom": 3221,
      "petitions": 3222,
      "production": 3223,
      "require": 3224,
      "gar": 3225,
      "sq": 3226,
      "enqu": 3227,
      "inspect": 3228,
      "154": 3229,
      "annual": 3230,
      "##pped": 3231,
      "started": 3232,
      "occurred": 3233,
      "##gent": 3234,
      "gur": 3235,
      "##ober": 3236,
      "liberty": 3237,
      "wholly": 3238,
      "performance": 3239,
      "categorically": 3240,
      "october": 3241,
      "basic": 3242,
      "availed": 3243,
      "virtue": 3244,
      "##equ": 3245,
      "##gs": 3246,
      "confer": 3247,
      "##isite": 3248,
      "alone": 3249,
      "scale": 3250,
      "legislature": 3251,
      "cenvat": 3252,
      "local": 3253,
      "relates": 3254,
      "seiz": 3255,
      "august": 3256,
      "cho": 3257,
      "collected": 3258,
      "aware": 3259,
      "derived": 3260,
      "computed": 3261,
      "interests": 3262,
      "affirm": 3263,
      "##ick": 3264,
      "shah": 3265,
      "welf": 3266,
      "past": 3267,
      "wrongly": 3268,
      "housing": 3269,
      "altern": 3270,
      "exerc": 3271,
      "ascer": 3272,
      "trav": 3273,
      "papers": 3274,
      "si": 3275,
      "wp": 3276,
      "sustainable": 3277,
      "##omp": 3278,
      "bra": 3279,
      "validity": 3280,
      "marketing": 3281,
      "permit": 3282,
      "grade": 3283,
      "prosecut": 3284,
      "access": 3285,
      "among": 3286,
      "transport": 3287,
      "99": 3288,
      "teachers": 3289,
      "huge": 3290,
      "welfare": 3291,
      "sure": 3292,
      "gave": 3293,
      "lik": 3294,
      "current": 3295,
      "##alid": 3296,
      "requisite": 3297,
      "contra": 3298,
      "properly": 3299,
      "ment": 3300,
      "grievance": 3301,
      "allotment": 3302,
      "stood": 3303,
      "pack": 3304,
      "evi": 3305,
      "marg": 3306,
      "scheduled": 3307,
      "duties": 3308,
      "bes": 3309,
      "presum": 3310,
      "93": 3311,
      "finally": 3312,
      "exercising": 3313,
      "##mber": 3314,
      "execut": 3315,
      "strict": 3316,
      "agency": 3317,
      "##hile": 3318,
      "##ample": 3319,
      "##ruary": 3320,
      "falls": 3321,
      "##rar": 3322,
      "operations": 3323,
      "becomes": 3324,
      "pb": 3325,
      "##nal": 3326,
      "questions": 3327,
      "function": 3328,
      "engine": 3329,
      "##while": 3330,
      "nove": 3331,
      "lat": 3332,
      "##atures": 3333,
      "disposal": 3334,
      "november": 3335,
      "relaxation": 3336,
      "doct": 3337,
      "february": 3338,
      "##14": 3339,
      "ward": 3340,
      "##unt": 3341,
      "confirmation": 3342,
      "pras": 3343,
      "gold": 3344,
      "mohan": 3345,
      "compromise": 3346,
      "university": 3347,
      "averments": 3348,
      "reached": 3349,
      "seizure": 3350,
      "##arh": 3351,
      "conc": 3352,
      "##mic": 3353,
      "obtaining": 3354,
      "satisfact": 3355,
      "inher": 3356,
      "escap": 3357,
      "help": 3358,
      "##08": 3359,
      "complet": 3360,
      "ordered": 3361,
      "cs": 3362,
      "lodged": 3363,
      "arms": 3364,
      "##erg": 3365,
      "urged": 3366,
      "pg": 3367,
      "krish": 3368,
      "secured": 3369,
      "##urs": 3370,
      "##ji": 3371,
      "credited": 3372,
      "unsec": 3373,
      "remedy": 3374,
      "ef": 3375,
      "##mental": 3376,
      "##iation": 3377,
      "advances": 3378,
      "best": 3379,
      "seniority": 3380,
      "detaining": 3381,
      "country": 3382,
      "partly": 3383,
      "always": 3384,
      "raise": 3385,
      "input": 3386,
      "unsecured": 3387,
      "ker": 3388,
      "##amm": 3389,
      "hyd": 3390,
      "bear": 3391,
      "pertain": 3392,
      "vijay": 3393,
      "##ancies": 3394,
      "acade": 3395,
      "charact": 3396,
      "don": 3397,
      "thereon": 3398,
      "##wan": 3399,
      "srin": 3400,
      "##ba": 3401,
      "remains": 3402,
      "squar": 3403,
      "ahmedabad": 3404,
      "rates": 3405,
      "taxed": 3406,
      "establishment": 3407,
      "audited": 3408,
      "substance": 3409,
      "pleadings": 3410,
      "earning": 3411,
      "run": 3412,
      "118": 3413,
      "opening": 3414,
      "hyder": 3415,
      "##vable": 3416,
      "reduced": 3417,
      "lack": 3418,
      "counsels": 3419,
      "withdrawn": 3420,
      "implement": 3421,
      "cd": 3422,
      "forth": 3423,
      "120": 3424,
      "suffered": 3425,
      "completely": 3426,
      "##ott": 3427,
      "2001": 3428,
      "##raph": 3429,
      "withdrawal": 3430,
      "invalid": 3431,
      "expiry": 3432,
      "wise": 3433,
      "driving": 3434,
      "##wa": 3435,
      "redress": 3436,
      "away": 3437,
      "attached": 3438,
      "##60": 3439,
      "character": 3440,
      "##icing": 3441,
      "speak": 3442,
      "##pal": 3443,
      "##estic": 3444,
      "##itive": 3445,
      "articles": 3446,
      "ready": 3447,
      "south": 3448,
      "acquit": 3449,
      "version": 3450,
      "demonst": 3451,
      "guilty": 3452,
      "madh": 3453,
      "##iries": 3454,
      "khan": 3455,
      "hyderabad": 3456,
      "cra": 3457,
      "##rupt": 3458,
      "construed": 3459,
      "##fic": 3460,
      "authorised": 3461,
      "receiving": 3462,
      "yad": 3463,
      "intended": 3464,
      "##12": 3465,
      "respectfully": 3466,
      "objects": 3467,
      "bhat": 3468,
      "unre": 3469,
      "owned": 3470,
      "enquiries": 3471,
      "##jection": 3472,
      "gas": 3473,
      "##bor": 3474,
      "neglig": 3475,
      "level": 3476,
      "teacher": 3477,
      "mas": 3478,
      "incorpor": 3479,
      "prasad": 3480,
      "ownership": 3481,
      "simple": 3482,
      "contemplated": 3483,
      "testimony": 3484,
      "thereto": 3485,
      "vehicles": 3486,
      "consequential": 3487,
      "tele": 3488,
      "vested": 3489,
      "ashok": 3490,
      "hc": 3491,
      "dil": 3492,
      "##da": 3493,
      "eviction": 3494,
      "squarely": 3495,
      "ho": 3496,
      "##land": 3497,
      "##resh": 3498,
      "##10": 3499,
      "factory": 3500,
      "energ": 3501,
      "pend": 3502,
      "sam": 3503,
      "practice": 3504,
      "repayment": 3505,
      "yadav": 3506,
      "lit": 3507,
      "escaped": 3508,
      "introduced": 3509,
      "enact": 3510,
      "raising": 3511,
      "affect": 3512,
      "indicated": 3513,
      "##bh": 3514,
      "reasoning": 3515,
      "educ": 3516,
      "turnover": 3517,
      "respons": 3518,
      "wa": 3519,
      "accepting": 3520,
      "##puted": 3521,
      "jun": 3522,
      "void": 3523,
      "500": 3524,
      "rj": 3525,
      "seal": 3526,
      "check": 3527,
      "paying": 3528,
      "##oj": 3529,
      "academic": 3530,
      "fif": 3531,
      "##94": 3532,
      "tune": 3533,
      "energy": 3534,
      "redressal": 3535,
      "cognizance": 3536,
      "vin": 3537,
      "extracted": 3538,
      "technology": 3539,
      "glo": 3540,
      "reveals": 3541,
      "##ey": 3542,
      "agent": 3543,
      "paras": 3544,
      "##round": 3545,
      "pursuance": 3546,
      "seeks": 3547,
      "registrar": 3548,
      "removal": 3549,
      "intent": 3550,
      "##13": 3551,
      "quoted": 3552,
      "ela": 3553,
      "names": 3554,
      "client": 3555,
      "affairs": 3556,
      "multip": 3557,
      "hum": 3558,
      "mandate": 3559,
      "tempor": 3560,
      "worth": 3561,
      "domestic": 3562,
      "responsible": 3563,
      "memor": 3564,
      "mob": 3565,
      "ill": 3566,
      "##ena": 3567,
      "operating": 3568,
      "negative": 3569,
      "unf": 3570,
      "fil": 3571,
      "##here": 3572,
      "##ga": 3573,
      "delayed": 3574,
      "arrangement": 3575,
      "expired": 3576,
      "pune": 3577,
      "mor": 3578,
      "##iously": 3579,
      "##cture": 3580,
      "bl": 3581,
      "rjt": 3582,
      "contempt": 3583,
      "##respon": 3584,
      "went": 3585,
      "cast": 3586,
      "computer": 3587,
      "start": 3588,
      "indicate": 3589,
      "anand": 3590,
      "particip": 3591,
      "leading": 3592,
      "1995": 3593,
      "ge": 3594,
      "faa": 3595,
      "increase": 3596,
      "##oura": 3597,
      "officials": 3598,
      "1994": 3599,
      "##uity": 3600,
      "inspe": 3601,
      "steps": 3602,
      "ys": 3603,
      "jais": 3604,
      "##ipal": 3605,
      "large": 3606,
      "##omm": 3607,
      "versus": 3608,
      "besides": 3609,
      "cum": 3610,
      "##igarh": 3611,
      "field": 3612,
      "##43": 3613,
      "##olved": 3614,
      "simply": 3615,
      "woman": 3616,
      "doctor": 3617,
      "assigned": 3618,
      "ali": 3619,
      "distrib": 3620,
      "undisputed": 3621,
      "belonging": 3622,
      "1989": 3623,
      "acted": 3624,
      "proc": 3625,
      "totally": 3626,
      "##eed": 3627,
      "allotted": 3628,
      "cad": 3629,
      "allowance": 3630,
      "deputy": 3631,
      "termination": 3632,
      "nag": 3633,
      "sho": 3634,
      "correspon": 3635,
      "3rd": 3636,
      "sil": 3637,
      "negligent": 3638,
      "separately": 3639,
      "happ": 3640,
      "join": 3641,
      "fails": 3642,
      "employers": 3643,
      "invoice": 3644,
      "licence": 3645,
      "generation": 3646,
      "treaty": 3647,
      "imprison": 3648,
      "continued": 3649,
      "##cle": 3650,
      "lu": 3651,
      "auction": 3652,
      "farm": 3653,
      "around": 3654,
      "play": 3655,
      "aor": 3656,
      "bankrupt": 3657,
      "inspection": 3658,
      "imprisonment": 3659,
      "quantum": 3660,
      "inserted": 3661,
      "250": 3662,
      "tried": 3663,
      "149": 3664,
      "##ney": 3665,
      "##cc": 3666,
      "cogent": 3667,
      "tp": 3668,
      "listed": 3669,
      "omp": 3670,
      "##ats": 3671,
      "condoned": 3672,
      "mental": 3673,
      "##ocation": 3674,
      "mou": 3675,
      "ll": 3676,
      "##cious": 3677,
      "reflect": 3678,
      "pendency": 3679,
      "accountant": 3680,
      "##oi": 3681,
      "disclose": 3682,
      "cancelled": 3683,
      "opponent": 3684,
      "mail": 3685,
      "1997": 3686,
      "gh": 3687,
      "##ism": 3688,
      "pricing": 3689,
      "1988": 3690,
      "postal": 3691,
      "evidence": 3692,
      "aspects": 3693,
      "educational": 3694,
      "until": 3695,
      "misc": 3696,
      "using": 3697,
      "processing": 3698,
      "##utta": 3699,
      "beli": 3700,
      "##hra": 3701,
      "bankruptcy": 3702,
      "memorand": 3703,
      "rash": 3704,
      "mort": 3705,
      "##50": 3706,
      "fy": 3707,
      "extend": 3708,
      "averred": 3709,
      "upt": 3710,
      "parte": 3711,
      "examining": 3712,
      "rpr": 3713,
      "env": 3714,
      "##17": 3715,
      "equal": 3716,
      "excluded": 3717,
      "nf": 3718,
      "##ograph": 3719,
      "adjour": 3720,
      "debts": 3721,
      "students": 3722,
      "enclosed": 3723,
      "press": 3724,
      "calcutta": 3725,
      "electron": 3726,
      "falling": 3727,
      "dishonour": 3728,
      "diffic": 3729,
      "volunt": 3730,
      "##jit": 3731,
      "patel": 3732,
      "memorandum": 3733,
      "ach": 3734,
      "least": 3735,
      "quar": 3736,
      "kerala": 3737,
      "##16": 3738,
      "##dh": 3739,
      "monthly": 3740,
      "##18": 3741,
      "##au": 3742,
      "##uding": 3743,
      "immo": 3744,
      "withdraw": 3745,
      "##ram": 3746,
      "log": 3747,
      "builders": 3748,
      "ds": 3749,
      "training": 3750,
      "fri": 3751,
      "immovable": 3752,
      "cm": 3753,
      "##wari": 3754,
      "exper": 3755,
      "denial": 3756,
      "satisfactory": 3757,
      "investigation": 3758,
      "council": 3759,
      "##work": 3760,
      "managing": 3761,
      "jk": 3762,
      "secretary": 3763,
      "##19": 3764,
      "##38": 3765,
      "tribunals": 3766,
      "##view": 3767,
      "xi": 3768,
      "alleging": 3769,
      "closed": 3770,
      "ends": 3771,
      "rw": 3772,
      "revisional": 3773,
      "##earch": 3774,
      "dia": 3775,
      "##most": 3776,
      "##righ": 3777,
      "upto": 3778,
      "145": 3779,
      "effor": 3780,
      "weeks": 3781,
      "named": 3782,
      "affirmative": 3783,
      "chem": 3784,
      "##dy": 3785,
      "adequ": 3786,
      "comply": 3787,
      "research": 3788,
      "risk": 3789,
      "supporting": 3790,
      "sanjay": 3791,
      "unsu": 3792,
      "##fa": 3793,
      "##45": 3794,
      "prevent": 3795,
      "##lim": 3796,
      "global": 3797,
      "cat": 3798,
      "kash": 3799,
      "incorporated": 3800,
      "dy": 3801,
      "performed": 3802,
      "impact": 3803,
      "matrimon": 3804,
      "comparable": 3805,
      "contracts": 3806,
      "oil": 3807,
      "mrs": 3808,
      "##ators": 3809,
      "times": 3810,
      "behind": 3811,
      "temporary": 3812,
      "video": 3813,
      "moved": 3814,
      "rejection": 3815,
      "enable": 3816,
      "prospective": 3817,
      "bab": 3818,
      "rendering": 3819,
      "##loaded": 3820,
      "funda": 3821,
      "reports": 3822,
      "##soever": 3823,
      "##plus": 3824,
      "elabor": 3825,
      "1998": 3826,
      "wing": 3827,
      "corresponding": 3828,
      "job": 3829,
      "munic": 3830,
      "few": 3831,
      "voting": 3832,
      "surplus": 3833,
      "instrument": 3834,
      "municipal": 3835,
      "concept": 3836,
      "##enty": 3837,
      "formed": 3838,
      "justify": 3839,
      "manufactured": 3840,
      "trad": 3841,
      "kindly": 3842,
      "vent": 3843,
      "econ": 3844,
      "bond": 3845,
      "##ender": 3846,
      "adopt": 3847,
      "tam": 3848,
      "##tar": 3849,
      "##urate": 3850,
      "##72": 3851,
      "quality": 3852,
      "fd": 3853,
      "small": 3854,
      "outset": 3855,
      "econom": 3856,
      "reliefs": 3857,
      "##eties": 3858,
      "lie": 3859,
      "broker": 3860,
      "diary": 3861,
      "answered": 3862,
      "borrowed": 3863,
      "##just": 3864,
      "bharat": 3865,
      "promo": 3866,
      "signatures": 3867,
      "distribut": 3868,
      "opposed": 3869,
      "restored": 3870,
      "deep": 3871,
      "room": 3872,
      "amb": 3873,
      "##gment": 3874,
      "parl": 3875,
      "106": 3876,
      "seven": 3877,
      "pp": 3878,
      "compound": 3879,
      "affected": 3880,
      "ultimately": 3881,
      "##35": 3882,
      "exhi": 3883,
      "deals": 3884,
      "chandigarh": 3885,
      "summ": 3886,
      "obtain": 3887,
      "sunil": 3888,
      "##40": 3889,
      "nh": 3890,
      "ambit": 3891,
      "ignored": 3892,
      "ays": 3893,
      "mills": 3894,
      "##far": 3895,
      "entertain": 3896,
      "cic": 3897,
      "##ali": 3898,
      "views": 3899,
      "correctly": 3900,
      "investor": 3901,
      "kan": 3902,
      "provider": 3903,
      "131": 3904,
      "##pat": 3905,
      "framing": 3906,
      "obligations": 3907,
      "##ours": 3908,
      "consumers": 3909,
      "payee": 3910,
      "move": 3911,
      "amic": 3912,
      "hund": 3913,
      "pure": 3914,
      "societies": 3915,
      "miscon": 3916,
      "##isation": 3917,
      "##xim": 3918,
      "quite": 3919,
      "deductions": 3920,
      "##39": 3921,
      "envis": 3922,
      "sector": 3923,
      "bonaf": 3924,
      "##ables": 3925,
      "##rit": 3926,
      "parents": 3927,
      "##ins": 3928,
      "ec": 3929,
      "hin": 3930,
      "##oun": 3931,
      "inherent": 3932,
      "##ora": 3933,
      "##adu": 3934,
      "applies": 3935,
      "strong": 3936,
      "313": 3937,
      "##sely": 3938,
      "##ailing": 3939,
      "teaching": 3940,
      "crpc": 3941,
      "ingred": 3942,
      "role": 3943,
      "brand": 3944,
      "ingredient": 3945,
      "collector": 3946,
      "##vind": 3947,
      "verify": 3948,
      "nfac": 3949,
      "parts": 3950,
      "##urer": 3951,
      "arose": 3952,
      "ti": 3953,
      "blan": 3954,
      "partner": 3955,
      "appreciated": 3956,
      "ae": 3957,
      "takes": 3958,
      "##mc": 3959,
      "inspector": 3960,
      "##fc": 3961,
      "##va": 3962,
      "unjust": 3963,
      "negotiable": 3964,
      "##bed": 3965,
      "contradi": 3966,
      "ignoring": 3967,
      "jaisu": 3968,
      "achie": 3969,
      "invested": 3970,
      "restricted": 3971,
      "agarwal": 3972,
      "became": 3973,
      "##vity": 3974,
      "ppa": 3975,
      "multiple": 3976,
      "matrimonial": 3977,
      "ant": 3978,
      "annum": 3979,
      "prevention": 3980,
      "ledger": 3981,
      "rak": 3982,
      "hundred": 3983,
      "156": 3984,
      "self": 3985,
      "##ime": 3986,
      "whatsoever": 3987,
      "##sa": 3988,
      "filled": 3989,
      "resulted": 3990,
      "ever": 3991,
      "factors": 3992,
      "refused": 3993,
      "heading": 3994,
      "pw2": 3995,
      "blank": 3996,
      "standing": 3997,
      "crime": 3998,
      "cancellation": 3999,
      "anil": 4000,
      "conferred": 4001,
      "belief": 4002,
      "loose": 4003,
      "enfor": 4004,
      "##ming": 4005,
      "sheets": 4006,
      "functions": 4007,
      "mobile": 4008,
      "associated": 4009,
      "ba": 4010,
      "inclined": 4011,
      "##rew": 4012,
      "acceptable": 4013,
      "##uj": 4014,
      "##75": 4015,
      "cul": 4016,
      "##elling": 4017,
      "cut": 4018,
      "vend": 4019,
      "1985": 4020,
      "fundamental": 4021,
      "rise": 4022,
      "obv": 4023,
      "meant": 4024,
      "remit": 4025,
      "31st": 4026,
      "upholding": 4027,
      "##ually": 4028,
      "sons": 4029,
      "shareholder": 4030,
      "hindu": 4031,
      "earn": 4032,
      "citiz": 4033,
      "convey": 4034,
      "wind": 4035,
      "tender": 4036,
      "might": 4037,
      "recall": 4038,
      "##angible": 4039,
      "copyrigh": 4040,
      "##sofar": 4041,
      "192": 4042,
      "abuse": 4043,
      "punishment": 4044,
      "rbi": 4045,
      "erst": 4046,
      "clearance": 4047,
      "protect": 4048,
      "criter": 4049,
      "proceeds": 4050,
      "erstwhile": 4051,
      "insofar": 4052,
      "buyer": 4053,
      "super": 4054,
      "nt": 4055,
      "contributions": 4056,
      "na": 4057,
      "bus": 4058,
      "amendments": 4059,
      "encash": 4060,
      "irp": 4061,
      "human": 4062,
      "looking": 4063,
      "huf": 4064,
      "assured": 4065,
      "notified": 4066,
      "shiv": 4067,
      "buyers": 4068,
      "controvers": 4069,
      "calling": 4070,
      "goes": 4071,
      "stren": 4072,
      "ep": 4073,
      "send": 4074,
      "utilized": 4075,
      "##bted": 4076,
      "##eration": 4077,
      "commen": 4078,
      "nc": 4079,
      "1962": 4080,
      "vacancies": 4081,
      "##mir": 4082,
      "tal": 4083,
      "parlia": 4084,
      "hit": 4085,
      "##ring": 4086,
      "flow": 4087,
      "jag": 4088,
      "##asm": 4089,
      "conducting": 4090,
      "frame": 4091,
      "annexed": 4092,
      "bet": 4093,
      "forms": 4094,
      "recognized": 4095,
      "heav": 4096,
      "##stainable": 4097,
      "subscrib": 4098,
      "parliament": 4099,
      "ic": 4100,
      "recomm": 4101,
      "recip": 4102,
      "125": 4103,
      "presumed": 4104,
      "rajesh": 4105,
      "convicted": 4106,
      "city": 4107,
      "80ia": 4108,
      "sand": 4109,
      "cess": 4110,
      "muk": 4111,
      "unsustainable": 4112,
      "placing": 4113,
      "worked": 4114,
      "##gery": 4115,
      "cadre": 4116,
      "mining": 4117,
      "mur": 4118,
      "lands": 4119,
      "bare": 4120,
      "##yam": 4121,
      "meh": 4122,
      "10a": 4123,
      "##lict": 4124,
      "ahm": 4125,
      "profession": 4126,
      "hind": 4127,
      "objective": 4128,
      "insurer": 4129,
      "involving": 4130,
      "oas": 4131,
      "rely": 4132,
      "roh": 4133,
      "candidate": 4134,
      "##ipl": 4135,
      "posting": 4136,
      "purchaser": 4137,
      "prelim": 4138,
      "mortg": 4139,
      "employed": 4140,
      "weight": 4141,
      "assumed": 4142,
      "divor": 4143,
      "##cially": 4144,
      "preliminary": 4145,
      "ko": 4146,
      "##ana": 4147,
      "admissible": 4148,
      "regional": 4149,
      "pertains": 4150,
      "inasm": 4151,
      "##odh": 4152,
      "finds": 4153,
      "inasmuch": 4154,
      "nand": 4155,
      "intim": 4156,
      "subsidiary": 4157,
      "150": 4158,
      "offender": 4159,
      "located": 4160,
      "retired": 4161,
      "foregoing": 4162,
      "elt": 4163,
      "conflict": 4164,
      "thirty": 4165,
      "mm": 4166,
      "choice": 4167,
      "guarantor": 4168,
      "operate": 4169,
      "##pper": 4170,
      "publ": 4171,
      "flats": 4172,
      "residing": 4173,
      "chair": 4174,
      "benches": 4175,
      "fide": 4176,
      "recover": 4177,
      "minut": 4178,
      "capt": 4179,
      "102": 4180,
      "##usively": 4181,
      "satisfy": 4182,
      "null": 4183,
      "dead": 4184,
      "323": 4185,
      "1973": 4186,
      "estimated": 4187,
      "cleared": 4188,
      "##icial": 4189,
      "##vid": 4190,
      "tex": 4191,
      "##ifiable": 4192,
      "instruments": 4193,
      "sister": 4194,
      "##dom": 4195,
      "involve": 4196,
      "employees": 4197,
      "offending": 4198,
      "attended": 4199,
      "bihar": 4200,
      "sanctioned": 4201,
      "compr": 4202,
      "rakesh": 4203,
      "nct": 4204,
      "chemical": 4205,
      "substantive": 4206,
      "recipient": 4207,
      "vik": 4208,
      "solution": 4209,
      "addl": 4210,
      "sak": 4211,
      "indicates": 4212,
      "died": 4213,
      "solely": 4214,
      "accrued": 4215,
      "suggest": 4216,
      "eman": 4217,
      "necessarily": 4218,
      "##from": 4219,
      "exclusion": 4220,
      "quantity": 4221,
      "arrest": 4222,
      "living": 4223,
      "affor": 4224,
      "president": 4225,
      "bonafide": 4226,
      "##enu": 4227,
      "parent": 4228,
      "cy": 4229,
      "##04": 4230,
      "pleased": 4231,
      "broad": 4232,
      "ajay": 4233,
      "##bo": 4234,
      "eye": 4235,
      "strictly": 4236,
      "controversy": 4237,
      "lost": 4238,
      "underst": 4239,
      "adequate": 4240,
      "subjected": 4241,
      "north": 4242,
      "aid": 4243,
      "overr": 4244,
      "##ban": 4245,
      "heart": 4246,
      "mid": 4247,
      "beneficial": 4248,
      "suresh": 4249,
      "recent": 4250,
      "158": 4251,
      "espe": 4252,
      "fault": 4253,
      "116": 4254,
      "strength": 4255,
      "east": 4256,
      "##ni": 4257,
      "##05": 4258,
      "batch": 4259,
      "investigating": 4260,
      "especially": 4261,
      "gives": 4262,
      "careful": 4263,
      "unfair": 4264,
      "##36": 4265,
      "contractual": 4266,
      "pec": 4267,
      "sah": 4268,
      "hire": 4269,
      "iron": 4270,
      "introdu": 4271,
      "kashmir": 4272,
      "condone": 4273,
      "denying": 4274,
      "##02": 4275,
      "servant": 4276,
      "151": 4277,
      "##fers": 4278,
      "create": 4279,
      "recommend": 4280,
      "inacc": 4281,
      "cur": 4282,
      "fre": 4283,
      "##icates": 4284,
      "technologies": 4285,
      "auditor": 4286,
      "damage": 4287,
      "continuous": 4288,
      "personnel": 4289,
      "##ground": 4290,
      "##vert": 4291,
      "inaccurate": 4292,
      "implementation": 4293,
      "dur": 4294,
      "##come": 4295,
      "chandra": 4296,
      "##ulture": 4297,
      "instruction": 4298,
      "ri": 4299,
      "peop": 4300,
      "formal": 4301,
      "agra": 4302,
      "##apore": 4303,
      "belongs": 4304,
      "##isen": 4305,
      "nexus": 4306,
      "firstly": 4307,
      "proving": 4308,
      "fab": 4309,
      "categories": 4310,
      "eval": 4311,
      "bir": 4312,
      "secondly": 4313,
      "criteria": 4314,
      "lac": 4315,
      "skill": 4316,
      "chartered": 4317,
      "margin": 4318,
      "minutes": 4319,
      "wages": 4320,
      "foundation": 4321,
      "##jb": 4322,
      "factor": 4323,
      "procedural": 4324,
      "amp": 4325,
      "patent": 4326,
      "selling": 4327,
      "conversion": 4328,
      "##48": 4329,
      "proves": 4330,
      "188": 4331,
      "##fe": 4332,
      "covid": 4333,
      "grat": 4334,
      "exclusive": 4335,
      "safe": 4336,
      "inr": 4337,
      "acting": 4338,
      "##oll": 4339,
      "raw": 4340,
      "##bly": 4341,
      "craves": 4342,
      "rect": 4343,
      "assailed": 4344,
      "ship": 4345,
      "ddit": 4346,
      "##inct": 4347,
      "arisen": 4348,
      "commerce": 4349,
      "enough": 4350,
      "doubts": 4351,
      "closing": 4352,
      "ascertain": 4353,
      "average": 4354,
      "amit": 4355,
      "vish": 4356,
      "##46": 4357,
      "certificates": 4358,
      "legislation": 4359,
      "kam": 4360,
      "superv": 4361,
      "relat": 4362,
      "almost": 4363,
      "kal": 4364,
      "ail": 4365,
      "diss": 4366,
      "attor": 4367,
      "krishna": 4368,
      "divorce": 4369,
      "singapore": 4370,
      "nath": 4371,
      "uttar": 4372,
      "plaint": 4373,
      "cw1": 4374,
      "ramesh": 4375,
      "##pse": 4376,
      "unau": 4377,
      "larger": 4378,
      "srinagar": 4379,
      "thing": 4380,
      "infl": 4381,
      "##uls": 4382,
      "speed": 4383,
      "##ded": 4384,
      "##ars": 4385,
      "absent": 4386,
      "norm": 4387,
      "shifted": 4388,
      "8d": 4389,
      "##de": 4390,
      "suspic": 4391,
      "##ank": 4392,
      "double": 4393,
      "doctors": 4394,
      "table": 4395,
      "areas": 4396,
      "live": 4397,
      "therefrom": 4398,
      "##seas": 4399,
      "calculated": 4400,
      "assumption": 4401,
      "##acy": 4402,
      "forest": 4403,
      "cis": 4404,
      "overseas": 4405,
      "unauthor": 4406,
      "remitted": 4407,
      "understood": 4408,
      "heir": 4409,
      "gir": 4410,
      "antic": 4411,
      "##olid": 4412,
      "repud": 4413,
      "##mark": 4414,
      "events": 4415,
      "136": 4416,
      "assa": 4417,
      "alternative": 4418,
      "expert": 4419,
      "rani": 4420,
      "sj": 4421,
      "searched": 4422,
      "ordinary": 4423,
      "problems": 4424,
      "##47": 4425,
      "belated": 4426,
      "suspicion": 4427,
      "anticip": 4428,
      "fabric": 4429,
      "##utory": 4430,
      "withh": 4431,
      "exports": 4432,
      "##ier": 4433,
      "distinct": 4434,
      "hclt": 4435,
      "ingredients": 4436,
      "concerns": 4437,
      "##37": 4438,
      "panel": 4439,
      "typ": 4440,
      "ncl": 4441,
      "phot": 4442,
      "bona": 4443,
      "feel": 4444,
      "jamm": 4445,
      "contains": 4446,
      "mac": 4447,
      "##cel": 4448,
      "jammu": 4449,
      "108": 4450,
      "corp": 4451,
      "credits": 4452,
      "ft": 4453,
      "resulting": 4454,
      "##ns": 4455,
      "sant": 4456,
      "mt": 4457,
      "query": 4458,
      "jaipur": 4459,
      "ve": 4460,
      "dispose": 4461,
      "jodh": 4462,
      "fla": 4463,
      "##42": 4464,
      "coup": 4465,
      "269": 4466,
      "convict": 4467,
      "difficult": 4468,
      "ak": 4469,
      "twenty": 4470,
      "economic": 4471,
      "miscell": 4472,
      "appreciation": 4473,
      "nav": 4474,
      "stor": 4475,
      "miscellaneous": 4476,
      "highly": 4477,
      "complaints": 4478,
      "shell": 4479,
      "##joinder": 4480,
      "majority": 4481,
      "background": 4482,
      "organization": 4483,
      "##pir": 4484,
      "indore": 4485,
      "consultancy": 4486,
      "ahmad": 4487,
      "1956": 4488,
      "master": 4489,
      "infra": 4490,
      "tamil": 4491,
      "envisaged": 4492,
      "sav": 4493,
      "kish": 4494,
      "regulatory": 4495,
      "secure": 4496,
      "constructed": 4497,
      "rout": 4498,
      "1944": 4499,
      "##ift": 4500,
      "bhag": 4501,
      "lying": 4502,
      "1987": 4503,
      "governed": 4504,
      "correctness": 4505,
      "purely": 4506,
      "omission": 4507,
      "##ndra": 4508,
      "307": 4509,
      "integ": 4510,
      "people": 4511,
      "disb": 4512,
      "tenanted": 4513,
      "reprodu": 4514,
      "spite": 4515,
      "##eta": 4516,
      "1993": 4517,
      "226": 4518,
      "holders": 4519,
      "##49": 4520,
      "purview": 4521,
      "legislative": 4522,
      "changed": 4523,
      "lines": 4524,
      "##ons": 4525,
      "pain": 4526,
      "vag": 4527,
      "copyright": 4528,
      "##ula": 4529,
      "dise": 4530,
      "##eries": 4531,
      "drawing": 4532,
      "os": 4533,
      "round": 4534,
      "##ported": 4535,
      "solar": 4536,
      "##elop": 4537,
      "travel": 4538,
      "##asing": 4539,
      "absor": 4540,
      "##itation": 4541,
      "1992": 4542,
      "##men": 4543,
      "former": 4544,
      "lies": 4545,
      "##eline": 4546,
      "##tern": 4547,
      "302": 4548,
      "regularly": 4549,
      "som": 4550,
      "united": 4551,
      "enjo": 4552,
      "termed": 4553,
      "engineer": 4554,
      "##utely": 4555,
      "1a": 4556,
      "rejoinder": 4557,
      "affirmed": 4558,
      "144c": 4559,
      "clarif": 4560,
      "speaking": 4561,
      "raipur": 4562,
      "summary": 4563,
      "0530": 4564,
      "investors": 4565,
      "mechanism": 4566,
      "absolutely": 4567,
      "refers": 4568,
      "rao": 4569,
      "gan": 4570,
      "p1": 4571,
      "##ouch": 4572,
      "unp": 4573,
      "##ini": 4574,
      "eight": 4575,
      "verma": 4576,
      "borne": 4577,
      "nclat": 4578,
      "##laced": 4579,
      "suitable": 4580,
      "indeed": 4581,
      "charging": 4582,
      "##cg": 4583,
      "sense": 4584,
      "##licated": 4585,
      "likely": 4586,
      "narr": 4587,
      "rural": 4588,
      "mohd": 4589,
      "disease": 4590,
      "merc": 4591,
      "nomin": 4592,
      "irre": 4593,
      "limits": 4594,
      "ren": 4595,
      "uk": 4596,
      "prud": 4597,
      "hcl": 4598,
      "primarily": 4599,
      "mala": 4600,
      "contend": 4601,
      "example": 4602,
      "compared": 4603,
      "##26": 4604,
      "thre": 4605,
      "transfers": 4606,
      "converted": 4607,
      "region": 4608,
      "invited": 4609,
      "adjudicate": 4610,
      "chit": 4611,
      "##irect": 4612,
      "probable": 4613,
      "type": 4614,
      "prescrib": 4615,
      "subsidy": 4616,
      "collection": 4617,
      "dg": 4618,
      "##antly": 4619,
      "nowhere": 4620,
      "removed": 4621,
      "ons": 4622,
      "something": 4623,
      "attorney": 4624,
      "sund": 4625,
      "acquittal": 4626,
      "hotel": 4627,
      "cbi": 4628,
      "resour": 4629,
      "analy": 4630,
      "##ilit": 4631,
      "park": 4632,
      "##ression": 4633,
      "processed": 4634,
      "thought": 4635,
      "aggarwal": 4636,
      "concealment": 4637,
      "##iture": 4638,
      "##osh": 4639,
      "indirect": 4640,
      "urban": 4641,
      "problem": 4642,
      "rt": 4643,
      "better": 4644,
      "##ignment": 4645,
      "usa": 4646,
      "##eless": 4647,
      "khas": 4648,
      "##cession": 4649,
      "restr": 4650,
      "##sl": 4651,
      "submitting": 4652,
      "tion": 4653,
      "social": 4654,
      "##urance": 4655,
      "reduction": 4656,
      "sebi": 4657,
      "##uli": 4658,
      "exact": 4659,
      "rca": 4660,
      "115jb": 4661,
      "kir": 4662,
      "lapse": 4663,
      "##bu": 4664,
      "executive": 4665,
      "fire": 4666,
      "depri": 4667,
      "compass": 4668,
      "attend": 4669,
      "bringing": 4670,
      "##58": 4671,
      "##raj": 4672,
      "##oo": 4673,
      "##09": 4674,
      "link": 4675,
      "currency": 4676,
      "results": 4677,
      "develop": 4678,
      "##atever": 4679,
      "departments": 4680,
      "abh": 4681,
      "impose": 4682,
      "surgery": 4683,
      "##32": 4684,
      "##78": 4685,
      "whatever": 4686,
      "understand": 4687,
      "ordin": 4688,
      "##app": 4689,
      "emb": 4690,
      "noticee": 4691,
      "arrested": 4692,
      "wish": 4693,
      "1981": 4694,
      "lenders": 4695,
      "##ounced": 4696,
      "description": 4697,
      "reveal": 4698,
      "suspended": 4699,
      "notional": 4700,
      "manufacturer": 4701,
      "joined": 4702,
      "medic": 4703,
      "alp": 4704,
      "injured": 4705,
      "associate": 4706,
      "cru": 4707,
      "commun": 4708,
      "rah": 4709,
      "baj": 4710,
      "contact": 4711,
      "exists": 4712,
      "##ourable": 4713,
      "weigh": 4714,
      "extra": 4715,
      "506": 4716,
      "##ksh": 4717,
      "figures": 4718,
      "ltr": 4719,
      "tata": 4720,
      "##ida": 4721,
      "relig": 4722,
      "jointly": 4723,
      "madhya": 4724,
      "college": 4725,
      "longer": 4726,
      "channel": 4727,
      "gp": 4728,
      "mp": 4729,
      "webs": 4730,
      "forming": 4731,
      "club": 4732,
      "contest": 4733,
      "certainly": 4734,
      "integr": 4735,
      "reach": 4736,
      "clients": 4737,
      "debited": 4738,
      "##atic": 4739,
      "##enses": 4740,
      "encashment": 4741,
      "repaid": 4742,
      "suggestion": 4743,
      "industry": 4744,
      "spent": 4745,
      "asser": 4746,
      "terminated": 4747,
      "modified": 4748,
      "pip": 4749,
      "##bir": 4750,
      "town": 4751,
      "location": 4752,
      "lock": 4753,
      "insertion": 4754,
      "commod": 4755,
      "asr": 4756,
      "127": 4757,
      "harass": 4758,
      "break": 4759,
      "advised": 4760,
      "garg": 4761,
      "viti": 4762,
      "pron": 4763,
      "succeed": 4764,
      "lord": 4765,
      "improve": 4766,
      "andhra": 4767,
      "seed": 4768,
      "expressly": 4769,
      "##oor": 4770,
      "adverting": 4771,
      "repair": 4772,
      "electronic": 4773,
      "drew": 4774,
      "resolved": 4775,
      "##ourse": 4776,
      "anticipatory": 4777,
      "##hs": 4778,
      "indul": 4779,
      "indu": 4780,
      "afresh": 4781,
      "rd": 4782,
      "heads": 4783,
      "infer": 4784,
      "##ompan": 4785,
      "prep": 4786,
      "places": 4787,
      "scre": 4788,
      "briefly": 4789,
      "acr": 4790,
      "##28": 4791,
      "fraudul": 4792,
      "pgt": 4793,
      "pressure": 4794,
      "described": 4795,
      "gratuity": 4796,
      "contractors": 4797,
      "##iciary": 4798,
      "parame": 4799,
      "##oda": 4800,
      "peace": 4801,
      "amongst": 4802,
      "##the": 4803,
      "##ruption": 4804,
      "##was": 4805,
      "##ards": 4806,
      "upgr": 4807,
      "beneficiary": 4808,
      "##olves": 4809,
      "exclusively": 4810,
      "dru": 4811,
      "##will": 4812,
      "plans": 4813,
      "##ield": 4814,
      "forged": 4815,
      "govern": 4816,
      "stri": 4817,
      "caption": 4818,
      "##aily": 4819,
      "chairman": 4820,
      "fts": 4821,
      "##56": 4822,
      "##anged": 4823,
      "resort": 4824,
      "conscious": 4825,
      "defin": 4826,
      "serve": 4827,
      "hir": 4828,
      "admitting": 4829,
      "lin": 4830,
      "daily": 4831,
      "debit": 4832,
      "deepak": 4833,
      "nir": 4834,
      "wealth": 4835,
      "##ila": 4836,
      "ven": 4837,
      "stak": 4838,
      "eyes": 4839,
      "##34": 4840,
      "##enable": 4841,
      "accompan": 4842,
      "254": 4843,
      "drive": 4844,
      "standards": 4845,
      "114": 4846,
      "latter": 4847,
      "forwarded": 4848,
      "##59": 4849,
      "coll": 4850,
      "discrep": 4851,
      "dc": 4852,
      "user": 4853,
      "happen": 4854,
      "mehta": 4855,
      "##iated": 4856,
      "cry": 4857,
      "12aa": 4858,
      "dhar": 4859,
      "sugar": 4860,
      "absolute": 4861,
      "agriculture": 4862,
      "##cement": 4863,
      "contends": 4864,
      "supple": 4865,
      "bag": 4866,
      "##06": 4867,
      "noting": 4868,
      "mish": 4869,
      "##fl": 4870,
      "uphold": 4871,
      "amicably": 4872,
      "uoi": 4873,
      "420": 4874,
      "deeds": 4875,
      "relate": 4876,
      "auto": 4877,
      "##ler": 4878,
      "interp": 4879,
      "##era": 4880,
      "monit": 4881,
      "asstt": 4882,
      "dishonoured": 4883,
      "10th": 4884,
      "regarded": 4885,
      "rc": 4886,
      "seller": 4887,
      "internal": 4888,
      "concealed": 4889,
      "##dish": 4890,
      "failing": 4891,
      "base": 4892,
      "119": 4893,
      "167": 4894,
      "dinesh": 4895,
      "rental": 4896,
      "normally": 4897,
      "generally": 4898,
      "ls": 4899,
      "pie": 4900,
      "##jeet": 4901,
      "##rol": 4902,
      "progr": 4903,
      "entirely": 4904,
      "emanating": 4905,
      "cement": 4906,
      "bs": 4907,
      "cg": 4908,
      "wis": 4909,
      "##wh": 4910,
      "enhan": 4911,
      "gets": 4912,
      "arun": 4913,
      "lor": 4914,
      "shree": 4915,
      "advert": 4916,
      "systems": 4917,
      "gl": 4918,
      "text": 4919,
      "surveyor": 4920,
      "##vo": 4921,
      "utility": 4922,
      "vouch": 4923,
      "measuring": 4924,
      "bott": 4925,
      "jay": 4926,
      "##eev": 4927,
      "##hu": 4928,
      "##mentary": 4929,
      "107": 4930,
      "assignment": 4931,
      "sample": 4932,
      "mit": 4933,
      "constr": 4934,
      "structure": 4935,
      "hotels": 4936,
      "consolid": 4937,
      "eas": 4938,
      "onwards": 4939,
      "128": 4940,
      "opined": 4941,
      "tenancy": 4942,
      "advice": 4943,
      "remar": 4944,
      "colum": 4945,
      "figure": 4946,
      "137": 4947,
      "restri": 4948,
      "##teen": 4949,
      "communicated": 4950,
      "sham": 4951,
      "equival": 4952,
      "compassion": 4953,
      "##kaj": 4954,
      "requiring": 4955,
      "4th": 4956,
      "itd": 4957,
      "distur": 4958,
      "##isable": 4959,
      "published": 4960,
      "dar": 4961,
      "matrix": 4962,
      "regularization": 4963,
      "##eli": 4964,
      "causing": 4965,
      "enhanced": 4966,
      "sid": 4967,
      "##loc": 4968,
      "increased": 4969,
      "conclude": 4970,
      "341": 4971,
      "incent": 4972,
      "disallowing": 4973,
      "goodwill": 4974,
      "quarter": 4975,
      "pi": 4976,
      "uns": 4977,
      "##emic": 4978,
      "classified": 4979,
      "assurance": 4980,
      "essentially": 4981,
      "##bited": 4982,
      "##aries": 4983,
      "efforts": 4984,
      "hist": 4985,
      "stakeh": 4986,
      "##03": 4987,
      "366": 4988,
      "incidental": 4989,
      "lessor": 4990,
      "vid": 4991,
      "downloaded": 4992,
      "demonstrate": 4993,
      "jm": 4994,
      "complex": 4995,
      "equivalent": 4996,
      "compassionate": 4997,
      "autom": 4998,
      "occupation": 4999,
      "captioned": 5000,
      "sud": 5001,
      "arc": 5002,
      "504": 5003,
      "10b": 5004,
      "website": 5005,
      "wisdom": 5006,
      "scen": 5007,
      "discount": 5008,
      "invoke": 5009,
      "purported": 5010,
      "finality": 5011,
      "hd": 5012,
      "god": 5013,
      "##24": 5014,
      "secondary": 5015,
      "rig": 5016,
      "qualified": 5017,
      "promoted": 5018,
      "124": 5019,
      "xx": 5020,
      "dit": 5021,
      "numbers": 5022,
      "adjustments": 5023,
      "gather": 5024,
      "chart": 5025,
      "model": 5026,
      "summar": 5027,
      "telecom": 5028,
      "wid": 5029,
      "##57": 5030,
      "equally": 5031,
      "incomp": 5032,
      "pn": 5033,
      "gst": 5034,
      "##ota": 5035,
      "1963": 5036,
      "reddy": 5037,
      "wide": 5038,
      "126": 5039,
      "generating": 5040,
      "told": 5041,
      "fell": 5042,
      "kul": 5043,
      "##27": 5044,
      "##charge": 5045,
      "pandemic": 5046,
      "demonstr": 5047,
      "unreason": 5048,
      "ordinarily": 5049,
      "##yal": 5050,
      "interloc": 5051,
      "##itim": 5052,
      "interlocutory": 5053,
      "bud": 5054,
      "imposing": 5055,
      "settle": 5056,
      "dest": 5057,
      "doubtful": 5058,
      "grossly": 5059,
      "shan": 5060,
      "arora": 5061,
      "acknowledgment": 5062,
      "##kj": 5063,
      "taxability": 5064,
      "agents": 5065,
      "##itan": 5066,
      "acknowledged": 5067,
      "consort": 5068,
      "legitim": 5069,
      "fu": 5070,
      "##rove": 5071,
      "prog": 5072,
      "payer": 5073,
      "parameters": 5074,
      "##adh": 5075,
      "arrive": 5076,
      "says": 5077,
      "falsely": 5078,
      "##rid": 5079,
      "##ams": 5080,
      "thak": 5081,
      "outcome": 5082,
      "clarity": 5083,
      "network": 5084,
      "ix": 5085,
      "modify": 5086,
      "ax": 5087,
      "penalties": 5088,
      "dda": 5089,
      "recourse": 5090,
      "orient": 5091,
      "##uted": 5092,
      "mishra": 5093,
      "mainly": 5094,
      "useful": 5095,
      "immediate": 5096,
      "domain": 5097,
      "resources": 5098,
      "bought": 5099,
      "fer": 5100,
      "qualify": 5101,
      "solutions": 5102,
      "storage": 5103,
      "consumption": 5104,
      "sev": 5105,
      "manif": 5106,
      "surv": 5107,
      "400": 5108,
      "##onents": 5109,
      "ops": 5110,
      "great": 5111,
      "ble": 5112,
      "seems": 5113,
      "accum": 5114,
      "dredger": 5115,
      "chaw": 5116,
      "commenced": 5117,
      "photograph": 5118,
      "adjusted": 5119,
      "consortium": 5120,
      "##shore": 5121,
      "arriving": 5122,
      "dealers": 5123,
      "across": 5124,
      "things": 5125,
      "railways": 5126,
      "consolidated": 5127,
      "fron": 5128,
      "box": 5129,
      "lorry": 5130,
      "aim": 5131,
      "hs": 5132,
      "sha": 5133,
      "banker": 5134,
      "boil": 5135,
      "##ounded": 5136,
      "109": 5137,
      "##oration": 5138,
      "operated": 5139,
      "litig": 5140,
      "164": 5141,
      "clean": 5142,
      "violated": 5143,
      "calculation": 5144,
      "ther": 5145,
      "print": 5146,
      "dj": 5147,
      "sbi": 5148,
      "miss": 5149,
      "blood": 5150,
      "inputs": 5151,
      "unpaid": 5152,
      "overall": 5153,
      "dilig": 5154,
      "mechanical": 5155,
      "##54": 5156,
      "assign": 5157,
      "scri": 5158,
      "whichever": 5159,
      "khasra": 5160,
      "advis": 5161,
      "vague": 5162,
      "judges": 5163,
      "faceless": 5164,
      "##rine": 5165,
      "dopt": 5166,
      "implicated": 5167,
      "designated": 5168,
      "hours": 5169,
      "vital": 5170,
      "undergo": 5171,
      "corruption": 5172,
      "##opal": 5173,
      "heavy": 5174,
      "onsite": 5175,
      "##ury": 5176,
      "nine": 5177,
      "haz": 5178,
      "1908": 5179,
      "vacant": 5180,
      "##nl": 5181,
      "##88": 5182,
      "12th": 5183,
      "opportunities": 5184,
      "##section": 5185,
      "suo": 5186,
      "dredging": 5187,
      "227": 5188,
      "hers": 5189,
      "asi": 5190,
      "valuable": 5191,
      "luck": 5192,
      "violence": 5193,
      "206": 5194,
      "##usible": 5195,
      "##53": 5196,
      "110": 5197,
      "visited": 5198,
      "##ruction": 5199,
      "##mm": 5200,
      "##yan": 5201,
      "machine": 5202,
      "##icatory": 5203,
      "292": 5204,
      "manish": 5205,
      "aes": 5206,
      "##rc": 5207,
      "exceptions": 5208,
      "unauthorized": 5209,
      "ns": 5210,
      "honour": 5211,
      "104": 5212,
      "1980": 5213,
      "asking": 5214,
      "forfe": 5215,
      "103": 5216,
      "questioned": 5217,
      "80g": 5218,
      "prec": 5219,
      "##etion": 5220,
      "prevailing": 5221,
      "stakeholders": 5222,
      "##kumar": 5223,
      "executing": 5224,
      "jai": 5225,
      "##29": 5226,
      "##gers": 5227,
      "clarificatory": 5228,
      "desired": 5229,
      "praying": 5230,
      "substantially": 5231,
      "sd": 5232,
      "##yers": 5233,
      "threat": 5234,
      "defects": 5235,
      "##51": 5236,
      "stop": 5237,
      "saket": 5238,
      "gs": 5239,
      "half": 5240,
      "deletion": 5241,
      "presumptions": 5242,
      "theft": 5243,
      "lax": 5244,
      "##khand": 5245,
      "remanded": 5246,
      "herself": 5247,
      "admin": 5248,
      "supplier": 5249,
      "unjustified": 5250,
      "reproduce": 5251,
      "mu": 5252,
      "plausible": 5253,
      "availing": 5254,
      "##want": 5255,
      "anuj": 5256,
      "chemicals": 5257,
      "##unch": 5258,
      "ultimate": 5259,
      "rai": 5260,
      "impro": 5261,
      "270": 5262,
      "397": 5263,
      "key": 5264,
      "xii": 5265,
      "dw1": 5266,
      "800": 5267,
      "filling": 5268,
      "explaining": 5269,
      "asse": 5270,
      "host": 5271,
      "promoters": 5272,
      "sir": 5273,
      "depend": 5274,
      "conclusions": 5275,
      "caste": 5276,
      "range": 5277,
      "##thi": 5278,
      "maur": 5279,
      "safety": 5280,
      "234e": 5281,
      "participate": 5282,
      "debtors": 5283,
      "brokers": 5284,
      "prudent": 5285,
      "assuming": 5286,
      "aos": 5287,
      "column": 5288,
      "cros": 5289,
      "invent": 5290,
      "##reh": 5291,
      "nadu": 5292,
      "dl": 5293,
      "zone": 5294,
      "##sex": 5295,
      "##uv": 5296,
      "subscriber": 5297,
      "contested": 5298,
      "backd": 5299,
      "deliver": 5300,
      "lieu": 5301,
      "manifest": 5302,
      "match": 5303,
      "entr": 5304,
      "explanations": 5305,
      "progress": 5306,
      "detenu": 5307,
      "##adation": 5308,
      "prays": 5309,
      "pankaj": 5310,
      "159": 5311,
      "pot": 5312,
      "146": 5313,
      "world": 5314,
      "ambig": 5315,
      "mw": 5316,
      "##lete": 5317,
      "##ivas": 5318,
      "virtual": 5319,
      "das": 5320,
      "tangible": 5321,
      "registry": 5322,
      "screening": 5323,
      "pu": 5324,
      "studying": 5325,
      "vig": 5326,
      "compuls": 5327,
      "taxing": 5328,
      "ctr": 5329,
      "crossex": 5330,
      "crossexamin": 5331,
      "holds": 5332,
      "186": 5333,
      "directorate": 5334,
      "excluding": 5335,
      "grow": 5336,
      "summoning": 5337,
      "doctrine": 5338,
      "actions": 5339,
      "machines": 5340,
      "pronounced": 5341,
      "imm": 5342,
      "##my": 5343,
      "180": 5344,
      "remove": 5345,
      "holdings": 5346,
      "diagn": 5347,
      "else": 5348,
      "llp": 5349,
      "serving": 5350,
      "simult": 5351,
      "##apur": 5352,
      "procure": 5353,
      "lucknow": 5354,
      "simultaneous": 5355,
      "##esi": 5356,
      "operator": 5357,
      "gaz": 5358,
      "murder": 5359,
      "mix": 5360,
      "pred": 5361,
      "provisional": 5362,
      "shared": 5363,
      "274": 5364,
      "kant": 5365,
      "##33": 5366,
      "venture": 5367,
      "cce": 5368,
      "liquor": 5369,
      "citizen": 5370,
      "opt": 5371,
      "##iya": 5372,
      "confined": 5373,
      "fifty": 5374,
      "##hot": 5375,
      "rct": 5376,
      "##fort": 5377,
      "140": 5378,
      "labours": 5379,
      "cisco": 5380,
      "ltcg": 5381,
      "304": 5382,
      "whereof": 5383,
      "looked": 5384,
      "mukesh": 5385,
      "hes": 5386,
      "30th": 5387,
      "intimated": 5388,
      "space": 5389,
      "##ilal": 5390,
      "manual": 5391,
      "exha": 5392,
      "close": 5393,
      "mortgage": 5394,
      "##elled": 5395,
      "dict": 5396,
      "oath": 5397,
      "##roc": 5398,
      "confron": 5399,
      "thr": 5400,
      "excisable": 5401,
      "volum": 5402,
      "imported": 5403,
      "166": 5404,
      "involves": 5405,
      "##ets": 5406,
      "129": 5407,
      "merch": 5408,
      "avoidance": 5409,
      "safegu": 5410,
      "ng": 5411,
      "141": 5412,
      "mahesh": 5413,
      "installed": 5414,
      "clo": 5415,
      "exhaust": 5416,
      "##ict": 5417,
      "##wani": 5418,
      "##reg": 5419,
      "restore": 5420,
      "vendor": 5421,
      "mercant": 5422,
      "front": 5423,
      "addu": 5424,
      "vihar": 5425,
      "unab": 5426,
      "##indra": 5427,
      "brothers": 5428,
      "##ervation": 5429,
      "step": 5430,
      "prosecutor": 5431,
      "upper": 5432,
      "##ica": 5433,
      "coal": 5434,
      "nhb": 5435,
      "vikas": 5436,
      "##thy": 5437,
      "##bc": 5438,
      "##atta": 5439,
      "media": 5440,
      "subh": 5441,
      "poll": 5442,
      "apparently": 5443,
      "##rection": 5444,
      "concession": 5445,
      "##igner": 5446,
      "##25": 5447,
      "manoj": 5448,
      "chawla": 5449,
      "comb": 5450,
      "irrelevant": 5451,
      "truth": 5452,
      "agrawal": 5453,
      "npa": 5454,
      "sain": 5455,
      "subscription": 5456,
      "faith": 5457,
      "installation": 5458,
      "rit": 5459,
      "enl": 5460,
      "voluntary": 5461,
      "vice": 5462,
      "scn": 5463,
      "hypo": 5464,
      "stipul": 5465,
      "prices": 5466,
      "piece": 5467,
      "pul": 5468,
      "conform": 5469,
      "herewith": 5470,
      "pressed": 5471,
      "##book": 5472,
      "##faesi": 5473,
      "##hood": 5474,
      "##vin": 5475,
      "comparables": 5476,
      "tet": 5477,
      "voluntarily": 5478,
      "remitt": 5479,
      "calcul": 5480,
      "reck": 5481,
      "lastly": 5482,
      "facilit": 5483,
      "unreasonable": 5484,
      "##rix": 5485,
      "mediation": 5486,
      "empow": 5487,
      "week": 5488,
      "history": 5489,
      "prohi": 5490,
      "##ursed": 5491,
      "5th": 5492,
      "je": 5493,
      "##23": 5494,
      "##izing": 5495,
      "equipments": 5496,
      "##eral": 5497,
      "kot": 5498,
      "##iles": 5499,
      "waste": 5500,
      "distance": 5501,
      "premise": 5502,
      "consistently": 5503,
      "epf": 5504,
      "##iting": 5505,
      "band": 5506,
      "replies": 5507,
      "spir": 5508,
      "sarfaesi": 5509,
      "189": 5510,
      "satish": 5511,
      "gazet": 5512,
      "donation": 5513,
      "##rel": 5514,
      "disposing": 5515,
      "deny": 5516,
      "conveyance": 5517,
      "influ": 5518,
      "ie": 5519,
      "pw3": 5520,
      "jhar": 5521,
      "serial": 5522,
      "abd": 5523,
      "##riya": 5524,
      "hari": 5525,
      "obviously": 5526,
      "backdrop": 5527,
      "hardship": 5528,
      "##tle": 5529,
      "path": 5530,
      "designer": 5531,
      "green": 5532,
      "1991": 5533,
      "cpj": 5534,
      "disallowances": 5535,
      "161": 5536,
      "320": 5537,
      "entering": 5538,
      "traders": 5539,
      "accounted": 5540,
      "think": 5541,
      "itba": 5542,
      "resid": 5543,
      "113": 5544,
      "plants": 5545,
      "drawer": 5546,
      "##ception": 5547,
      "##nels": 5548,
      "406": 5549,
      "##encies": 5550,
      "##etary": 5551,
      "##verted": 5552,
      "tehs": 5553,
      "##gested": 5554,
      "ele": 5555,
      "##pay": 5556,
      "kms": 5557,
      "motive": 5558,
      "jcit": 5559,
      "acres": 5560,
      "motorcy": 5561,
      "105": 5562,
      "consistent": 5563,
      "hdfc": 5564,
      "defines": 5565,
      "limb": 5566,
      "jas": 5567,
      "ware": 5568,
      "##86": 5569,
      "remun": 5570,
      "jur": 5571,
      "suffers": 5572,
      "clarify": 5573,
      "content": 5574,
      "dispens": 5575,
      "increment": 5576,
      "mercantile": 5577,
      "attained": 5578,
      "construct": 5579,
      "exped": 5580,
      "stations": 5581,
      "homebu": 5582,
      "bidder": 5583,
      "religious": 5584,
      "cod": 5585,
      "untenable": 5586,
      "nit": 5587,
      "fract": 5588,
      "changes": 5589,
      "##ropol": 5590,
      "##inous": 5591,
      "controlled": 5592,
      "capable": 5593,
      "vinod": 5594,
      "sci": 5595,
      "workers": 5596,
      "analyz": 5597,
      "metropol": 5598,
      "tract": 5599,
      "grid": 5600,
      "300": 5601,
      "7th": 5602,
      "271a": 5603,
      "##atorium": 5604,
      "devoid": 5605,
      "gift": 5606,
      "##fil": 5607,
      "undue": 5608,
      "spl": 5609,
      "suggested": 5610,
      "refusal": 5611,
      "metropolitan": 5612,
      "##orter": 5613,
      "subsection": 5614,
      "135": 5615,
      "circum": 5616,
      "vest": 5617,
      "exhibit": 5618,
      "lif": 5619,
      "partial": 5620,
      "moratorium": 5621,
      "ul": 5622,
      "##asi": 5623,
      "lady": 5624,
      "save": 5625,
      "tt": 5626,
      "enjoy": 5627,
      "remuneration": 5628,
      "heirs": 5629,
      "seeds": 5630,
      "md": 5631,
      "##mn": 5632,
      "presently": 5633,
      "adopting": 5634,
      "drc": 5635,
      "##adeep": 5636,
      "##racted": 5637,
      "shyam": 5638,
      "offshore": 5639,
      "manu": 5640,
      "reflects": 5641,
      "cryst": 5642,
      "bla": 5643,
      "oats": 5644,
      "##gone": 5645,
      "tot": 5646,
      "gopal": 5647,
      "1955": 5648,
      "##etic": 5649,
      "incumb": 5650,
      "srinivas": 5651,
      "ens": 5652,
      "ragh": 5653,
      "estimate": 5654,
      "ang": 5655,
      "##aving": 5656,
      "163": 5657,
      "brevity": 5658,
      "peculi": 5659,
      "confronted": 5660,
      "peculiar": 5661,
      "vote": 5662,
      "subordinate": 5663,
      "##ology": 5664,
      "goel": 5665,
      "undertake": 5666,
      "gathered": 5667,
      "reasonably": 5668,
      "reliable": 5669,
      "opened": 5670,
      "supplementary": 5671,
      "incomplete": 5672,
      "originally": 5673,
      "junior": 5674,
      "electr": 5675,
      "communications": 5676,
      "traff": 5677,
      "jharkhand": 5678,
      "existed": 5679,
      "##ulty": 5680,
      "circulars": 5681,
      "bod": 5682,
      "ts": 5683,
      "170": 5684,
      "##issa": 5685,
      "123": 5686,
      "demands": 5687,
      "##kk": 5688,
      "##itude": 5689,
      "poly": 5690,
      "nas": 5691,
      "willing": 5692,
      "cler": 5693,
      "shankar": 5694,
      "elic": 5695,
      "traffic": 5696,
      "monetary": 5697,
      "channels": 5698,
      "misconduct": 5699,
      "depositing": 5700,
      "stopped": 5701,
      "queries": 5702,
      "##istic": 5703,
      "factually": 5704,
      "##onged": 5705,
      "truck": 5706,
      "lordship": 5707,
      "##urring": 5708,
      "suppli": 5709,
      "reduce": 5710,
      "continues": 5711,
      "##aveen": 5712,
      "unne": 5713,
      "##oma": 5714,
      "unnecess": 5715,
      "noida": 5716,
      "orissa": 5717,
      "##stant": 5718,
      "phone": 5719,
      "affil": 5720,
      "colour": 5721,
      "1860": 5722,
      "tenable": 5723,
      "fraudulent": 5724,
      "restoration": 5725,
      "pursue": 5726,
      "suppliers": 5727,
      "fast": 5728,
      "##jan": 5729,
      "accepts": 5730,
      "handing": 5731,
      "abdul": 5732,
      "11th": 5733,
      "kumari": 5734,
      "##84": 5735,
      "##law": 5736,
      "##que": 5737,
      "via": 5738,
      "sealed": 5739,
      "200a": 5740,
      "situations": 5741,
      "motorcycle": 5742,
      "persu": 5743,
      "labor": 5744,
      "reopen": 5745,
      "rational": 5746,
      "completing": 5747,
      "swor": 5748,
      "sanj": 5749,
      "component": 5750,
      "shops": 5751,
      "booking": 5752,
      "##87": 5753,
      "enacted": 5754,
      "monitoring": 5755,
      "dealer": 5756,
      "electrical": 5757,
      "supposed": 5758,
      "comprising": 5759,
      "transpar": 5760,
      "130": 5761,
      "sworn": 5762,
      "##imb": 5763,
      "revisionary": 5764,
      "favor": 5765,
      "354": 5766,
      "239": 5767,
      "69a": 5768,
      "occasions": 5769,
      "bat": 5770,
      "goa": 5771,
      "write": 5772,
      "declare": 5773,
      "appl": 5774,
      "fulfil": 5775,
      "bed": 5776,
      "cab": 5777,
      "legitimate": 5778,
      "plus": 5779,
      "enlar": 5780,
      "##11": 5781,
      "soon": 5782,
      "mun": 5783,
      "accorded": 5784,
      "convert": 5785,
      "sandeep": 5786,
      "##52": 5787,
      "beg": 5788,
      "wareh": 5789,
      "##kr": 5790,
      "##reet": 5791,
      "inspite": 5792,
      "equitable": 5793,
      "wanted": 5794,
      "bears": 5795,
      "expedit": 5796,
      "promoter": 5797,
      "fabricated": 5798,
      "##uja": 5799,
      "##lal": 5800,
      "doubted": 5801,
      "invocation": 5802,
      "firms": 5803,
      "instal": 5804,
      "esic": 5805,
      "built": 5806,
      "prosecutrix": 5807,
      "15th": 5808,
      "##otech": 5809,
      "rider": 5810,
      "competitive": 5811,
      "builder": 5812,
      "touch": 5813,
      "constructions": 5814,
      "um": 5815,
      "crossexamination": 5816,
      "thresh": 5817,
      "##vinder": 5818,
      "concluding": 5819,
      "indirectly": 5820,
      "poon": 5821,
      "fairly": 5822,
      "mahindra": 5823,
      "##rap": 5824,
      "esa": 5825,
      "track": 5826,
      "macp": 5827,
      "plat": 5828,
      "yield": 5829,
      "##ims": 5830,
      "licens": 5831,
      "##elihood": 5832,
      "ml": 5833,
      "nig": 5834,
      "##cent": 5835,
      "annexures": 5836,
      "wall": 5837,
      "agencies": 5838,
      "affidavits": 5839,
      "##elt": 5840,
      "1976": 5841,
      "warranted": 5842,
      "vitiated": 5843,
      "##31": 5844,
      "booked": 5845,
      "governing": 5846,
      "ruling": 5847,
      "pandey": 5848,
      "vouchers": 5849,
      "authorization": 5850,
      "positive": 5851,
      "stayed": 5852,
      "feeling": 5853,
      "rahul": 5854,
      "threshold": 5855,
      "rajendra": 5856,
      "2a": 5857,
      "recently": 5858,
      "taxpay": 5859,
      "##gaon": 5860,
      "simultaneously": 5861,
      "##ulative": 5862,
      "twin": 5863,
      "##hold": 5864,
      "##ng": 5865,
      "tab": 5866,
      "retail": 5867,
      "adjournment": 5868,
      "prol": 5869,
      "##ama": 5870,
      "amar": 5871,
      "undou": 5872,
      "harsh": 5873,
      "##rant": 5874,
      "vo": 5875,
      "##ae": 5876,
      "extr": 5877,
      "misused": 5878,
      "##76": 5879,
      "3a": 5880,
      "unear": 5881,
      "program": 5882,
      "homebuyers": 5883,
      "royal": 5884,
      "linked": 5885,
      "245": 5886,
      "phr": 5887,
      "usu": 5888,
      "clin": 5889,
      "baroda": 5890,
      "participated": 5891,
      "black": 5892,
      "incumbent": 5893,
      "providers": 5894,
      "married": 5895,
      "undoubted": 5896,
      "deducting": 5897,
      "enactment": 5898,
      "integrity": 5899,
      "##79": 5900,
      "phrase": 5901,
      "dow": 5902,
      "ravi": 5903,
      "mir": 5904,
      "tool": 5905,
      "atroc": 5906,
      "women": 5907,
      "thor": 5908,
      "##erry": 5909,
      "##tha": 5910,
      "closure": 5911,
      "prefer": 5912,
      "covers": 5913,
      "visit": 5914,
      "reasoned": 5915,
      "declined": 5916,
      "suffice": 5917,
      "spec": 5918,
      "##body": 5919,
      "agony": 5920,
      "offices": 5921,
      "##emn": 5922,
      "measures": 5923,
      "deposition": 5924,
      "mandated": 5925,
      "student": 5926,
      "##bhai": 5927,
      "coupled": 5928,
      "upgradation": 5929,
      "atrocities": 5930,
      "colony": 5931,
      "realization": 5932,
      "diab": 5933,
      "effort": 5934,
      "mic": 5935,
      "shareholding": 5936,
      "rebutted": 5937,
      "struct": 5938,
      "vigil": 5939,
      "spirit": 5940,
      "lpa": 5941,
      "##uti": 5942,
      "managed": 5943,
      "surcharge": 5944,
      "erroneously": 5945,
      "study": 5946,
      "owing": 5947,
      "##shi": 5948,
      "root": 5949,
      "204": 5950,
      "372": 5951,
      "truly": 5952,
      "performing": 5953,
      "grievances": 5954,
      "271aab": 5955,
      "vat": 5956,
      "40a": 5957,
      "8th": 5958,
      "##ches": 5959,
      "370": 5960,
      "objected": 5961,
      "select": 5962,
      "6th": 5963,
      "173": 5964,
      "##itius": 5965,
      "sound": 5966,
      "undoubtedly": 5967,
      "##imal": 5968,
      "ot": 5969,
      "misp": 5970,
      "fixation": 5971,
      "components": 5972,
      "178": 5973,
      "penny": 5974,
      "deductible": 5975,
      "##ario": 5976,
      "adjourned": 5977,
      "169": 5978,
      "qualifying": 5979,
      "wound": 5980,
      "##oshi": 5981,
      "238": 5982,
      "consultation": 5983,
      "dub": 5984,
      "vacancy": 5985,
      "vinay": 5986,
      "community": 5987,
      "anc": 5988,
      "##ami": 5989,
      "laps": 5990,
      "##orts": 5991,
      "obvious": 5992,
      "hindust": 5993,
      "sums": 5994,
      "latest": 5995,
      "mauritius": 5996,
      "dal": 5997,
      "honourable": 5998,
      "ups": 5999,
      "producing": 6000,
      "happened": 6001,
      "bans": 6002,
      "##itical": 6003,
      "##udd": 6004,
      "kap": 6005,
      "discharging": 6006,
      "ambiguity": 6007,
      "hindustan": 6008,
      "ank": 6009,
      "considerations": 6010,
      "format": 6011,
      "competition": 6012,
      "##lish": 6013,
      "confidence": 6014,
      "##70": 6015,
      "exs": 6016,
      "lrs": 6017,
      "##writ": 6018,
      "##onet": 6019,
      "fourth": 6020,
      "##versal": 6021,
      "scenario": 6022,
      "##bb": 6023,
      "##urse": 6024,
      "reconst": 6025,
      "meetings": 6026,
      "greater": 6027,
      "summoned": 6028,
      "ganesh": 6029,
      "accompanied": 6030,
      "##orily": 6031,
      "160": 6032,
      "retained": 6033,
      "arg": 6034,
      "necessity": 6035,
      "1990": 6036,
      "grave": 6037,
      "reporting": 6038,
      "airport": 6039,
      "legality": 6040,
      "santosh": 6041,
      "pollution": 6042,
      "ore": 6043,
      "1984": 6044,
      "answering": 6045,
      "db": 6046,
      "expenses": 6047,
      "harassment": 6048,
      "vip": 6049,
      "timely": 6050,
      "sush": 6051,
      "handling": 6052,
      "routine": 6053,
      "##ju": 6054,
      "##ina": 6055,
      "kab": 6056,
      "vari": 6057,
      "introduction": 6058,
      "foods": 6059,
      "##regard": 6060,
      "men": 6061,
      "##ob": 6062,
      "##tech": 6063,
      "judgements": 6064,
      "controller": 6065,
      "diam": 6066,
      "##eraj": 6067,
      "leaving": 6068,
      "poor": 6069,
      "norms": 6070,
      "english": 6071,
      "relatives": 6072,
      "fed": 6073,
      "sad": 6074,
      "176": 6075,
      "undergone": 6076,
      "retracted": 6077,
      "elicited": 6078,
      "bis": 6079,
      "##wers": 6080,
      "1972": 6081,
      "conced": 6082,
      "##aging": 6083,
      "1965": 6084,
      "evaluation": 6085,
      "claimants": 6086,
      "diligence": 6087,
      "hem": 6088,
      "foot": 6089,
      "crop": 6090,
      "et": 6091,
      "##21": 6092,
      "inclusive": 6093,
      "##cr": 6094,
      "##hai": 6095,
      "bajaj": 6096,
      "pram": 6097,
      "culmin": 6098,
      "remarks": 6099,
      "firs": 6100,
      "##achal": 6101,
      "sach": 6102,
      "##ov": 6103,
      "##osen": 6104,
      "contracting": 6105,
      "improvement": 6106,
      "incentive": 6107,
      "subhash": 6108,
      "##rue": 6109,
      "jy": 6110,
      "agit": 6111,
      "ruled": 6112,
      "defending": 6113,
      "1975": 6114,
      "refunded": 6115,
      "captive": 6116,
      "dks": 6117,
      "discer": 6118,
      "##ek": 6119,
      "##olve": 6120,
      "relies": 6121,
      "acquitted": 6122,
      "fortif": 6123,
      "251": 6124,
      "##ases": 6125,
      "##adequ": 6126,
      "##83": 6127,
      "alternate": 6128,
      "assaulted": 6129,
      "dowry": 6130,
      "sb": 6131,
      "exemptions": 6132,
      "plots": 6133,
      "rank": 6134,
      "crucial": 6135,
      "affili": 6136,
      "aj": 6137,
      "conject": 6138,
      "fat": 6139,
      "chaud": 6140,
      "##ession": 6141,
      "bhil": 6142,
      "importance": 6143,
      "inadequ": 6144,
      "undergoing": 6145,
      "presentation": 6146,
      "news": 6147,
      "ide": 6148,
      "dro": 6149,
      "##gc": 6150,
      "comments": 6151,
      "uncon": 6152,
      "155": 6153,
      "showed": 6154,
      "feet": 6155,
      "electronics": 6156,
      "boards": 6157,
      "appreh": 6158,
      "##etch": 6159,
      "enquir": 6160,
      "trustee": 6161,
      "valued": 6162,
      "shift": 6163,
      "expl": 6164,
      "tribes": 6165,
      "core": 6166,
      "narrated": 6167,
      "##aves": 6168,
      "lending": 6169,
      "sli": 6170,
      "purchasing": 6171,
      "unearth": 6172,
      "ip": 6173,
      "absorption": 6174,
      "##22": 6175,
      "preparation": 6176,
      "leads": 6177,
      "remin": 6178,
      "publication": 6179,
      "##tees": 6180,
      "securing": 6181,
      "chosen": 6182,
      "measure": 6183,
      "##net": 6184,
      "manip": 6185,
      "born": 6186,
      "success": 6187,
      "achieved": 6188,
      "ig": 6189,
      "lot": 6190,
      "jail": 6191,
      "134": 6192,
      "nb": 6193,
      "cancel": 6194,
      "justifiable": 6195,
      "satell": 6196,
      "requests": 6197,
      "struck": 6198,
      "undisputedly": 6199,
      "birth": 6200,
      "top": 6201,
      "##hik": 6202,
      "formula": 6203,
      "##aji": 6204,
      "km": 6205,
      "depending": 6206,
      "demol": 6207,
      "iz": 6208,
      "tenants": 6209,
      "requesting": 6210,
      "valuer": 6211,
      "evalu": 6212,
      "responded": 6213,
      "coram": 6214,
      "files": 6215,
      "citizens": 6216,
      "recommendations": 6217,
      "mcd": 6218,
      "gramin": 6219,
      "approving": 6220,
      "sundry": 6221,
      "thoughtful": 6222,
      "cest": 6223,
      "##ikh": 6224,
      "##ela": 6225,
      "##ima": 6226,
      "caution": 6227,
      "pw4": 6228,
      "motion": 6229,
      "ndps": 6230,
      "##01": 6231,
      "establishing": 6232,
      "involvement": 6233,
      "renew": 6234,
      "##55": 6235,
      "chat": 6236,
      "##omin": 6237,
      "allocation": 6238,
      "math": 6239,
      "strongly": 6240,
      "aa": 6241,
      "cell": 6242,
      "##iders": 6243,
      "abated": 6244,
      "sustain": 6245,
      "thorough": 6246,
      "early": 6247,
      "248": 6248,
      "interpre": 6249,
      "opted": 6250,
      "##viable": 6251,
      "injust": 6252,
      "counts": 6253,
      "reconstruction": 6254,
      "sn": 6255,
      "193": 6256,
      "misplaced": 6257,
      "101": 6258,
      "creating": 6259,
      "drugs": 6260,
      "functional": 6261,
      "contradict": 6262,
      "deliber": 6263,
      "liter": 6264,
      "superior": 6265,
      "awarding": 6266,
      "acquiring": 6267,
      "fis": 6268,
      "uploaded": 6269,
      "disclosing": 6270,
      "chander": 6271,
      "noc": 6272,
      "chd": 6273,
      "demonet": 6274,
      "phar": 6275,
      "nigam": 6276,
      "agro": 6277,
      "50c": 6278,
      "379": 6279,
      "grievous": 6280,
      "roll": 6281,
      "chron": 6282,
      "govind": 6283,
      "injustice": 6284,
      "xvi": 6285,
      "##erous": 6286,
      "referring": 6287,
      "chaudh": 6288,
      "comparison": 6289,
      "assem": 6290,
      "rad": 6291,
      "sez": 6292,
      "demanding": 6293,
      "putting": 6294,
      "fifteen": 6295,
      "friend": 6296,
      "wai": 6297,
      "policies": 6298,
      "ascertained": 6299,
      "panch": 6300,
      "perusing": 6301,
      "disregard": 6302,
      "promised": 6303,
      "diamond": 6304,
      "vas": 6305,
      "accus": 6306,
      "##kha": 6307,
      "saying": 6308,
      "##95": 6309,
      "fixing": 6310,
      "vendors": 6311,
      "##avi": 6312,
      "230": 6313,
      "testing": 6314,
      "photographs": 6315,
      "arch": 6316,
      "cestat": 6317,
      "376": 6318,
      "intangible": 6319,
      "rice": 6320,
      "naresh": 6321,
      "malaf": 6322,
      "satellite": 6323,
      "wal": 6324,
      "inventory": 6325,
      "bansal": 6326,
      "dwar": 6327,
      "engineers": 6328,
      "encl": 6329,
      "177": 6330,
      "guilt": 6331,
      "cham": 6332,
      "demonstrated": 6333,
      "92ca": 6334,
      "##jun": 6335,
      "imper": 6336,
      "illust": 6337,
      "inordinate": 6338,
      "deems": 6339,
      "specify": 6340,
      "himachal": 6341,
      "really": 6342,
      "safely": 6343,
      "castes": 6344,
      "##usted": 6345,
      "depends": 6346,
      "1983": 6347,
      "compulsory": 6348,
      "packing": 6349,
      "sab": 6350,
      "creation": 6351,
      "54f": 6352,
      "device": 6353,
      "jagdish": 6354,
      "somet": 6355,
      "##icit": 6356,
      "157": 6357,
      "roc": 6358,
      "##80": 6359,
      "sustaining": 6360,
      "complying": 6361,
      "112": 6362,
      "consisting": 6363,
      "leasing": 6364,
      "allottee": 6365,
      "argue": 6366,
      "fsl": 6367,
      "pradeep": 6368,
      "306": 6369,
      "215": 6370,
      "1978": 6371,
      "lok": 6372,
      "rf": 6373,
      "##astic": 6374,
      "regularized": 6375,
      "tas": 6376,
      "##ss": 6377,
      "phase": 6378,
      "cant": 6379,
      "hi": 6380,
      "20th": 6381,
      "##andi": 6382,
      "guard": 6383,
      "surround": 6384,
      "330": 6385,
      "dipl": 6386,
      "##rat": 6387,
      "segment": 6388,
      "desir": 6389,
      "arranged": 6390,
      "supervision": 6391,
      "ncd": 6392,
      "243": 6393,
      "498": 6394,
      "adoption": 6395,
      "accumulated": 6396,
      "sra": 6397,
      "##ios": 6398,
      "121": 6399,
      "levying": 6400,
      "missing": 6401,
      "ots": 6402,
      "187": 6403,
      "assault": 6404,
      "gate": 6405,
      "expans": 6406,
      "forty": 6407,
      "##ksha": 6408,
      "uniform": 6409,
      "interpreting": 6410,
      "##gam": 6411,
      "chou": 6412,
      "promote": 6413,
      "kg": 6414,
      "mil": 6415,
      "##vol": 6416,
      "partition": 6417,
      "expect": 6418,
      "disturb": 6419,
      "conformity": 6420,
      "cancer": 6421,
      "quo": 6422,
      "handwrit": 6423,
      "337": 6424,
      "115b": 6425,
      "concurr": 6426,
      "leviable": 6427,
      "concre": 6428,
      "acp": 6429,
      "conclusive": 6430,
      "207": 6431,
      "admits": 6432,
      "tmi": 6433,
      "procurement": 6434,
      "##get": 6435,
      "##thern": 6436,
      "personally": 6437,
      "impossible": 6438,
      "servants": 6439,
      "saving": 6440,
      "indemn": 6441,
      "highest": 6442,
      "users": 6443,
      "80ib": 6444,
      "assume": 6445,
      "sending": 6446,
      "cart": 6447,
      "repet": 6448,
      "approxim": 6449,
      "warranty": 6450,
      "samiti": 6451,
      "commodities": 6452,
      "fracture": 6453,
      "series": 6454,
      "ailing": 6455,
      "ved": 6456,
      "212": 6457,
      "farmers": 6458,
      "214": 6459,
      "staying": 6460,
      "story": 6461,
      "boiler": 6462,
      "operators": 6463,
      "cass": 6464,
      "active": 6465,
      "extending": 6466,
      "escal": 6467,
      "fora": 6468,
      "petro": 6469,
      "pursuing": 6470,
      "468": 6471,
      "connect": 6472,
      "ailment": 6473,
      "convicting": 6474,
      "repetition": 6475,
      "apt": 6476,
      "mh": 6477,
      "279": 6478,
      "sudden": 6479,
      "thermal": 6480,
      "jyot": 6481,
      "concrete": 6482,
      "##licit": 6483,
      "319": 6484,
      "unearthed": 6485,
      "##upon": 6486,
      "misuse": 6487,
      "grand": 6488,
      "##ones": 6489,
      "goyal": 6490,
      "##ishment": 6491,
      "guidance": 6492,
      "unnecessary": 6493,
      "##idar": 6494,
      "##utation": 6495,
      "fairness": 6496,
      "waiver": 6497,
      "##nani": 6498,
      "priority": 6499,
      "276": 6500,
      "244": 6501,
      "patients": 6502,
      "chronic": 6503,
      "mary": 6504,
      "##ika": 6505,
      "vacated": 6506,
      "exclude": 6507,
      "ventures": 6508,
      "facilitate": 6509,
      "load": 6510,
      "belonged": 6511,
      "apartment": 6512,
      "bul": 6513,
      "hr": 6514,
      "fake": 6515,
      "lesser": 6516,
      "consultant": 6517,
      "ttj": 6518,
      "##ewise": 6519,
      "gaur": 6520,
      "ips": 6521,
      "twice": 6522,
      "##amples": 6523,
      "inad": 6524,
      "convin": 6525,
      "variation": 6526,
      "saw": 6527,
      "averment": 6528,
      "mentions": 6529,
      "bah": 6530,
      "324": 6531,
      "poonam": 6532,
      "considerable": 6533,
      "likewise": 6534,
      "600": 6535,
      "cott": 6536,
      "command": 6537,
      "240": 6538,
      "reducing": 6539,
      "##ammad": 6540,
      "##eyance": 6541,
      "freight": 6542,
      "nut": 6543,
      "714": 6544,
      "hardly": 6545,
      "##69": 6546,
      "retain": 6547,
      "manually": 6548,
      "dispatch": 6549,
      "trustees": 6550,
      "##gation": 6551,
      "209": 6552,
      "abeyance": 6553,
      "viewed": 6554,
      "260": 6555,
      "enlarged": 6556,
      "##ponent": 6557,
      "chain": 6558,
      "allied": 6559,
      "laxmi": 6560,
      "##page": 6561,
      "23c": 6562,
      "knowing": 6563,
      "cycle": 6564,
      "unlaw": 6565,
      "liquidated": 6566,
      "installments": 6567,
      "tiwari": 6568,
      "##uous": 6569,
      "sharing": 6570,
      "instances": 6571,
      "1979": 6572,
      "borrowing": 6573,
      "distributors": 6574,
      "inadvert": 6575,
      "unlawful": 6576,
      "##agi": 6577,
      "##ining": 6578,
      "mandates": 6579,
      "deeming": 6580,
      "115bbe": 6581,
      "monies": 6582,
      "maxim": 6583,
      "motors": 6584,
      "lawful": 6585,
      "laying": 6586,
      "frivol": 6587,
      "##thet": 6588,
      "leaves": 6589,
      "minister": 6590,
      "liberal": 6591,
      "prescribes": 6592,
      "##una": 6593,
      "unfort": 6594,
      "tenure": 6595,
      "discover": 6596,
      "recognised": 6597,
      "repudiated": 6598,
      "mom": 6599,
      "deh": 6600,
      "##ishing": 6601,
      "trail": 6602,
      "formation": 6603,
      "counted": 6604,
      "remittance": 6605,
      "taxpayer": 6606,
      "##eat": 6607,
      "atm": 6608,
      "dhfl": 6609,
      "elaborate": 6610,
      "misconce": 6611,
      "unfortun": 6612,
      "gand": 6613,
      "displa": 6614,
      "trademark": 6615,
      "buildings": 6616,
      "##lands": 6617,
      "bhilai": 6618,
      "pharma": 6619,
      "bull": 6620,
      "##ost": 6621,
      "damaged": 6622,
      "oriental": 6623,
      "lordships": 6624,
      "rol": 6625,
      "coerc": 6626,
      "founded": 6627,
      "driven": 6628,
      "achieve": 6629,
      "frivolous": 6630,
      "coercion": 6631,
      "174": 6632,
      "revise": 6633,
      "esto": 6634,
      "compoundable": 6635,
      "adduce": 6636,
      "##vs": 6637,
      "179": 6638,
      "transparency": 6639,
      "dwarka": 6640,
      "##ran": 6641,
      "##itch": 6642,
      "340": 6643,
      "forthwith": 6644,
      "##89": 6645,
      "##ky": 6646,
      "turned": 6647,
      "inaction": 6648,
      "evade": 6649,
      "28th": 6650,
      "##atable": 6651,
      "29a": 6652,
      "disbursed": 6653,
      "fuel": 6654,
      "finished": 6655,
      "contesting": 6656,
      "rohini": 6657,
      "deprived": 6658,
      "pump": 6659,
      "pramod": 6660,
      "##ero": 6661,
      "often": 6662,
      "##alpur": 6663,
      "confis": 6664,
      "##dr": 6665,
      "factum": 6666,
      "357": 6667,
      "misconceived": 6668,
      "night": 6669,
      "##atively": 6670,
      "incur": 6671,
      "##uhan": 6672,
      "gaut": 6673,
      "push": 6674,
      "rape": 6675,
      "workmen": 6676,
      "domin": 6677,
      "juncture": 6678,
      "ailments": 6679,
      "unabated": 6680,
      "successful": 6681,
      "diploma": 6682,
      "pointing": 6683,
      "pir": 6684,
      "permits": 6685,
      "bodies": 6686,
      "discern": 6687,
      "jind": 6688,
      "causes": 6689,
      "appointing": 6690,
      "234b": 6691,
      "developing": 6692,
      "expansion": 6693,
      "nov": 6694,
      "##urd": 6695,
      "abate": 6696,
      "neeraj": 6697,
      "tests": 6698,
      "reiter": 6699,
      "faced": 6700,
      "350": 6701,
      "ibbi": 6702,
      "modus": 6703,
      "dk": 6704,
      "jab": 6705,
      "217": 6706,
      "220": 6707,
      "389": 6708,
      "sixty": 6709,
      "locus": 6710,
      "debatable": 6711,
      "pad": 6712,
      "210": 6713,
      "predomin": 6714,
      "mb": 6715,
      "accrue": 6716,
      "gurgaon": 6717,
      "ruk": 6718,
      "misle": 6719,
      "##nam": 6720,
      "##pi": 6721,
      "##ingu": 6722,
      "##essel": 6723,
      "mutation": 6724,
      "9th": 6725,
      "##ll": 6726,
      "unwar": 6727,
      "consultants": 6728,
      "rectified": 6729,
      "##ination": 6730,
      "pw7": 6731,
      "bhopal": 6732,
      "integra": 6733,
      "hesitation": 6734,
      "##41": 6735,
      "companys": 6736,
      "gautam": 6737,
      "unwarrant": 6738,
      "hal": 6739,
      "tis": 6740,
      "remote": 6741,
      "maje": 6742,
      "mutually": 6743,
      "discrepancies": 6744,
      "unwarranted": 6745,
      "vessel": 6746,
      "lays": 6747,
      "mittal": 6748,
      "guarantees": 6749,
      "ray": 6750,
      "##vest": 6751,
      "swp": 6752,
      "mohammad": 6753,
      "types": 6754,
      "wants": 6755,
      "adding": 6756,
      "influence": 6757,
      "bil": 6758,
      "grants": 6759,
      "estimation": 6760,
      "exhibited": 6761,
      "117": 6762,
      "observes": 6763,
      "collecting": 6764,
      "recognition": 6765,
      "extingu": 6766,
      "violative": 6767,
      "hoc": 6768,
      "##ira": 6769,
      "adit": 6770,
      "175": 6771,
      "exceptional": 6772,
      "framework": 6773,
      "dhan": 6774,
      "fru": 6775,
      "distributed": 6776,
      "##adit": 6777,
      "##ortion": 6778,
      "entrusted": 6779,
      "gpa": 6780,
      "##istr": 6781,
      "309": 6782,
      "##uniary": 6783,
      "brij": 6784,
      "withheld": 6785,
      "inferred": 6786,
      "cable": 6787,
      "deploy": 6788,
      "374": 6789,
      "rebuttal": 6790,
      "impleaded": 6791,
      "wed": 6792,
      "affix": 6793,
      "calls": 6794,
      "relatable": 6795,
      "reckoned": 6796,
      "maryadit": 6797,
      "gang": 6798,
      "raid": 6799,
      "##bon": 6800,
      "furtherance": 6801,
      "explicit": 6802,
      "27th": 6803,
      "projected": 6804,
      "obliged": 6805,
      "cotton": 6806,
      "jour": 6807,
      "##aram": 6808,
      "guarantors": 6809,
      "471": 6810,
      "administr": 6811,
      "nin": 6812,
      "pas": 6813,
      "joining": 6814,
      "widow": 6815,
      "adversely": 6816,
      "starting": 6817,
      "kail": 6818,
      "##nu": 6819,
      "respond": 6820,
      "passport": 6821,
      "categorical": 6822,
      "chauhan": 6823,
      "logical": 6824,
      "fem": 6825,
      "ou": 6826,
      "composite": 6827,
      "##aps": 6828,
      "321": 6829,
      "ccs": 6830,
      "spon": 6831,
      "##abled": 6832,
      "sinha": 6833,
      "69c": 6834,
      "impart": 6835,
      "380": 6836,
      "controlling": 6837,
      "culled": 6838,
      "pecuniary": 6839,
      "collusion": 6840,
      "constrained": 6841,
      "gazette": 6842,
      "stret": 6843,
      "1964": 6844,
      "fiction": 6845,
      "financials": 6846,
      "protected": 6847,
      "restriction": 6848,
      "growth": 6849,
      "prolong": 6850,
      "chaudhary": 6851,
      "##61": 6852,
      "trying": 6853,
      "endors": 6854,
      "evidentiary": 6855,
      "humb": 6856,
      "##aching": 6857,
      "##ashed": 6858,
      "308": 6859,
      "methods": 6860,
      "ashish": 6861,
      "dilip": 6862,
      "gul": 6863,
      "corrected": 6864,
      "validly": 6865,
      "savings": 6866,
      "##hotra": 6867,
      "volume": 6868,
      "tractor": 6869,
      "gi": 6870,
      "prat": 6871,
      "clearing": 6872,
      "1971": 6873,
      "idbi": 6874,
      "cu": 6875,
      "tn": 6876,
      "ai": 6877,
      "entitle": 6878,
      "accusation": 6879,
      "comment": 6880,
      "chow": 6881,
      "learning": 6882,
      "pipeline": 6883,
      "malafide": 6884,
      "jindal": 6885,
      "mig": 6886,
      "abused": 6887,
      "##road": 6888,
      "hyper": 6889,
      "10aa": 6890,
      "physically": 6891,
      "humbly": 6892,
      "##gi": 6893,
      "##ological": 6894,
      "##zar": 6895,
      "notings": 6896,
      "challan": 6897,
      "percent": 6898,
      "solemn": 6899,
      "choose": 6900,
      "couple": 6901,
      "stipulates": 6902,
      "dredgers": 6903,
      "corpus": 6904,
      "##amus": 6905,
      "11a": 6906,
      "enforce": 6907,
      "platform": 6908,
      "##wah": 6909,
      "##asting": 6910,
      "juris": 6911,
      "ee": 6912,
      "165": 6913,
      "stocks": 6914,
      "advisory": 6915,
      "handwriting": 6916,
      "stretch": 6917,
      "appended": 6918,
      "ask": 6919,
      "itas": 6920,
      "sunita": 6921,
      "discretionary": 6922,
      "dump": 6923,
      "recommendation": 6924,
      "bye": 6925,
      "considers": 6926,
      "malik": 6927,
      "malhotra": 6928,
      "difficulty": 6929,
      "fortified": 6930,
      "demonetization": 6931,
      "facing": 6932,
      "alloc": 6933,
      "190": 6934,
      "mandamus": 6935,
      "syn": 6936,
      "asserted": 6937,
      "##68": 6938,
      "commencing": 6939,
      "##ains": 6940,
      "meter": 6941,
      "operandi": 6942,
      "prayers": 6943,
      "temple": 6944,
      "potential": 6945,
      "jha": 6946,
      "perf": 6947,
      "refusing": 6948,
      "bsnl": 6949,
      "imperative": 6950,
      "recons": 6951,
      "##abh": 6952,
      "carries": 6953,
      "supports": 6954,
      "sites": 6955,
      "##rolled": 6956,
      "hospitals": 6957,
      "303": 6958,
      "constable": 6959,
      "msme": 6960,
      "practices": 6961,
      "gt": 6962,
      "nurs": 6963,
      "##atri": 6964,
      "asia": 6965,
      "sty": 6966,
      "bhatia": 6967,
      "jh": 6968,
      "tally": 6969,
      "14th": 6970,
      "122": 6971,
      "lud": 6972,
      "mam": 6973,
      "##deep": 6974,
      "shak": 6975,
      "incomes": 6976,
      "adh": 6977,
      "merged": 6978,
      "##ildar": 6979,
      "modi": 6980,
      "reconsider": 6981,
      "owed": 6982,
      "bonds": 6983,
      "continuously": 6984,
      "kishore": 6985,
      "1872": 6986,
      "inclusion": 6987,
      "schem": 6988,
      "advocates": 6989,
      "##cape": 6990,
      "footing": 6991,
      "utilised": 6992,
      "consumed": 6993,
      "ks": 6994,
      "mc": 6995,
      "##no": 6996,
      "##oja": 6997,
      "377": 6998,
      "harmon": 6999,
      "viv": 7000,
      "laksh": 7001,
      "##jender": 7002,
      "shock": 7003,
      "jew": 7004,
      "##ayed": 7005,
      "##oked": 7006,
      "supplies": 7007,
      "terminate": 7008,
      "signatory": 7009,
      "election": 7010,
      "##63": 7011,
      "##ions": 7012,
      "benchmar": 7013,
      "408": 7014,
      "##bits": 7015,
      "critical": 7016,
      "speaks": 7017,
      "jodhpur": 7018,
      "nominal": 7019,
      "##enth": 7020,
      "viib": 7021,
      "1894": 7022,
      "retra": 7023,
      "thakur": 7024,
      "affiliates": 7025,
      "##dhar": 7026,
      "cargo": 7027,
      "ended": 7028,
      "synd": 7029,
      "arvind": 7030,
      "drt": 7031,
      "467": 7032,
      "mistak": 7033,
      "fly": 7034,
      "26th": 7035,
      "237": 7036,
      "bhatt": 7037,
      "cloth": 7038,
      "scrap": 7039,
      "metal": 7040,
      "procured": 7041,
      "tick": 7042,
      "##anes": 7043,
      "index": 7044,
      "275": 7045,
      "vk": 7046,
      "##ura": 7047,
      "door": 7048,
      "essar": 7049,
      "ncdrc": 7050,
      "dac": 7051,
      "wip": 7052,
      "detained": 7053,
      "implied": 7054,
      "##dar": 7055,
      "merger": 7056,
      "allottees": 7057,
      "litigant": 7058,
      "bif": 7059,
      "chose": 7060,
      "amr": 7061,
      "438": 7062,
      "uncont": 7063,
      "moment": 7064,
      "##oms": 7065,
      "shuk": 7066,
      "explanatory": 7067,
      "efficient": 7068,
      "advancement": 7069,
      "owp": 7070,
      "133a": 7071,
      "##pet": 7072,
      "khanna": 7073,
      "##illary": 7074,
      "kid": 7075,
      "pertained": 7076,
      "movement": 7077,
      "gm": 7078,
      "abroad": 7079,
      "usage": 7080,
      "negoti": 7081,
      "insu": 7082,
      "##hiana": 7083,
      "girish": 7084,
      "compute": 7085,
      "rw1": 7086,
      "discrepancy": 7087,
      "meanwhile": 7088,
      "elder": 7089,
      "lect": 7090,
      "##urers": 7091,
      "241": 7092,
      "medium": 7093,
      "inadequate": 7094,
      "approximately": 7095,
      "##table": 7096,
      "honor": 7097,
      "##abling": 7098,
      "renewal": 7099,
      "eg": 7100,
      "nether": 7101,
      "1100": 7102,
      "entirety": 7103,
      "gurnani": 7104,
      "216": 7105,
      "numerous": 7106,
      "promise": 7107,
      "##ansh": 7108,
      "acquire": 7109,
      "controvert": 7110,
      "kishan": 7111,
      "suspect": 7112,
      "##wara": 7113,
      "diver": 7114,
      "lodging": 7115,
      "silent": 7116,
      "restrictions": 7117,
      "kailash": 7118,
      "##dev": 7119,
      "rtgs": 7120,
      "##cket": 7121,
      "carbon": 7122,
      "gau": 7123,
      "##pires": 7124,
      "prash": 7125,
      "##osis": 7126,
      "usd": 7127,
      "nagpur": 7128,
      "duration": 7129,
      "flu": 7130,
      "273": 7131,
      "nullity": 7132,
      "ludhiana": 7133,
      "ud": 7134,
      "thin": 7135,
      "kend": 7136,
      "172": 7137,
      "361": 7138,
      "majeure": 7139,
      "gun": 7140,
      "size": 7141,
      "##jk": 7142,
      "##ley": 7143,
      "highways": 7144,
      "objectives": 7145,
      "attendance": 7146,
      "assailing": 7147,
      "##itely": 7148,
      "##loading": 7149,
      "jam": 7150,
      "amen": 7151,
      "identify": 7152,
      "friends": 7153,
      "bottles": 7154,
      "##stantial": 7155,
      "conjectures": 7156,
      "omitted": 7157,
      "pooja": 7158,
      "motu": 7159,
      "elaborately": 7160,
      "ger": 7161,
      "sudh": 7162,
      "reservation": 7163,
      "allowances": 7164,
      "little": 7165,
      "empowers": 7166,
      "##nath": 7167,
      "trite": 7168,
      "puri": 7169,
      "deductor": 7170,
      "264": 7171,
      "644": 7172,
      "displacement": 7173,
      "shant": 7174,
      "implead": 7175,
      "##coming": 7176,
      "shifts": 7177,
      "##za": 7178,
      "##order": 7179,
      "wea": 7180,
      "returning": 7181,
      "338": 7182,
      "encoura": 7183,
      "mus": 7184,
      "inside": 7185,
      "##lock": 7186,
      "procedures": 7187,
      "kendriya": 7188,
      "203": 7189,
      "commence": 7190,
      "auditors": 7191,
      "summarized": 7192,
      "##lated": 7193,
      "patently": 7194,
      "madan": 7195,
      "crystal": 7196,
      "jyoti": 7197,
      "veracity": 7198,
      "arrangements": 7199,
      "cognizable": 7200,
      "apprehension": 7201,
      "pawan": 7202,
      "guaranteed": 7203,
      "approve": 7204,
      "anyone": 7205,
      "viia": 7206,
      "informing": 7207,
      "diction": 7208,
      "kotak": 7209,
      "dropped": 7210,
      "##ua": 7211,
      "##itary": 7212,
      "impex": 7213,
      "647": 7214,
      "719": 7215,
      "affording": 7216,
      "reiterating": 7217,
      "##ham": 7218,
      "##eding": 7219,
      "trig": 7220,
      "impression": 7221,
      "kiran": 7222,
      "calculating": 7223,
      "escalation": 7224,
      "jit": 7225,
      "joshi": 7226,
      "##nr": 7227,
      "##olen": 7228,
      "underlying": 7229,
      "##laim": 7230,
      "pleas": 7231,
      "nagri": 7232,
      "rectify": 7233,
      "##anger": 7234,
      "##ibus": 7235,
      "dissolved": 7236,
      "retraction": 7237,
      "hp": 7238,
      "stolen": 7239,
      "cerc": 7240,
      "combined": 7241,
      "cup": 7242,
      "foc": 7243,
      "##ulate": 7244,
      "committing": 7245,
      "youn": 7246,
      "doss": 7247,
      "war": 7248,
      "extracts": 7249,
      "fatal": 7250,
      "enquired": 7251,
      "escape": 7252,
      "answers": 7253,
      "yog": 7254,
      "##las": 7255,
      "ispat": 7256,
      "unders": 7257,
      "quasi": 7258,
      "babu": 7259,
      "supervis": 7260,
      "succeeding": 7261,
      "sanjeev": 7262,
      "dictionary": 7263,
      "dossier": 7264,
      "##fs": 7265,
      "##uting": 7266,
      "heinous": 7267,
      "throughout": 7268,
      "creates": 7269,
      "od": 7270,
      "reimb": 7271,
      "enabling": 7272,
      "prime": 7273,
      "677": 7274,
      "##kot": 7275,
      "brokerage": 7276,
      "ancillary": 7277,
      "dv": 7278,
      "meantime": 7279,
      "sans": 7280,
      "shel": 7281,
      "garb": 7282,
      "corpn": 7283,
      "ninety": 7284,
      "##etty": 7285,
      "vipul": 7286,
      "fate": 7287,
      "distributor": 7288,
      "destro": 7289,
      "1982": 7290,
      "vigilance": 7291,
      "administrator": 7292,
      "##raft": 7293,
      "supplying": 7294,
      "workman": 7295,
      "brings": 7296,
      "previously": 7297,
      "exhaustive": 7298,
      "pop": 7299,
      "378": 7300,
      "branches": 7301,
      "teams": 7302,
      "tank": 7303,
      "suits": 7304,
      "store": 7305,
      "##ulam": 7306,
      "withholding": 7307,
      "definitely": 7308,
      "##inst": 7309,
      "##ushan": 7310,
      "severally": 7311,
      "warrants": 7312,
      "convinced": 7313,
      "##gen": 7314,
      "exter": 7315,
      "unequ": 7316,
      "256": 7317,
      "colly": 7318,
      "surety": 7319,
      "presume": 7320,
      "younger": 7321,
      "ye": 7322,
      "##ifies": 7323,
      "grace": 7324,
      "assembly": 7325,
      "dvo": 7326,
      "1977": 7327,
      "shukla": 7328,
      "4a": 7329,
      "249": 7330,
      "ion": 7331,
      "##care": 7332,
      "impl": 7333,
      "leased": 7334,
      "contradictory": 7335,
      "##44": 7336,
      "##85": 7337,
      "subjective": 7338,
      "conceded": 7339,
      "ci": 7340,
      "pil": 7341,
      "rr": 7342,
      "185": 7343,
      "encro": 7344,
      "emails": 7345,
      "travelling": 7346,
      "embar": 7347,
      "faas": 7348,
      "##avan": 7349,
      "395": 7350,
      "integral": 7351,
      "weapon": 7352,
      "##fr": 7353,
      "perversity": 7354,
      "chance": 7355,
      "arbt": 7356,
      "expend": 7357,
      "mechanically": 7358,
      "questionna": 7359,
      "moving": 7360,
      "misch": 7361,
      "features": 7362,
      "ending": 7363,
      "catena": 7364,
      "prohibited": 7365,
      "franch": 7366,
      "chh": 7367,
      "uses": 7368,
      "sitting": 7369,
      "alien": 7370,
      "prolonging": 7371,
      "insuff": 7372,
      "newly": 7373,
      "##paper": 7374,
      "cancelling": 7375,
      "strateg": 7376,
      "bullion": 7377,
      "afore": 7378,
      "##ulu": 7379,
      "##oke": 7380,
      "explo": 7381,
      "basically": 7382,
      "183": 7383,
      "verifying": 7384,
      "illness": 7385,
      "tested": 7386,
      "ea": 7387,
      "circumstantial": 7388,
      "sagar": 7389,
      "worthiness": 7390,
      "exactly": 7391,
      "prashant": 7392,
      "##chi": 7393,
      "##terior": 7394,
      "train": 7395,
      "judicature": 7396,
      "rebuttable": 7397,
      "prepare": 7398,
      "hazari": 7399,
      "cam": 7400,
      "manp": 7401,
      "patil": 7402,
      "psy": 7403,
      "inserting": 7404,
      "amenities": 7405,
      "##aur": 7406,
      "parking": 7407,
      "exported": 7408,
      "bidding": 7409,
      "covering": 7410,
      "sap": 7411,
      "earli": 7412,
      "afford": 7413,
      "schemes": 7414,
      "cere": 7415,
      "liv": 7416,
      "##edcl": 7417,
      "##let": 7418,
      "transpires": 7419,
      "162": 7420,
      "18th": 7421,
      "surender": 7422,
      "##onies": 7423,
      "##chand": 7424,
      "insufficient": 7425,
      "resolve": 7426,
      "habit": 7427,
      "promiss": 7428,
      "enterprise": 7429,
      "external": 7430,
      "hall": 7431,
      "appr": 7432,
      "153d": 7433,
      "investigate": 7434,
      "donations": 7435,
      "surrounding": 7436,
      "endorsed": 7437,
      "acmm": 7438,
      "scal": 7439,
      "earth": 7440,
      "royalties": 7441,
      "promissory": 7442,
      "erection": 7443,
      "##mate": 7444,
      "208": 7445,
      "replaced": 7446,
      "letting": 7447,
      "329": 7448,
      "commodity": 7449,
      "270a": 7450,
      "##ulter": 7451,
      "##itya": 7452,
      "##unci": 7453,
      "288": 7454,
      "felt": 7455,
      "np": 7456,
      "reform": 7457,
      "clos": 7458,
      "25th": 7459,
      "247": 7460,
      "336": 7461,
      "wil": 7462,
      "charity": 7463,
      "prevail": 7464,
      "surendra": 7465,
      "sex": 7466,
      "253": 7467,
      "nominee": 7468,
      "safeguards": 7469,
      "archit": 7470,
      "aar": 7471,
      "205": 7472,
      "abund": 7473,
      "repairs": 7474,
      "expand": 7475,
      "##meas": 7476,
      "##ibly": 7477,
      "js": 7478,
      "jt": 7479,
      "##eer": 7480,
      "##back": 7481,
      "resorted": 7482,
      "effecting": 7483,
      "trusts": 7484,
      "427": 7485,
      "undertakings": 7486,
      "##emption": 7487,
      "##65": 7488,
      "surpr": 7489,
      "enunci": 7490,
      "##izes": 7491,
      "raja": 7492,
      "options": 7493,
      "earliest": 7494,
      "protective": 7495,
      "girl": 7496,
      "syndicate": 7497,
      "samples": 7498,
      "##rad": 7499,
      "##prud": 7500,
      "spect": 7501,
      "##di": 7502,
      "rukka": 7503,
      "kill": 7504,
      "##yer": 7505,
      "conspir": 7506,
      "output": 7507,
      "268": 7508,
      "311": 7509,
      "360": 7510,
      "appointments": 7511,
      "omn": 7512,
      "jurisprud": 7513,
      "##ades": 7514,
      "guided": 7515,
      "regions": 7516,
      "usually": 7517,
      "kapoor": 7518,
      "try": 7519,
      "sine": 7520,
      "khand": 7521,
      "drug": 7522,
      "federation": 7523,
      "discovered": 7524,
      "##down": 7525,
      "resc": 7526,
      "submission": 7527,
      "center": 7528,
      "pleading": 7529,
      "ahuja": 7530,
      "sect": 7531,
      "pw5": 7532,
      "printed": 7533,
      "dtd": 7534,
      "gsa": 7535,
      "##jc": 7536,
      "impounded": 7537,
      "ravinder": 7538,
      "victims": 7539,
      "punished": 7540,
      "manufacturers": 7541,
      "sellers": 7542,
      "probability": 7543,
      "hiring": 7544,
      "cgst": 7545,
      "az": 7546,
      "##eving": 7547,
      "##brid": 7548,
      "alive": 7549,
      "facto": 7550,
      "relative": 7551,
      "enables": 7552,
      "plastic": 7553,
      "bagh": 7554,
      "gian": 7555,
      "hill": 7556,
      "29th": 7557,
      "judicata": 7558,
      "locations": 7559,
      "renders": 7560,
      "axis": 7561,
      "awa": 7562,
      "swar": 7563,
      "##xy": 7564,
      "##osition": 7565,
      "tehsildar": 7566,
      "resign": 7567,
      "219": 7568,
      "discernible": 7569,
      "##do": 7570,
      "409": 7571,
      "dishonest": 7572,
      "accrual": 7573,
      "vary": 7574,
      "##outed": 7575,
      "exig": 7576,
      "terminal": 7577,
      "retir": 7578,
      "silver": 7579,
      "science": 7580,
      "newspaper": 7581,
      "destroy": 7582,
      "tv": 7583,
      "admeas": 7584,
      "##gha": 7585,
      "717": 7586,
      "undersigned": 7587,
      "tan": 7588,
      "##ev": 7589,
      "##vedi": 7590,
      "restrain": 7591,
      "choudh": 7592,
      "confiscation": 7593,
      "dm": 7594,
      "236": 7595,
      "improper": 7596,
      "idea": 7597,
      "architect": 7598,
      "eigh": 7599,
      "sg": 7600,
      "unli": 7601,
      "1974": 7602,
      "redemption": 7603,
      "ensuring": 7604,
      "netherlands": 7605,
      "gard": 7606,
      "pte": 7607,
      "##fall": 7608,
      "sets": 7609,
      "instalments": 7610,
      "experts": 7611,
      "township": 7612,
      "admeasuring": 7613,
      "dass": 7614,
      "canv": 7615,
      "contradictions": 7616,
      "expeditiously": 7617,
      "ngt": 7618,
      "offers": 7619,
      "283": 7620,
      "conveyed": 7621,
      "disburse": 7622,
      "definite": 7623,
      "mi": 7624,
      "439": 7625,
      "praveen": 7626,
      "msedcl": 7627,
      "residents": 7628,
      "obst": 7629,
      "harm": 7630,
      "tyagi": 7631,
      "broken": 7632,
      "satisfactorily": 7633,
      "enunciated": 7634,
      "fid": 7635,
      "odish": 7636,
      "p2": 7637,
      "differential": 7638,
      "prosecuting": 7639,
      "repudiation": 7640,
      "odisha": 7641,
      "theory": 7642,
      "##ares": 7643,
      "seg": 7644,
      "recon": 7645,
      "168": 7646,
      "apb": 7647,
      "1959": 7648,
      "gandhi": 7649,
      "bv": 7650,
      "182": 7651,
      "thrown": 7652,
      "rationale": 7653,
      "sukh": 7654,
      "##ilation": 7655,
      "anita": 7656,
      "750": 7657,
      "seriously": 7658,
      "multi": 7659,
      "accruing": 7660,
      "enforcement": 7661,
      "diabet": 7662,
      "parity": 7663,
      "punjabi": 7664,
      "seat": 7665,
      "##lani": 7666,
      "##arte": 7667,
      "##marks": 7668,
      "trigger": 7669,
      "omnibus": 7670,
      "##rand": 7671,
      "schools": 7672,
      "psych": 7673,
      "a1": 7674,
      "jal": 7675,
      "##urity": 7676,
      "##lication": 7677,
      "mater": 7678,
      "##iah": 7679,
      "1952": 7680,
      "lk": 7681,
      "##leum": 7682,
      "compelling": 7683,
      "adher": 7684,
      "internet": 7685,
      "purchasers": 7686,
      "soni": 7687,
      "vacate": 7688,
      "hol": 7689,
      "forci": 7690,
      "worker": 7691,
      "##ateral": 7692,
      "houses": 7693,
      "lapsed": 7694,
      "jurisprudence": 7695,
      "yash": 7696,
      "wrongful": 7697,
      "fifth": 7698,
      "mortgaged": 7699,
      "ly": 7700,
      "pud": 7701,
      "##edi": 7702,
      "allo": 7703,
      "directory": 7704,
      "disprove": 7705,
      "custod": 7706,
      "sureties": 7707,
      "trip": 7708,
      "square": 7709,
      "heavily": 7710,
      "mlc": 7711,
      "cold": 7712,
      "bhushan": 7713,
      "miller": 7714,
      "occupied": 7715,
      "##hn": 7716,
      "##bat": 7717,
      "##ites": 7718,
      "periods": 7719,
      "premature": 7720,
      "precl": 7721,
      "clearances": 7722,
      "267": 7723,
      "bha": 7724,
      "deriv": 7725,
      "extrusion": 7726,
      "petroleum": 7727,
      "184": 7728,
      "401": 7729,
      "packaging": 7730,
      "##cb": 7731,
      "325": 7732,
      "##atories": 7733,
      "abhish": 7734,
      "##uddin": 7735,
      "##eshwar": 7736,
      "documentation": 7737,
      "earnest": 7738,
      "rath": 7739,
      "358": 7740,
      "misleading": 7741,
      "expenditure": 7742,
      "diabetes": 7743,
      "cch": 7744,
      "dies": 7745,
      "param": 7746,
      "parcel": 7747,
      "nay": 7748,
      "##92": 7749,
      "incurring": 7750,
      "reality": 7751,
      "logic": 7752,
      "yards": 7753,
      "##kes": 7754,
      "score": 7755,
      "clerk": 7756,
      "ham": 7757,
      "r1": 7758,
      "ats": 7759,
      "raises": 7760,
      "pattern": 7761,
      "harish": 7762,
      "moral": 7763,
      "bunch": 7764,
      "##imes": 7765,
      "stages": 7766,
      "analysed": 7767,
      "##ses": 7768,
      "white": 7769,
      "exparte": 7770,
      "353": 7771,
      "proposing": 7772,
      "offering": 7773,
      "checkmate": 7774,
      "questionnaire": 7775,
      "##akh": 7776,
      "rajiv": 7777,
      "starts": 7778,
      "winding": 7779,
      "##craft": 7780,
      "##erals": 7781,
      "miser": 7782,
      "realized": 7783,
      "concurrent": 7784,
      "##licate": 7785,
      "defaults": 7786,
      "kanpur": 7787,
      "##ivoc": 7788,
      "##otes": 7789,
      "defeat": 7790,
      "oppression": 7791,
      "logist": 7792,
      "captain": 7793,
      "kamal": 7794,
      "##lu": 7795,
      "##nda": 7796,
      "inception": 7797,
      "proponent": 7798,
      "maruti": 7799,
      "##load": 7800,
      "specially": 7801,
      "moto": 7802,
      "akin": 7803,
      "compelled": 7804,
      "nearly": 7805,
      "dumb": 7806,
      "kha": 7807,
      "##64": 7808,
      "##anshi": 7809,
      "formulated": 7810,
      "challenges": 7811,
      "375": 7812,
      "##ushed": 7813,
      "assertion": 7814,
      "obc": 7815,
      "honest": 7816,
      "insist": 7817,
      "213": 7818,
      "801": 7819,
      "safeguard": 7820,
      "ted": 7821,
      "13th": 7822,
      "healthcare": 7823,
      "dpc": 7824,
      "##ower": 7825,
      "265": 7826,
      "assam": 7827,
      "392": 7828,
      "seventy": 7829,
      "ht": 7830,
      "pret": 7831,
      "moder": 7832,
      "394": 7833,
      "agrees": 7834,
      "warehous": 7835,
      "unequivoc": 7836,
      "##dle": 7837,
      "##onal": 7838,
      "##arda": 7839,
      "301": 7840,
      "rub": 7841,
      "##oity": 7842,
      "##ku": 7843,
      "neigh": 7844,
      "181": 7845,
      "noticing": 7846,
      "package": 7847,
      "disturbed": 7848,
      "printing": 7849,
      "gap": 7850,
      "##ream": 7851,
      "justifying": 7852,
      "backed": 7853,
      "protest": 7854,
      "permitting": 7855,
      "lend": 7856,
      "street": 7857,
      "1958": 7858,
      "web": 7859,
      "##ultiv": 7860,
      "335": 7861,
      "##hari": 7862,
      "forums": 7863,
      "probation": 7864,
      "alta": 7865,
      "amer": 7866,
      "fold": 7867,
      "rpad": 7868,
      "contemplates": 7869,
      "kabul": 7870,
      "##under": 7871,
      "##ara": 7872,
      "tour": 7873,
      "laches": 7874,
      "micro": 7875,
      "arbtn": 7876,
      "canvass": 7877,
      "##til": 7878,
      "appe": 7879,
      "forced": 7880,
      "26as": 7881,
      "449": 7882,
      "ceased": 7883,
      "daughters": 7884,
      "lecturer": 7885,
      "19th": 7886,
      "delays": 7887,
      "approvals": 7888,
      "271d": 7889,
      "million": 7890,
      "##umbr": 7891,
      "258": 7892,
      "bhas": 7893,
      "stipulation": 7894,
      "wood": 7895,
      "##uc": 7896,
      "##ules": 7897,
      "23rd": 7898,
      "aircraft": 7899,
      "geeta": 7900,
      "rid": 7901,
      "alom": 7902,
      "litigants": 7903,
      "programme": 7904,
      "nursing": 7905,
      "700": 7906,
      "tu": 7907,
      "sethi": 7908,
      "257": 7909,
      "refr": 7910,
      "shifting": 7911,
      "dominant": 7912,
      "yard": 7913,
      "raju": 7914,
      "trace": 7915,
      "psa": 7916,
      "quote": 7917,
      "vishwas": 7918,
      "##oming": 7919,
      "##akshi": 7920,
      "466": 7921,
      "rites": 7922,
      "##oh": 7923,
      "finalized": 7924,
      "rohit": 7925,
      "formalities": 7926,
      "rpc": 7927,
      "sai": 7928,
      "toll": 7929,
      "364": 7930,
      "bonus": 7931,
      "emphasized": 7932,
      "broadc": 7933,
      "sometimes": 7934,
      "152": 7935,
      "max": 7936,
      "322": 7937,
      "##vened": 7938,
      "pin": 7939,
      "wes": 7940,
      "##eness": 7941,
      "##oul": 7942,
      "##lace": 7943,
      "correction": 7944,
      "german": 7945,
      "sury": 7946,
      "305": 7947,
      "349": 7948,
      "advertising": 7949,
      "##ued": 7950,
      "##ureau": 7951,
      "conspiracy": 7952,
      "logistics": 7953,
      "##eem": 7954,
      "guiding": 7955,
      "383": 7956,
      "allocated": 7957,
      "dacoity": 7958,
      "whis": 7959,
      "aditya": 7960,
      "17th": 7961,
      "272": 7962,
      "1967": 7963,
      "testimonies": 7964,
      "structures": 7965,
      "sot": 7966,
      "##ays": 7967,
      "417": 7968,
      "analog": 7969,
      "style": 7970,
      "cultiv": 7971,
      "launch": 7972,
      "bhan": 7973,
      "organisation": 7974,
      "godown": 7975,
      "kun": 7976,
      "fort": 7977,
      "arb": 7978,
      "##selves": 7979,
      "cheating": 7980,
      "absorbed": 7981,
      "rm": 7982,
      "##si": 7983,
      "reversal": 7984,
      "ongc": 7985,
      "departure": 7986,
      "patidar": 7987,
      "larg": 7988,
      "afforded": 7989,
      "abhishek": 7990,
      "sewa": 7991,
      "194c": 7992,
      "hindi": 7993,
      "ij": 7994,
      "##munic": 7995,
      "##vek": 7996,
      "shal": 7997,
      "therewith": 7998,
      "demat": 7999,
      "368": 8000,
      "295": 8001,
      "bureau": 8002,
      "reh": 8003,
      "interview": 8004,
      "transact": 8005,
      "##active": 8006,
      "24th": 8007,
      "occur": 8008,
      "easily": 8009,
      "##az": 8010,
      "accomm": 8011,
      "deliberations": 8012,
      "miserably": 8013,
      "287": 8014,
      "prescribe": 8015,
      "tools": 8016,
      "xiv": 8017,
      "##aa": 8018,
      "##dv": 8019,
      "224": 8020,
      "minerals": 8021,
      "trademarks": 8022,
      "gaurav": 8023,
      "ipsa": 8024,
      "army": 8025,
      "allows": 8026,
      "enforced": 8027,
      "partially": 8028,
      "estopp": 8029,
      "rh": 8030,
      "compilation": 8031,
      "16th": 8032,
      "levels": 8033,
      "##ampur": 8034,
      "1957": 8035,
      "pnb": 8036,
      "tir": 8037,
      "##aster": 8038,
      "accommod": 8039,
      "household": 8040,
      "cf": 8041,
      "parked": 8042,
      "maturity": 8043,
      "agenda": 8044,
      "labourers": 8045,
      "scrip": 8046,
      "tabulated": 8047,
      "pic": 8048,
      "##ze": 8049,
      "##ously": 8050,
      "salaries": 8051,
      "countries": 8052,
      "session": 8053,
      "342": 8054,
      "cumulative": 8055,
      "telecommunic": 8056,
      "han": 8057,
      "hur": 8058,
      "p3": 8059,
      "##mer": 8060,
      "##fp": 8061,
      "##enger": 8062,
      "alto": 8063,
      "##ola": 8064,
      "vivek": 8065,
      "indulged": 8066,
      "altaf": 8067,
      "##read": 8068,
      "meena": 8069,
      "risks": 8070,
      "udy": 8071,
      "##where": 8072,
      "##aly": 8073,
      "##ots": 8074,
      "estates": 8075,
      "deputation": 8076,
      "contradiction": 8077,
      "convertible": 8078,
      "##ashi": 8079,
      "apportion": 8080,
      "proxim": 8081,
      "upd": 8082,
      "moef": 8083,
      "layout": 8084,
      "overriding": 8085,
      "srinivasulu": 8086,
      "sachin": 8087,
      "krishan": 8088,
      "override": 8089,
      "middle": 8090,
      "d1": 8091,
      "pick": 8092,
      "sens": 8093,
      "##omy": 8094,
      "##ravity": 8095,
      "246": 8096,
      "trees": 8097,
      "289": 8098,
      "privile": 8099,
      "warranting": 8100,
      "checked": 8101,
      "eastern": 8102,
      "xvii": 8103,
      "eighty": 8104,
      "dlt": 8105,
      "tower": 8106,
      "arth": 8107,
      "prescription": 8108,
      "ourselves": 8109,
      "benchmarking": 8110,
      "albe": 8111,
      "##iably": 8112,
      "regularisation": 8113,
      "practical": 8114,
      "connectivity": 8115,
      "pratap": 8116,
      "lakshmi": 8117,
      "bb": 8118,
      "jute": 8119,
      "courses": 8120,
      "stone": 8121,
      "unc": 8122,
      "##avour": 8123,
      "259": 8124,
      "defaulted": 8125,
      "likelihood": 8126,
      "compounding": 8127,
      "##mb": 8128,
      "##lin": 8129,
      "##ilt": 8130,
      "##eti": 8131,
      "goog": 8132,
      "1948": 8133,
      "ignor": 8134,
      "120b": 8135,
      "dharm": 8136,
      "slip": 8137,
      "lis": 8138,
      "##rum": 8139,
      "specifies": 8140,
      "21st": 8141,
      "albeit": 8142,
      "bach": 8143,
      "suraj": 8144,
      "332": 8145,
      "bazar": 8146,
      "vidya": 8147,
      "survive": 8148,
      "shape": 8149,
      "gif": 8150,
      "##adur": 8151,
      "licenses": 8152,
      "networ": 8153,
      "controverted": 8154,
      "narrow": 8155,
      "387": 8156,
      "hybrid": 8157,
      "belatedly": 8158,
      "pipes": 8159,
      "wedlock": 8160,
      "perfect": 8161,
      "mischief": 8162,
      "dashed": 8163,
      "nish": 8164,
      "tub": 8165,
      "indo": 8166,
      "depositors": 8167,
      "bhagwan": 8168,
      "forfeiture": 8169,
      "aad": 8170,
      "gam": 8171,
      "##elming": 8172,
      "append": 8173,
      "pays": 8174,
      "poc": 8175,
      "##inda": 8176,
      "##ucherry": 8177,
      "44ab": 8178,
      "weightage": 8179,
      "bhagat": 8180,
      "thoroughly": 8181,
      "cnr": 8182,
      "##pora": 8183,
      "textile": 8184,
      "angle": 8185,
      "altogether": 8186,
      "bio": 8187,
      "rain": 8188,
      "##ec": 8189,
      "gram": 8190,
      "usha": 8191,
      "diaries": 8192,
      "overruled": 8193,
      "269ss": 8194,
      "chatur": 8195,
      "task": 8196,
      "manpower": 8197,
      "exit": 8198,
      "depravity": 8199,
      "enabled": 8200,
      "##roved": 8201,
      "john": 8202,
      "instructed": 8203,
      "withdrawals": 8204,
      "happens": 8205,
      "neighb": 8206,
      "lh": 8207,
      "attack": 8208,
      "utter": 8209,
      "khat": 8210,
      "##mes": 8211,
      "sports": 8212,
      "326": 8213,
      "441": 8214,
      "integrated": 8215,
      "hired": 8216,
      "pod": 8217,
      "resultantly": 8218,
      "koth": 8219,
      "seventh": 8220,
      "assigning": 8221,
      "inadvertently": 8222,
      "tort": 8223,
      "chet": 8224,
      "thereupon": 8225,
      "butt": 8226,
      "1969": 8227,
      "precise": 8228,
      "jitendra": 8229,
      "franchise": 8230,
      "bp": 8231,
      "revival": 8232,
      "overwh": 8233,
      "dress": 8234,
      "sketch": 8235,
      "overwhelming": 8236,
      "##utral": 8237,
      "uncer": 8238,
      "pw10": 8239,
      "fasten": 8240,
      "homes": 8241,
      "##bz": 8242,
      "absurd": 8243,
      "forfeited": 8244,
      "unfortunately": 8245,
      "puducherry": 8246,
      "big": 8247,
      "##ering": 8248,
      "novo": 8249,
      "neutral": 8250,
      "satisfying": 8251,
      "google": 8252,
      "##ciary": 8253,
      "amounted": 8254,
      "scan": 8255,
      "interesting": 8256,
      "quarrel": 8257,
      "gds": 8258,
      "attending": 8259,
      "avoided": 8260,
      "reflecting": 8261,
      "dcf": 8262,
      "scales": 8263,
      "routed": 8264,
      "depict": 8265,
      "tehsil": 8266,
      "ky": 8267,
      "##uda": 8268,
      "regime": 8269,
      "229": 8270,
      "ascertaining": 8271,
      "gel": 8272,
      "king": 8273,
      "##inqu": 8274,
      "exporter": 8275,
      "generators": 8276,
      "22nd": 8277,
      "confirmations": 8278,
      "encumbr": 8279,
      "vishal": 8280,
      "nan": 8281,
      "##ils": 8282,
      "postm": 8283,
      "448": 8284,
      "234a": 8285,
      "ende": 8286,
      "##ratech": 8287,
      "udyog": 8288,
      "##iaa": 8289,
      "designed": 8290,
      "balances": 8291,
      "##ksa": 8292,
      "##ographical": 8293,
      "tamper": 8294,
      "restrained": 8295,
      "fertil": 8296,
      "mass": 8297,
      "mact": 8298,
      "##anta": 8299,
      "##erved": 8300,
      "restricting": 8301,
      "lump": 8302,
      "livelihood": 8303,
      "cos": 8304,
      "evasion": 8305,
      "##puri": 8306,
      "river": 8307,
      "cars": 8308,
      "conditional": 8309,
      "4200": 8310,
      "installment": 8311,
      "##oud": 8312,
      "classifiable": 8313,
      "saini": 8314,
      "adhoc": 8315,
      "vivad": 8316,
      "##iet": 8317,
      "##lam": 8318,
      "inpat": 8319,
      "##arti": 8320,
      "prompt": 8321,
      "##shr": 8322,
      "outsour": 8323,
      "##asive": 8324,
      "sunder": 8325,
      "tea": 8326,
      "becoming": 8327,
      "410": 8328,
      "alteration": 8329,
      "encourage": 8330,
      "reforms": 8331,
      "uda": 8332,
      "1949": 8333,
      "metro": 8334,
      "vikram": 8335,
      "unauthorised": 8336,
      "route": 8337,
      "sushil": 8338,
      "disbursement": 8339,
      "inpatient": 8340,
      "shr": 8341,
      "indis": 8342,
      "##iac": 8343,
      "portions": 8344,
      "ultra": 8345,
      "dum": 8346,
      "rb": 8347,
      "tor": 8348,
      "##we": 8349,
      "##62": 8350,
      "guwah": 8351,
      "additionally": 8352,
      "391": 8353,
      "koh": 8354,
      "automob": 8355,
      "pretext": 8356,
      "uncertain": 8357,
      "ku": 8358,
      "##cated": 8359,
      "##wt": 8360,
      "ongoing": 8361,
      "abide": 8362,
      "retire": 8363,
      "csr": 8364,
      "enshr": 8365,
      "ships": 8366,
      "drop": 8367,
      "mud": 8368,
      "undertakes": 8369,
      "gravity": 8370,
      "diagnosed": 8371,
      "dispensed": 8372,
      "fidu": 8373,
      "guwahati": 8374,
      "sort": 8375,
      "passage": 8376,
      "242": 8377,
      "paperbook": 8378,
      "amicable": 8379,
      "governor": 8380,
      "rigor": 8381,
      "mant": 8382,
      "##orse": 8383,
      "anywhere": 8384,
      "propose": 8385,
      "sexual": 8386,
      "fiduciary": 8387,
      "cv": 8388,
      "mca": 8389,
      "displ": 8390,
      "awards": 8391,
      "80ic": 8392,
      "brid": 8393,
      "saroj": 8394,
      "medicines": 8395,
      "kb": 8396,
      "ol": 8397,
      "pv": 8398,
      "arjun": 8399,
      "coch": 8400,
      "citation": 8401,
      "dissent": 8402,
      "indulging": 8403,
      "ara": 8404,
      "lose": 8405,
      "tio": 8406,
      "##waj": 8407,
      "##kan": 8408,
      "##key": 8409,
      "realt": 8410,
      "wat": 8411,
      "nitin": 8412,
      "western": 8413,
      "##pg": 8414,
      "##udes": 8415,
      "implies": 8416,
      "278": 8417,
      "280": 8418,
      "slr": 8419,
      "ok": 8420,
      "sv": 8421,
      "294": 8422,
      "386": 8423,
      "utt": 8424,
      "69b": 8425,
      "td": 8426,
      "asian": 8427,
      "arm": 8428,
      "membership": 8429,
      "investigated": 8430,
      "appln": 8431,
      "jp": 8432,
      "gok": 8433,
      "someone": 8434,
      "engage": 8435,
      "solitary": 8436,
      "preparing": 8437,
      "incentives": 8438,
      "analyzed": 8439,
      "contd": 8440,
      "pirya": 8441,
      "forcibly": 8442,
      "ones": 8443,
      "citations": 8444,
      "specifying": 8445,
      "rooms": 8446,
      "restraining": 8447,
      "culminated": 8448,
      "atul": 8449,
      "mutuality": 8450,
      "brib": 8451,
      "sight": 8452,
      "##lines": 8453,
      "dear": 8454,
      "doc": 8455,
      "362": 8456,
      "437": 8457,
      "resultant": 8458,
      "engg": 8459,
      "marginal": 8460,
      "jabalpur": 8461,
      "eoi": 8462,
      "##alla": 8463,
      "348": 8464,
      "certainty": 8465,
      "##ock": 8466,
      "buying": 8467,
      "steam": 8468,
      "infact": 8469,
      "raghuv": 8470,
      "ari": 8471,
      "vati": 8472,
      "##cal": 8473,
      "##wati": 8474,
      "26q": 8475,
      "rajkot": 8476,
      "interpret": 8477,
      "laboratory": 8478,
      "journal": 8479,
      "resignation": 8480,
      "realtors": 8481,
      "wider": 8482,
      "wak": 8483,
      "##hol": 8484,
      "suble": 8485,
      "##uri": 8486,
      "spa": 8487,
      "srs": 8488,
      "cpp": 8489,
      "anti": 8490,
      "intra": 8491,
      "northern": 8492,
      "apartments": 8493,
      "wholes": 8494,
      "aimil": 8495,
      "enjoyment": 8496,
      "warehouse": 8497,
      "milk": 8498,
      "unlike": 8499,
      "naveen": 8500,
      "##haps": 8501,
      "##ml": 8502,
      "perhaps": 8503,
      "insisted": 8504,
      "##ists": 8505,
      "demar": 8506,
      "communicate": 8507,
      "quoting": 8508,
      "arguing": 8509,
      "299": 8510,
      "peak": 8511,
      "lalit": 8512,
      "bike": 8513,
      "taluk": 8514,
      "durga": 8515,
      "sik": 8516,
      "crm": 8517,
      "weak": 8518,
      "virtually": 8519,
      "acre": 8520,
      "##alli": 8521,
      "reputation": 8522,
      "furniture": 8523,
      "violating": 8524,
      "resorting": 8525,
      "appealed": 8526,
      "235": 8527,
      "drivers": 8528,
      "container": 8529,
      "accrues": 8530,
      "ample": 8531,
      "khar": 8532,
      "uma": 8533,
      "shre": 8534,
      "mines": 8535,
      "subscribe": 8536,
      "sainik": 8537,
      "clinical": 8538,
      "gc": 8539,
      "421": 8540,
      "harid": 8541,
      "script": 8542,
      "abundantly": 8543,
      "garden": 8544,
      "desh": 8545,
      "fash": 8546,
      "delin": 8547,
      "approx": 8548,
      "399": 8549,
      "designation": 8550,
      "split": 8551,
      "zonal": 8552,
      "##ws": 8553,
      "##gged": 8554,
      "##67": 8555,
      "prospects": 8556,
      "riding": 8557,
      "affecting": 8558,
      "boilers": 8559,
      "kohli": 8560,
      "vatika": 8561,
      "##inath": 8562,
      "relinqu": 8563,
      "eva": 8564,
      "wrote": 8565,
      "candidature": 8566,
      "rebutting": 8567,
      "introducing": 8568,
      "bigh": 8569,
      "sse": 8570,
      "##elve": 8571,
      "notar": 8572,
      "##ada": 8573,
      "290": 8574,
      "compensate": 8575,
      "accidental": 8576,
      "litl": 8577,
      "lad": 8578,
      "quota": 8579,
      "surge": 8580,
      "ntpc": 8581,
      "hostile": 8582,
      "closely": 8583,
      "gali": 8584,
      "unil": 8585,
      "accountants": 8586,
      "decline": 8587,
      "contributed": 8588,
      "540": 8589,
      "##99": 8590,
      "##wat": 8591,
      "##erson": 8592,
      "operates": 8593,
      "twelve": 8594,
      "cease": 8595,
      "ignore": 8596,
      "elaborated": 8597,
      "fluct": 8598,
      "entail": 8599,
      "privacy": 8600,
      "huss": 8601,
      "adverted": 8602,
      "##ritis": 8603,
      "agitated": 8604,
      "fitness": 8605,
      "##rations": 8606,
      "##riety": 8607,
      "1968": 8608,
      "508": 8609,
      "quantified": 8610,
      "pond": 8611,
      "passenger": 8612,
      "evid": 8613,
      "efficiency": 8614,
      "placement": 8615,
      "equated": 8616,
      "waiting": 8617,
      "recalled": 8618,
      "bd": 8619,
      "edition": 8620,
      "##aterial": 8621,
      "##ppl": 8622,
      "prospectively": 8623,
      "enquire": 8624,
      "nominated": 8625,
      "arthritis": 8626,
      "kothari": 8627,
      "##lesh": 8628,
      "citing": 8629,
      "pregn": 8630,
      "handover": 8631,
      "365": 8632,
      "phil": 8633,
      "studies": 8634,
      "pensionary": 8635,
      "runs": 8636,
      "fdr": 8637,
      "coroll": 8638,
      "cpios": 8639,
      "merchant": 8640,
      "modern": 8641,
      "estoppel": 8642,
      "convers": 8643,
      "##cept": 8644,
      "refuse": 8645,
      "ahead": 8646,
      "##ster": 8647,
      "##abri": 8648,
      "##itsar": 8649,
      "298": 8650,
      "communica": 8651,
      "retention": 8652,
      "fraudulently": 8653,
      "immaterial": 8654,
      "supervisory": 8655,
      "nu": 8656,
      "mineral": 8657,
      "##elsat": 8658,
      "consistency": 8659,
      "concur": 8660,
      "unrelated": 8661,
      "amply": 8662,
      "choudhary": 8663,
      "camp": 8664,
      "alco": 8665,
      "enh": 8666,
      "movable": 8667,
      "46a": 8668,
      "cooperate": 8669,
      "pngr": 8670,
      "fides": 8671,
      "mess": 8672,
      "##oz": 8673,
      "throw": 8674,
      "##anshu": 8675,
      "225": 8676,
      "subscribed": 8677,
      "mahila": 8678,
      "dehrad": 8679,
      "enhance": 8680,
      "kesh": 8681,
      "realty": 8682,
      "##fering": 8683,
      "##khil": 8684,
      "407": 8685,
      "346": 8686,
      "nirmal": 8687,
      "##ounder": 8688,
      "sumit": 8689,
      "loading": 8690,
      "252": 8691,
      "confident": 8692,
      "218": 8693,
      "315": 8694,
      "396": 8695,
      "moham": 8696,
      "madhu": 8697,
      "dehradun": 8698,
      "##tr": 8699,
      "##rah": 8700,
      "totaling": 8701,
      "differently": 8702,
      "excel": 8703,
      "sixth": 8704,
      "hypothet": 8705,
      "impleadment": 8706,
      "hussain": 8707,
      "tend": 8708,
      "##sor": 8709,
      "boy": 8710,
      "interfering": 8711,
      "805": 8712,
      "746": 8713,
      "achieving": 8714,
      "thinks": 8715,
      "udaipur": 8716,
      "unilateral": 8717,
      "r2": 8718,
      "rop": 8719,
      "feas": 8720,
      "132a": 8721,
      "amritsar": 8722,
      "delinquent": 8723,
      "male": 8724,
      "1970": 8725,
      "450": 8726,
      "practition": 8727,
      "batra": 8728,
      "pngrb": 8729,
      "mys": 8730,
      "##iors": 8731,
      "##kd": 8732,
      "##ows": 8733,
      "##licable": 8734,
      "crew": 8735,
      "blue": 8736,
      "comprised": 8737,
      "##orters": 8738,
      "##pee": 8739,
      "buildcon": 8740,
      "wishes": 8741,
      "hsbc": 8742,
      "corollary": 8743,
      "tha": 8744,
      "inspected": 8745,
      "reaching": 8746,
      "purportedly": 8747,
      "pers": 8748,
      "nep": 8749,
      "aop": 8750,
      "281": 8751,
      "405": 8752,
      "1954": 8753,
      "thirdly": 8754,
      "krishn": 8755,
      "##lr": 8756,
      "asha": 8757,
      "feels": 8758,
      "audio": 8759,
      "van": 8760,
      "##encing": 8761,
      "nobody": 8762,
      "guide": 8763,
      "infotech": 8764,
      "1922": 8765,
      "chowk": 8766,
      "mst": 8767,
      "##match": 8768,
      "cave": 8769,
      "171": 8770,
      "presumpt": 8771,
      "discon": 8772,
      "fc": 8773,
      "hma": 8774,
      "##ook": 8775,
      "##esis": 8776,
      "intelsat": 8777,
      "distt": 8778,
      "approaching": 8779,
      "negotiated": 8780,
      "bahadur": 8781,
      "solemnized": 8782,
      "bse": 8783,
      "ek": 8784,
      "sro": 8785,
      "appra": 8786,
      "decides": 8787,
      "uncle": 8788,
      "grams": 8789,
      "318": 8790,
      "ccr": 8791,
      "extrusions": 8792,
      "kil": 8793,
      "##met": 8794,
      "timelines": 8795,
      "sheikh": 8796,
      "purport": 8797,
      "328": 8798,
      "roads": 8799,
      "531": 8800,
      "silk": 8801,
      "contacted": 8802,
      "analyzing": 8803,
      "ajit": 8804,
      "##uma": 8805,
      "##andis": 8806,
      "unqu": 8807,
      "rests": 8808,
      "medicine": 8809,
      "strike": 8810,
      "imparting": 8811,
      "uber": 8812,
      "##gar": 8813,
      "presiding": 8814,
      "##rupted": 8815,
      "investing": 8816,
      "conclusively": 8817,
      "##eha": 8818,
      "encroach": 8819,
      "canvassed": 8820,
      "rom": 8821,
      "##itur": 8822,
      "anj": 8823,
      "meer": 8824,
      "desai": 8825,
      "293": 8826,
      "##ront": 8827,
      "793": 8828,
      "registering": 8829,
      "played": 8830,
      "mixed": 8831,
      "speculative": 8832,
      "2ab": 8833,
      "##ico": 8834,
      "forens": 8835,
      "denies": 8836,
      "419": 8837,
      "urgent": 8838,
      "naturally": 8839,
      "juven": 8840,
      "expeditious": 8841,
      "eur": 8842,
      "wi": 8843,
      "meag": 8844,
      "declining": 8845,
      "succession": 8846,
      "manifestly": 8847,
      "laboratories": 8848,
      "gay": 8849,
      "##ech": 8850,
      "modes": 8851,
      "493": 8852,
      "cards": 8853,
      "baby": 8854,
      "##nor": 8855,
      "##cot": 8856,
      "importer": 8857,
      "##valent": 8858,
      "forensic": 8859,
      "inder": 8860,
      "##mat": 8861,
      "##tan": 8862,
      "##arpur": 8863,
      "rever": 8864,
      "investigator": 8865,
      "prag": 8866,
      "dayal": 8867,
      "warehousing": 8868,
      "##fted": 8869,
      "reinst": 8870,
      "forgery": 8871,
      "prevalent": 8872,
      "359": 8873,
      "548": 8874,
      "bidders": 8875,
      "karan": 8876,
      "alloys": 8877,
      "rigorous": 8878,
      "fle": 8879,
      "hect": 8880,
      "alld": 8881,
      "##umin": 8882,
      "transl": 8883,
      "solicit": 8884,
      "adjourn": 8885,
      "##aduate": 8886,
      "instalment": 8887,
      "mistakes": 8888,
      "bish": 8889,
      "11ac": 8890,
      "hero": 8891,
      "228": 8892,
      "propounded": 8893,
      "dtr": 8894,
      "occupants": 8895,
      "chaturvedi": 8896,
      "bone": 8897,
      "##ump": 8898,
      "##eto": 8899,
      "confusion": 8900,
      "birla": 8901,
      "umesh": 8902,
      "tnmm": 8903,
      "tree": 8904,
      "acj": 8905,
      "meen": 8906,
      "interro": 8907,
      "pw6": 8908,
      "282": 8909,
      "hypothetical": 8910,
      "gms": 8911,
      "##mv": 8912,
      "##fi": 8913,
      "##veen": 8914,
      "lapt": 8915,
      "intends": 8916,
      "unserved": 8917,
      "raghuvanshi": 8918,
      "isol": 8919,
      "seci": 8920,
      "marlas": 8921,
      "clubbed": 8922,
      "hypothe": 8923,
      "laptop": 8924,
      "sla": 8925,
      "complained": 8926,
      "##izers": 8927,
      "rama": 8928,
      "384": 8929,
      "realm": 8930,
      "utmost": 8931,
      "borrowings": 8932,
      "alias": 8933,
      "matching": 8934,
      "voted": 8935,
      "mehra": 8936,
      "shortage": 8937,
      "eventually": 8938,
      "1881": 8939,
      "constrain": 8940,
      "siddhar": 8941,
      "poss": 8942,
      "##rated": 8943,
      "karn": 8944,
      "mg": 8945,
      "rot": 8946,
      "apposite": 8947,
      "##athy": 8948,
      "recruited": 8949,
      "picture": 8950,
      "ignorance": 8951,
      "bribe": 8952,
      "kav": 8953,
      "pd": 8954,
      "pit": 8955,
      "##vely": 8956,
      "inapp": 8957,
      "chances": 8958,
      "meters": 8959,
      "mutandis": 8960,
      "universal": 8961,
      "lr": 8962,
      "##vision": 8963,
      "annul": 8964,
      "advancing": 8965,
      "occasioned": 8966,
      "upsc": 8967,
      "focus": 8968,
      "dry": 8969,
      "hq": 8970,
      "constant": 8971,
      "dup": 8972,
      "##adha": 8973,
      "amrit": 8974,
      "spread": 8975,
      "surat": 8976,
      "brit": 8977,
      "rented": 8978,
      "stamped": 8979,
      "negotiations": 8980,
      "jog": 8981,
      "##cive": 8982,
      "191": 8983,
      "obl": 8984,
      "##cles": 8985,
      "presenting": 8986,
      "circu": 8987,
      "385": 8988,
      "infratech": 8989,
      "cbind": 8990,
      "administer": 8991,
      "crystall": 8992,
      "vy": 8993,
      "##71": 8994,
      "parting": 8995,
      "403": 8996,
      "fdk": 8997,
      "thakkar": 8998,
      "uncontrolled": 8999,
      "wilful": 9000,
      "enshrined": 9001,
      "evacu": 9002,
      "gy": 9003,
      "##amy": 9004,
      "evaded": 9005,
      "546": 9006,
      "removing": 9007,
      "merchants": 9008,
      "kus": 9009,
      "##hir": 9010,
      "amending": 9011,
      "345": 9012,
      "exchanged": 9013,
      "estimating": 9014,
      "agreeing": 9015,
      "films": 9016,
      "rawat": 9017,
      "weighted": 9018,
      "maheshwari": 9019,
      "pio": 9020,
      "##atis": 9021,
      "vires": 9022,
      "affects": 9023,
      "mouth": 9024,
      "retiral": 9025,
      "nal": 9026,
      "##amal": 9027,
      "suman": 9028,
      "embargo": 9029,
      "wta": 9030,
      "##ray": 9031,
      "perpet": 9032,
      "stra": 9033,
      "trf": 9034,
      "revoked": 9035,
      "343": 9036,
      "##max": 9037,
      "values": 9038,
      "craft": 9039,
      "knew": 9040,
      "398": 9041,
      "ncte": 9042,
      "spectrum": 9043,
      "kas": 9044,
      "slow": 9045,
      "stores": 9046,
      "capitalized": 9047,
      "bala": 9048,
      "broadcasting": 9049,
      "kbe": 9050,
      "oe": 9051,
      "##ided": 9052,
      "estt": 9053,
      "totagar": 9054,
      "vision": 9055,
      "frust": 9056,
      "vire": 9057,
      "infos": 9058,
      "textiles": 9059,
      "disregarding": 9060,
      "bath": 9061,
      "coaching": 9062,
      "271e": 9063,
      "probate": 9064,
      "wakf": 9065,
      "aust": 9066,
      "rough": 9067,
      "##96": 9068,
      "charan": 9069,
      "##kari": 9070,
      "surya": 9071,
      "examinations": 9072,
      "rulings": 9073,
      "surg": 9074,
      "crimes": 9075,
      "rajeev": 9076,
      "evidently": 9077,
      "locality": 9078,
      "gazetted": 9079,
      "mine": 9080,
      "underw": 9081,
      "carriage": 9082,
      "demised": 9083,
      "bhup": 9084,
      "career": 9085,
      "590": 9086,
      "consulting": 9087,
      "jaiswal": 9088,
      "ulterior": 9089,
      "confidential": 9090,
      "##etu": 9091,
      "##alled": 9092,
      "automatic": 9093,
      "dictum": 9094,
      "498a": 9095,
      "sublet": 9096,
      "kbepl": 9097,
      "dak": 9098,
      "##pired": 9099,
      "orna": 9100,
      "span": 9101,
      "312": 9102,
      "whatsa": 9103,
      "feature": 9104,
      "##oop": 9105,
      "363": 9106,
      "351": 9107,
      "concurred": 9108,
      "whisper": 9109,
      "largely": 9110,
      "wholesale": 9111,
      "inapplicable": 9112,
      "whatsapp": 9113,
      "ber": 9114,
      "##ls": 9115,
      "##66": 9116,
      "inqu": 9117,
      "dee": 9118,
      "##aben": 9119,
      "reconsideration": 9120,
      "dummy": 9121,
      "##umk": 9122,
      "guideline": 9123,
      "altered": 9124,
      "kinds": 9125,
      "dishonored": 9126,
      "nearby": 9127,
      "dissolution": 9128,
      "diagnosis": 9129,
      "cct": 9130,
      "##kins": 9131,
      "##gars": 9132,
      "questioning": 9133,
      "rob": 9134,
      "punitive": 9135,
      "##ccb": 9136,
      "fiscal": 9137,
      "nr": 9138,
      "##73": 9139,
      "##bur": 9140,
      "##brand": 9141,
      "##uman": 9142,
      "highway": 9143,
      "carved": 9144,
      "feed": 9145,
      "355": 9146,
      "488": 9147,
      "occurring": 9148,
      "mutatis": 9149,
      "unique": 9150,
      "gty": 9151,
      "milit": 9152,
      "1960": 9153,
      "affirming": 9154,
      "mails": 9155,
      "remark": 9156,
      "fulfilment": 9157,
      "geluv": 9158,
      "promoting": 9159,
      "summarily": 9160,
      "persuaded": 9161,
      "dair": 9162,
      "##bar": 9163,
      "repeal": 9164,
      "impedi": 9165,
      "bankers": 9166,
      "mandi": 9167,
      "enactments": 9168,
      "babita": 9169,
      "exploitation": 9170,
      "alcohol": 9171,
      "mall": 9172,
[...]
