[PAD]
[UNK]
[CLS]
[SEP]
[MASK]
(
)
,
-
.
/
0
1
2
3
4
5
6
7
8
9
?
a
b
c
d
e
f
g
h
i
j
k
l
m
n
o
p
q
r
s
t
u
v
w
x
y
z
##s
##h
##q
##u
##e
##i
##n
##c
##1
##a
##m
##t
##o
##l
##f
##4
##5
##9
##3
##8
##2
##0
##7
##v
##w
##r
##p
##d
##y
##b
##k
##g
##z
##x
##6
##j
th
the
##er
##on
of
##ed
##at
##in
##nd
in
##en
##ion
##or
##it
##as
##es
##an
##ar
##al
to
##ing
##ct
##ou
##is
and
##ic
no
##om
##ent
is
be
##re
re
that
##pp
pr
##el
on
##le
app
by
##id
as
or
for
it
su
wh
##ant
not
##th
##ur
##il
##ation
com
pro
con
se
20
##st
##ce
##ction
##ad
was
an
has
##ly
de
##ch
cou
##ve
##ain
al
##ment
##ut
##ith
##ri
sh
##ow
comp
##ol
with
##se
##im
##ay
##ate
##ter
##nder
##der
##et
cas
##ir
##am
##ear
under
##ig
##ated
res
201
ex
order
cour
ac
##ther
per
act
##ble
##ell
st
fr
section
##us
##nt
court
case
ha
##ich
##ition
which
##ted
fa
from
inc
##ere
this
##ul
ad
##ud
##ver
##for
acc
##os
ta
##ge
##ned
##pon
been
par
at
##la
appell
are
any
ch
##aid
sub
##lic
appellant
##ice
##est
##ome
##ci
##od
##ount
##qu
have
##mp
##su
##eal
prov
##ity
##ra
la
##ect
dis
appeal
##ord
##mit
##ld
part
##all
respon
applic
##so
##dent
dated
##igh
##ies
##ision
he
income
##lain
off
##un
##ard
ar
##iled
ag
##iv
respondent
##ess
##rou
##ade
pet
also
##if
##ot
petition
fact
co
cont
##erv
there
am
##ame
##ance
cons
##able
rec
ab
all
##um
tr
tax
##ers
such
do
##ied
ld
##ust
issu
19
had
cla
made
fin
can
##gh
##ort
cr
ind
year
##and
##per
##mitted
cit
compan
we
##ider
##ould
other
lt
##ure
##age
vi
comm
##fore
fur
his
before
##ial
##ire
##ide
filed
reg
##ew
tri
consider
ltd
were
##end
complain
mat
af
said
rs
202
##sel
del
ob
rep
lear
##ass
learned
##ia
##ans
vs
##used
##sion
pay
pres
14
hon
dec
company
##ments
same
imp
record
le
##ak
rel
au
##pe
##pt
law
me
un
jud
further
qu
amount
honble
##ill
bo
serv
claim
high
##ary
##thor
##ced
inter
##eld
again
pass
grou
##ue
##dition
author
coun
so
##ous
offic
dep
##ission
where
##ings
tak
its
pur
##low
facts
out
account
##hi
go
sc
##our
ban
ne
en
dire
##ty
##ive
pre
ao
counsel
13
##ish
would
provision
petitioner
against
##ove
submitted
ca
application
trans
accused
sup
if
held
complainant
only
ita
##cl
ground
after
##ence
##ceed
##out
##use
inv
10
ra
##fer
exp
##ok
proceed
page
officer
##ged
15
commission
##ution
trib
above
but
bank
po
ev
view
##son
notice
##du
passed
bas
##form
##one
##ating
tim
##are
india
person
date
##unal
tribunal
applicant
ins
shall
##ist
may
man
##ile
##ro
fol
##ight
##uring
fir
ben
decision
follow
##me
##ose
##ason
##not
##tain
##ical
cannot
ent
present
time
##cu
##ach
##ject
##ab
interest
sec
being
reason
##pect
lo
##ru
addition
int
giv
cor
direct
##cial
12
judg
issue
##bt
##ited
##ong
issued
##ail
authority
##ely
find
docu
##led
200
##iz
##ef
##ag
##red
##rough
state
##ck
##ug
provid
##quir
during
their
disp
inform
spe
proceedings
regard
cred
##tur
##cess
proper
parties
gr
##ms
2019
##ices
##edu
impug
how
provisions
impugned
who
11
##ward
him
##ital
##ound
matter
##oss
ter
char
us
sal
credit
##ise
##ved
##erial
##ations
when
taken
these
upon
##ite
vide
##old
judgment
set
##ised
obs
given
##ever
##ious
one
##osed
##ore
##ff
def
material
pla
show
peri
##ature
period
hear
val
wr
supp
##ention
mar
##amin
cle
##ving
##int
years
without
##cy
16
li
##lan
##jud
##ough
##ctions
delhi
they
debt
observ
clear
##vt
retur
mak
##wn
will
2021
det
##ular
##ee
respect
##tion
up
thus
right
however
examin
##ult
##li
op
inst
##art
allow
wor
te
stated
payment
accord
##estion
within
her
18
##lo
due
through
supre
whe
##ors
##rib
supreme
##lev
sig
even
gu
she
according
considered
consideration
information
following
che
##levant
question
whether
2018
##ual
##esh
basis
er
lim
##por
##min
pvt
##und
service
##ip
relevant
oper
##its
##ract
incl
into
##judic
services
while
##act
sin
##ber
##tif
adv
##gal
pow
should
##gu
##ond
nos
let
dedu
17
return
tw
work
purp
respondents
##ory
pol
mr
land
sing
##ind
opp
cer
2017
paid
transa
2016
since
##ash
documents
##pital
form
##ates
just
found
##olution
first
disput
##ident
includ
cop
##ub
could
bench
writ
property
alle
26
afor
rem
day
appro
##tal
##esaid
does
well
##porate
##ry
aforesaid
trial
speci
corporate
hence
##ible
##umar
produ
specif
mention
prof
chequ
grant
requir
letter
pen
ear
##ency
##cer
complaint
having
sch
resolution
mer
##ase
two
hand
##ral
report
##ities
##ath
shri
ru
kumar
share
supra
##ified
both
book
party
rev
grounds
sale
ver
##ode
argu
read
##av
adjudic
comple
##ized
provided
##ine
##ces
mem
cl
##ative
cent
mo
commissioner
est
over
shar
dist
##mption
##rict
post
own
##iling
limited
pw
2023
##ex
total
bec
clause
invest
27
##ac
##cip
transfer
30
##op
contract
depos
deduction
25
sum
dr
power
terms
##te
delay
raised
did
car
finan
nature
see
purch
exe
##ree
mon
var
depart
ro
financial
##icle
##ior
##quent
copy
gover
accordingly
prin
rece
ext
2015
appear
conf
2014
reli
allowed
aff
gen
pub
##ens
singh
hold
appeals
sim
debtor
##ient
##sequent
required
princip
24
##med
filing
##lied
##ai
##ting
code
##bit
here
fund
##own
##allow
##nment
##man
sp
disallow
##ended
mentioned
acce
department
23
purpose
para
good
legal
capital
more
appellants
observed
mark
sat
wherein
then
public
new
##ress
##ration
scc
##alty
2013
concer
course
21
##ipt
itr
condition
loan
orders
receipt
various
cases
emp
cheque
rule
admitted
2020
31
##ational
relied
##ily
196
cash
es
const
recorded
process
##ap
##ises
month
##itled
rul
detail
stand
than
adjudicating
contr
point
failed
nor
heard
prem
concl
ors
##orted
government
##arch
##ished
##lect
benef
cir
them
##ix
value
about
award
##self
district
tre
##ady
search
insur
##em
claimed
some
beh
placed
dut
##ither
##vi
ann
80
##io
reasons
subject
days
143
plain
des
explan
##ack
cp
along
chall
eff
fav
##very
pl
2012
petitioners
sign
central
erred
our
ple
##ained
##isf
mum
##ast
dem
sur
##lig
rules
alre
199
partic
already
gener
action
##abl
satisf
##rie
##ft
br
cost
##je
second
##wards
challen
##cit
##crib
details
##kh
##ful
constru
##ner
seek
opin
cri
med
submit
document
pun
companies
bu
##alf
dif
furn
sour
reply
favour
decl
dispute
based
necess
du
36
consu
pat
##tc
cause
ref
##og
##ric
effect
make
##ought
50
col
##reci
##ending
explanation
##rect
arbit
hearing
transaction
dra
art
abs
plan
name
alleged
ay
##ising
28
##ilar
similar
198
must
29
loss
place
appo
##ten
##aring
cust
kn
##duct
##ild
bh
including
shares
goods
penalty
##ety
22
persons
##eh
support
opinion
##by
concerned
##ian
signed
aside
towards
##ges
what
##usion
certif
##olv
behalf
making
project
##sec
##lier
##ption
way
soci
##minal
etc
authorities
##loy
entire
##ause
particular
confir
ap
considering
##tained
down
##odu
because
##ries
final
ii
file
suit
duty
plaintif
plaintiff
directed
40
regarding
##rodu
non
den
conduct
take
consum
##les
##ange
##oney
establ
##par
money
call
ma
additional
polic
##inal
bal
equ
main
compens
agg
now
entitled
34
written
differ
note
disallowance
deal
ass
##of
granted
though
examination
comput
##ti
civ
##val
defend
employ
judge
##ents
criminal
##usal
justice
necessary
##osite
43
subsequent
insolv
earlier
applicable
tech
pa
insolvency
different
policy
sought
orig
police
##other
mis
quash
03
clearly
applicants
##cribed
each
regist
civil
board
another
judic
32
##ouse
used
original
insurance
contrib
instant
num
three
veh
##pted
compensation
trust
requ
prev
back
appellate
defendant
society
certain
37
min
##ma
sto
##icate
##uf
accounts
liable
amend
techn
transactions
##ave
sett
manner
##ically
1961
regul
##hip
opposite
general
fe
books
aggrie
short
aggrieved
perusal
circ
nam
##ify
apply
courts
accepted
pray
##ured
suff
##ata
##quiry
charge
consumer
rest
annex
noted
far
source
result
##ign
##ks
conditions
shown
##han
office
purchas
prosec
##char
offence
reported
examined
article
pos
153
use
jo
indian
others
holding
those
##ke
##eme
##ading
sit
ape
##ging
dou
finance
custom
##eting
scheme
##way
explain
add
contribution
apex
35
##ateg
##ather
exemption
priv
itself
cover
finding
cross
ph
##ness
##icient
seeking
medical
##bers
##oc
below
##rought
##pc
brought
##inted
correct
perused
end
prescribed
very
prove
judicial
obje
##ys
benefit
rti
##roduced
##uation
itat
provide
demand
prop
regular
profit
##mission
records
categ
number
indust
ah
fam
settled
##ional
purchase
bearing
word
special
taking
dig
need
duly
conclusion
##ta
av
##urred
oc
relief
premises
discl
##ined
sm
eng
ten
object
sen
invol
exc
contended
rate
family
263
position
##ugh
aud
appreci
herein
commer
##atory
construction
decisions
manuf
manufact
##ater
##ailed
adj
declar
produced
##taining
balance
vehicle
##older
digital
sa
done
private
specific
dischar
mean
proced
came
treated
prior
##ately
charges
ful
creditor
subst
either
laid
group
raj
till
actual
sufficient
get
##ife
deed
know
oa
reliance
lakh
33
national
viol
##wal
members
taxman
payments
##ortun
paper
opportun
port
follows
##na
im
deposit
pending
bail
##ores
##unic
revision
submits
sections
approval
digitally
##ages
68
##ried
findings
mand
director
sheet
##ator
##ines
##aged
rent
05
##gn
registration
presu
##ached
ser
open
argued
appoint
##uch
elect
ident
lev
##har
err
##ps
und
##ger
funds
fall
##ha
care
profess
hus
secur
anr
##set
##oneous
creditors
investment
ib
##band
erroneous
bar
certificate
##over
come
san
test
##oses
signature
##idav
prim
gain
09
affidav
ia
term
doubt
##ium
presumption
instru
##ures
put
39
ram
##less
38
valid
months
thir
crores
##ural
139
commit
alleg
prosecution
neg
ms
sy
commercial
seized
fix
annexure
arbitration
senior
merely
exist
sust
head
price
called
opportunity
stock
absence
reproduced
working
air
04
furnished
husband
disc
dri
son
bey
beyond
arguments
kol
operative
bill
excl
amendment
##mon
##air
48
house
proceeding
union
pursu
##cation
##wise
##rate
##ya
att
mind
defa
uph
08
undert
excise
inj
accident
##ances
ans
otherwise
edu
carried
ito
affidavit
control
real
##ody
accept
sales
bri
leg
##pl
cre
fore
specified
##ware
197
confirm
denied
42
##ds
##ility
##bai
##ts
stage
once
suf
exce
suffer
principal
##ants
hos
detention
provis
##inate
##tee
contrary
relating
##eep
mumbai
light
challenged
undertak
direction
procedure
cpio
consequent
wrong
establish
long
##ences
bel
##ivity
provides
##war
like
##pr
unless
pan
got
mot
express
product
##ying
coc
pe
##bi
reasonable
purposes
pcit
offer
giving
enter
arr
proved
contin
45
applied
07
##amp
remain
54
##vey
appearing
##wer
proviso
covered
arising
ut
hospital
##vers
41
incurred
technical
default
complete
har
mag
circular
exec
##itness
namely
2010
hy
fram
age
seen
iv
less
fail
child
neither
rights
147
leave
conducted
verified
payable
whereas
observations
give
separ
crl
my
01
lakhs
##ked
member
##00
##aj
##hing
oblig
69
sent
deposited
##ani
every
committee
mad
guar
##cing
##ested
therein
guarant
communic
pw1
professional
##oid
forum
sr
brief
substant
offences
related
##ival
##dra
matters
lic
merits
##ected
44
agre
tra
ste
request
involved
dcit
witness
amounts
contained
audit
extent
activity
directions
##ulated
invok
committed
market
enquiry
bom
##ligible
195
providing
jain
prom
##aded
smt
perform
2011
##ake
1st
##ally
carry
owner
completed
aver
adjust
ipc
06
previous
taxmann
appointment
##iss
passing
##pite
##sh
cal
teach
third
eligible
##wor
firm
di
##arat
##uded
you
trade
withdra
occ
46
##po
138
##ood
never
inf
drawn
furnish
compet
incor
deter
nothing
convi
four
took
chand
agreed
##overy
aspect
station
satisfied
principle
fixed
em
bad
means
magist
words
build
##osal
common
clar
##cs
punish
sel
cheques
asset
served
acit
60
declared
claims
##pur
guj
mod
##ides
cap
##lt
scr
objection
response
last
explained
principles
class
47
adver
agric
collect
magistrate
allot
list
determin
##fully
##action
##iding
judgments
arbitral
approved
##anch
subs
recovery
resident
powers
##jay
271
ir
area
##ties
much
dh
##ught
disposed
56
49
sole
justified
sold
quashed
##go
sharma
himself
tur
specifically
six
thereof
ur
undis
subsequently
fl
security
unit
##ister
personal
electric
low
obtained
disputes
answer
materials
import
asso
sell
injur
##con
hands
relation
reads
##isl
2009
appears
##agar
associ
despite
address
syst
shows
148
manag
meaning
##put
rightly
##ope
road
##lying
legisl
##cell
ord
##ently
roy
father
march
ret
mother
established
sl
liqu
apr
deposed
##closed
examine
##mpt
your
##pa
vis
guid
arri
##une
loc
2005
##ren
refer
##arily
survey
engaged
##ne
confirmed
##ka
fresh
##olog
force
supplied
prote
official
net
followed
##urr
violation
bre
argument
##ired
refund
bor
fee
advance
alia
anal
say
education
ought
scrut
evident
scrutin
earned
operational
prejudic
va
detailed
operation
sever
nex
compli
02
foreign
##ah
appointed
##arr
april
redu
##osing
count
alter
compar
scope
##als
75
calc
132
meth
entries
receipts
notic
2008
cand
conte
##ossible
additions
mach
method
##ization
gone
##ners
old
53
substantial
categor
##ealth
protection
lab
153a
##with
##has
dam
purchased
prejudicial
keep
loans
candid
manage
shareh
##den
discharge
##ny
##gt
nat
qual
conce
65
framed
bro
vac
electricity
57
##pta
##edule
##iew
##inder
##ery
pointed
schedule
fac
supply
##ledge
returned
states
43b
##ultur
satisfaction
upheld
##ening
##clt
review
stud
id
##olders
sug
gupta
entry
full
going
##aff
category
##ters
100
##acity
64
merit
laws
##els
informed
premium
ka
look
summon
existing
##ool
prepar
red
##reciation
lease
joint
meeting
mere
cirp
tds
dev
natural
bomb
valuation
thereby
later
ke
change
scrutiny
58
side
wife
rival
plea
agricultur
##gr
advoc
chan
##medi
90
taxable
notices
##ici
depreciation
da
conn
offered
bur
##ored
noticed
partners
similarly
prayed
##ext
fal
stat
reb
deli
vir
invo
profits
several
interim
incre
##thing
67
completion
##ordinate
##ems
rat
soft
61
proof
apart
bombay
compliance
##gth
##abad
industries
##ale
cb
ce
stands
regulations
true
fair
belong
52
left
cpc
##ang
##sure
51
higher
management
##ief
ow
71
prad
outs
applications
investig
##mal
##cted
appeared
lower
194
execution
##elines
whereby
turn
tar
liquid
possible
agricultural
##ca
knowledge
lal
mut
immedi
ess
sol
assu
branch
amounting
deposits
##judice
fees
punj
##ib
situ
titled
##ctor
disputed
issuance
five
vers
inquiry
##mar
system
except
ps
##line
prejudice
separate
single
gujarat
##acc
tenant
taxation
lead
rp
directors
##uses
##mo
recru
continu
##ably
investments
building
copies
claimant
##itable
rail
event
dt
##icles
fun
rebut
##ning
exch
ign
regulation
63
punjab
##stand
penal
extract
##miss
incident
software
appar
drp
ja
##rial
der
55
led
gross
school
##ential
status
pension
kind
stating
concern
##ph
stip
##ony
trading
owners
revised
##ived
met
factual
challenge
##ancy
communication
asked
ash
patient
##ron
2006
ss
70
standard
62
portion
staff
capacity
objections
quant
##ways
##missible
##ala
competent
advocate
imposed
59
sustained
fit
2024
home
caused
admission
whole
##iving
maintained
identical
92
late
simp
employer
##kata
termin
cited
##osure
approach
expression
pf
particulars
adop
pradesh
why
allegations
adopted
context
reject
officers
limit
##rom
##ote
admittedly
tpo
ibc
viz
still
fut
2007
industrial
bring
cancell
flat
chief
include
##oted
death
punishable
##pping
guidelines
80p
discre
##ead
consent
chny
concluded
connected
pursuant
pertaining
##port
reop
ct
decide
allegation
lar
failure
ahd
prepared
needs
proposed
disclosed
##ven
##aud
royalty
advan
##ainable
whom
outside
points
74
##kar
equip
situation
remand
pract
##illa
bengal
66
onus
adjustment
life
defined
benefits
ed
data
kolkata
##isted
burden
documentary
incorrect
##exp
permission
suffering
##now
online
gains
supported
ju
##res
health
allowing
dom
warr
included
##ection
affir
buy
bangal
indic
products
grie
##ension
griev
regards
approached
disallowed
next
conver
##ret
##itle
export
mah
##uk
recruit
salary
##ie
unexp
virt
body
curr
forward
bills
identity
##to
plant
2003
##ased
bi
esi
arise
##riage
unexplain
qua
stay
acquir
memo
##ane
carrying
obligation
barred
##mpl
cond
unexplained
kh
yes
vict
uni
whose
vol
free
produce
children
claiming
inser
computation
site
victim
devi
genu
remo
bangalore
rupe
draw
72
consult
complainants
shop
bog
exchange
blo
kv
consequently
prayer
##gether
phys
advanced
2004
excess
##iness
cw
customers
technolog
shi
##tin
enc
properties
charged
00
##oper
bind
directly
142
hereby
##gan
adjudication
analys
moreover
recruitment
future
flo
bon
cc
bang
setting
sw
become
jan
##iable
bogus
##lies
lacs
ga
daugh
nclt
imple
relying
estate
rupees
sri
##ipur
quashing
most
able
##elf
115
proposal
dd
##row
##co
plot
ratio
undisclosed
repay
sanction
ty
bid
emphas
sun
costs
keeping
amended
known
73
79
##iff
din
buil
appreciate
unt
##atch
om
guarantee
cooper
##ras
ni
85
portal
##sp
centre
villa
confirming
immediately
manager
##erc
##igned
serious
asst
##king
hard
78
##ees
treat
fully
str
deduct
estim
esc
##cie
genuine
instead
entity
sar
##her
replied
labour
awarded
brok
sources
##ively
chap
##ogn
arises
customs
liquidator
rather
discharged
2002
important
##ati
situated
clauses
fill
coming
avoid
cli
dealt
recogn
len
bound
##thiness
76
false
##omes
driver
actually
enterpr
render
##iter
##dt
primary
fi
facie
##iciency
warrant
patna
##day
counter
essential
reve
##chan
spouse
authorized
##ics
##ja
returns
many
selection
##ita
lod
##uru
mist
dues
mill
##af
##ison
conviction
##spect
tariff
projects
marked
chapter
##asion
together
brother
##30
design
issuing
##ense
govt
certified
computing
ult
fraud
##ulted
apparent
perman
motor
pages
kept
observation
ensure
##cies
saf
tgt
reading
mandatory
reopening
line
machin
relations
face
lan
pertin
marriage
valu
spot
impr
##inary
144
gre
register
moh
nil
##lax
coordinate
prima
##ding
banks
length
option
makes
crore
95
judgement
remained
mv
daughter
sk
##uary
item
##ends
handed
liber
recording
dw
##ik
charitable
manufacturing
cbdt
91
disclosure
##oring
deleting
##oting
equity
food
##iary
shipping
determination
##com
##enn
arrived
alth
contents
title
prob
star
97
##jo
posted
undertaking
although
purchases
##ude
alongwith
works
signing
june
##ush
kar
14a
kr
water
gra
94
consist
equipment
install
pm
##ives
anything
##standing
candidates
sou
casual
admit
railway
furnishing
77
marks
shif
binding
requires
card
##aining
pertinent
##iti
maj
challenging
departmental
nagar
##ep
##ounted
86
granting
el
exception
##hon
appreciating
banking
extension
outstanding
87
contempl
cooperative
chenn
dta
98
arrange
482
lender
permitted
analysis
chennai
##usive
84
##ute
dealing
instructions
observing
il
acquired
permanent
writing
particularly
contain
mode
aug
none
##onst
relax
includes
##ize
stipulated
##olding
informant
1996
delivery
##ink
acqu
##arwal
ahmed
matri
##idence
hous
mechan
customer
mult
ack
meet
injuries
##20
circle
server
normal
colle
153c
##rop
oct
creditwor
created
machinery
unable
##adi
email
july
discretion
exempt
##mi
##umb
enterprises
whol
directing
lay
##versity
squ
##rd
accounting
slp
##ari
doing
mal
january
chargeable
##ability
guil
##be
borrow
relationship
234
##ders
residential
madras
comes
custody
2nd
temp
creditworthiness
units
kaur
12a
langu
##ulation
applying
subsid
wom
thous
susp
deficiency
thousand
too
##up
133
negot
declaring
restrict
entities
defendants
##uled
village
hel
license
prot
charter
yet
dishon
accru
vii
##akash
organ
manufacture
oral
today
draft
absol
##vat
ey
ing
secret
insured
near
declaration
##going
81
acknow
scch
##using
##cri
fo
pleaded
determining
##istry
physical
ran
##oned
letters
dates
aged
inte
stamp
nar
minor
avail
plead
cogn
##onent
wee
rejecting
items
facility
floor
want
association
carefully
prospect
continue
##erve
securities
levy
mutual
agree
ultim
aut
96
dtaa
showing
summons
mvc
kvs
deciding
unacc
invoking
meas
conceal
deput
sake
##bal
taxes
mistake
div
landl
##rs
defect
major
pap
permissible
provident
team
ministry
##airs
complied
partnership
occasion
tru
treating
language
##nel
sugg
deb
breach
##ull
cogniz
prakash
bengaluru
##bs
holder
adverse
unaccounted
fine
remaining
##cup
88
invoked
employment
##ifying
invoices
posts
cen
block
dred
ris
observe
89
deem
occup
cha
qr
##cd
##ling
##ves
contro
injury
undertaken
83
expir
sched
dhc
feb
stru
nd
io
shareholders
pal
landlord
remed
proble
prt
hot
##endra
pand
contractor
##15
hu
##ship
steel
##ceding
levied
notes
testim
ordinate
tel
acknowled
plaintiffs
maintain
west
##aneous
ist
fig
82
clarified
util
acts
damages
emphasis
getting
1986
##cil
preceding
instance
please
suc
##ace
##cription
sides
ado
pc
comprom
petitions
production
require
gar
sq
enqu
inspect
154
annual
##pped
started
occurred
##gent
gur
##ober
liberty
wholly
performance
categorically
october
basic
availed
virtue
##equ
##gs
confer
##isite
alone
scale
legislature
cenvat
local
relates
seiz
august
cho
collected
aware
derived
computed
interests
affirm
##ick
shah
welf
past
wrongly
housing
altern
exerc
ascer
trav
papers
si
wp
sustainable
##omp
bra
validity
marketing
permit
grade
prosecut
access
among
transport
99
teachers
huge
welfare
sure
gave
lik
current
##alid
requisite
contra
properly
ment
grievance
allotment
stood
pack
evi
marg
scheduled
duties
bes
presum
93
finally
exercising
##mber
execut
strict
agency
##hile
##ample
##ruary
falls
##rar
operations
becomes
pb
##nal
questions
function
engine
##while
nove
lat
##atures
disposal
november
relaxation
doct
february
##14
ward
##unt
confirmation
pras
gold
mohan
compromise
university
averments
reached
seizure
##arh
conc
##mic
obtaining
satisfact
inher
escap
help
##08
complet
ordered
cs
lodged
arms
##erg
urged
pg
krish
secured
##urs
##ji
credited
unsec
remedy
ef
##mental
##iation
advances
best
seniority
detaining
country
partly
always
raise
input
unsecured
ker
##amm
hyd
bear
pertain
vijay
##ancies
acade
charact
don
thereon
##wan
srin
##ba
remains
squar
ahmedabad
rates
taxed
establishment
audited
substance
pleadings
earning
run
118
opening
hyder
##vable
reduced
lack
counsels
withdrawn
implement
cd
forth
120
suffered
completely
##ott
2001
##raph
withdrawal
invalid
expiry
wise
driving
##wa
redress
away
attached
##60
character
##icing
speak
##pal
##estic
##itive
articles
ready
south
acquit
version
demonst
guilty
madh
##iries
khan
hyderabad
cra
##rupt
construed
##fic
authorised
receiving
yad
intended
##12
respectfully
objects
bhat
unre
owned
enquiries
##jection
gas
##bor
neglig
level
teacher
mas
incorpor
prasad
ownership
simple
contemplated
testimony
thereto
vehicles
consequential
tele
vested
ashok
hc
dil
##da
eviction
squarely
ho
##land
##resh
##10
factory
energ
pend
sam
practice
repayment
yadav
lit
escaped
introduced
enact
raising
affect
indicated
##bh
reasoning
educ
turnover
respons
wa
accepting
##puted
jun
void
500
rj
seal
check
paying
##oj
academic
fif
##94
tune
energy
redressal
cognizance
vin
extracted
technology
glo
reveals
##ey
agent
paras
##round
pursuance
seeks
registrar
removal
intent
##13
quoted
ela
names
client
affairs
multip
hum
mandate
tempor
worth
domestic
responsible
memor
mob
ill
##ena
operating
negative
unf
fil
##here
##ga
delayed
arrangement
expired
pune
mor
##iously
##cture
bl
rjt
contempt
##respon
went
cast
computer
start
indicate
anand
particip
leading
1995
ge
faa
increase
##oura
officials
1994
##uity
inspe
steps
ys
jais
##ipal
large
##omm
versus
besides
cum
##igarh
field
##43
##olved
simply
woman
doctor
assigned
ali
distrib
undisputed
belonging
1989
acted
proc
totally
##eed
allotted
cad
allowance
deputy
termination
nag
sho
correspon
3rd
sil
negligent
separately
happ
join
fails
employers
invoice
licence
generation
treaty
imprison
continued
##cle
lu
auction
farm
around
play
aor
bankrupt
inspection
imprisonment
quantum
inserted
250
tried
149
##ney
##cc
cogent
tp
listed
omp
##ats
condoned
mental
##ocation
mou
ll
##cious
reflect
pendency
accountant
##oi
disclose
cancelled
opponent
mail
1997
gh
##ism
pricing
1988
postal
evidence
aspects
educational
until
misc
using
processing
##utta
beli
##hra
bankruptcy
memorand
rash
mort
##50
fy
extend
averred
upt
parte
examining
rpr
env
##17
equal
excluded
nf
##ograph
adjour
debts
students
enclosed
press
calcutta
electron
falling
dishonour
diffic
volunt
##jit
patel
memorandum
ach
least
quar
kerala
##16
##dh
monthly
##18
##au
##uding
immo
withdraw
##ram
log
builders
ds
training
fri
immovable
cm
##wari
exper
denial
satisfactory
investigation
council
##work
managing
jk
secretary
##19
##38
tribunals
##view
xi
alleging
closed
ends
rw
revisional
##earch
dia
##most
##righ
upto
145
effor
weeks
named
affirmative
chem
##dy
adequ
comply
research
risk
supporting
sanjay
unsu
##fa
##45
prevent
##lim
global
cat
kash
incorporated
dy
performed
impact
matrimon
comparable
contracts
oil
mrs
##ators
times
behind
temporary
video
moved
rejection
enable
prospective
bab
rendering
##loaded
funda
reports
##soever
##plus
elabor
1998
wing
corresponding
job
munic
few
voting
surplus
instrument
municipal
concept
##enty
formed
justify
manufactured
trad
kindly
vent
econ
bond
##ender
adopt
tam
##tar
##urate
##72
quality
fd
small
outset
econom
reliefs
##eties
lie
broker
diary
answered
borrowed
##just
bharat
promo
signatures
distribut
opposed
restored
deep
room
amb
##gment
parl
106
seven
pp
compound
affected
ultimately
##35
exhi
deals
chandigarh
summ
obtain
sunil
##40
nh
ambit
ignored
ays
mills
##far
entertain
cic
##ali
views
correctly
investor
kan
provider
131
##pat
framing
obligations
##ours
consumers
payee
move
amic
hund
pure
societies
miscon
##isation
##xim
quite
deductions
##39
envis
sector
bonaf
##ables
##rit
parents
##ins
ec
hin
##oun
inherent
##ora
##adu
applies
strong
313
##sely
##ailing
teaching
crpc
ingred
role
brand
ingredient
collector
##vind
verify
nfac
parts
##urer
arose
ti
blan
partner
appreciated
ae
takes
##mc
inspector
##fc
##va
unjust
negotiable
##bed
contradi
ignoring
jaisu
achie
invested
restricted
agarwal
became
##vity
ppa
multiple
matrimonial
ant
annum
prevention
ledger
rak
hundred
156
self
##ime
whatsoever
##sa
filled
resulted
ever
factors
refused
heading
pw2
blank
standing
crime
cancellation
anil
conferred
belief
loose
enfor
##ming
sheets
functions
mobile
associated
ba
inclined
##rew
acceptable
##uj
##75
cul
##elling
cut
vend
1985
fundamental
rise
obv
meant
remit
31st
upholding
##ually
sons
shareholder
hindu
earn
citiz
convey
wind
tender
might
recall
##angible
copyrigh
##sofar
192
abuse
punishment
rbi
erst
clearance
protect
criter
proceeds
erstwhile
insofar
buyer
super
nt
contributions
na
bus
amendments
encash
irp
human
looking
huf
assured
notified
shiv
buyers
controvers
calling
goes
stren
ep
send
utilized
##bted
##eration
commen
nc
1962
vacancies
##mir
tal
parlia
hit
##ring
flow
jag
##asm
conducting
frame
annexed
bet
forms
recognized
heav
##stainable
subscrib
parliament
ic
recomm
recip
125
presumed
rajesh
convicted
city
80ia
sand
cess
muk
unsustainable
placing
worked
##gery
cadre
mining
mur
lands
bare
##yam
meh
10a
##lict
ahm
profession
hind
objective
insurer
involving
oas
rely
roh
candidate
##ipl
posting
purchaser
prelim
mortg
employed
weight
assumed
divor
##cially
preliminary
ko
##ana
admissible
regional
pertains
inasm
##odh
finds
inasmuch
nand
intim
subsidiary
150
offender
located
retired
foregoing
elt
conflict
thirty
mm
choice
guarantor
operate
##pper
publ
flats
residing
chair
benches
fide
recover
minut
capt
102
##usively
satisfy
null
dead
323
1973
estimated
cleared
##icial
##vid
tex
##ifiable
instruments
sister
##dom
involve
employees
offending
attended
bihar
sanctioned
compr
rakesh
nct
chemical
substantive
recipient
vik
solution
addl
sak
indicates
died
solely
accrued
suggest
eman
necessarily
##from
exclusion
quantity
arrest
living
affor
president
bonafide
##enu
parent
cy
##04
pleased
broad
ajay
##bo
eye
strictly
controversy
lost
underst
adequate
subjected
north
aid
overr
##ban
heart
mid
beneficial
suresh
recent
158
espe
fault
116
strength
east
##ni
##05
batch
investigating
especially
gives
careful
unfair
##36
contractual
pec
sah
hire
iron
introdu
kashmir
condone
denying
##02
servant
151
##fers
create
recommend
inacc
cur
fre
##icates
technologies
auditor
damage
continuous
personnel
##ground
##vert
inaccurate
implementation
dur
##come
chandra
##ulture
instruction
ri
peop
formal
agra
##apore
belongs
##isen
nexus
firstly
proving
fab
categories
eval
bir
secondly
criteria
lac
skill
chartered
margin
minutes
wages
foundation
##jb
factor
procedural
amp
patent
selling
conversion
##48
proves
188
##fe
covid
grat
exclusive
safe
inr
acting
##oll
raw
##bly
craves
rect
assailed
ship
ddit
##inct
arisen
commerce
enough
doubts
closing
ascertain
average
amit
vish
##46
certificates
legislation
kam
superv
relat
almost
kal
ail
diss
attor
krishna
divorce
singapore
nath
uttar
plaint
cw1
ramesh
##pse
unau
larger
srinagar
thing
infl
##uls
speed
##ded
##ars
absent
norm
shifted
8d
##de
suspic
##ank
double
doctors
table
areas
live
therefrom
##seas
calculated
assumption
##acy
forest
cis
overseas
unauthor
remitted
understood
heir
gir
antic
##olid
repud
##mark
events
136
assa
alternative
expert
rani
sj
searched
ordinary
problems
##47
belated
suspicion
anticip
fabric
##utory
withh
exports
##ier
distinct
hclt
ingredients
concerns
##37
panel
typ
ncl
phot
bona
feel
jamm
contains
mac
##cel
jammu
108
corp
credits
ft
resulting
##ns
sant
mt
query
jaipur
ve
dispose
jodh
fla
##42
coup
269
convict
difficult
ak
twenty
economic
miscell
appreciation
nav
stor
miscellaneous
highly
complaints
shell
##joinder
majority
background
organization
##pir
indore
consultancy
ahmad
1956
master
infra
tamil
envisaged
sav
kish
regulatory
secure
constructed
rout
1944
##ift
bhag
lying
1987
governed
correctness
purely
omission
##ndra
307
integ
people
disb
tenanted
reprodu
spite
##eta
1993
226
holders
##49
purview
legislative
changed
lines
##ons
pain
vag
copyright
##ula
dise
##eries
drawing
os
round
##ported
solar
##elop
travel
##asing
absor
##itation
1992
##men
former
lies
##eline
##tern
302
regularly
som
united
enjo
termed
engineer
##utely
1a
rejoinder
affirmed
144c
clarif
speaking
raipur
summary
0530
investors
mechanism
absolutely
refers
rao
gan
p1
##ouch
unp
##ini
eight
verma
borne
nclat
##laced
suitable
indeed
charging
##cg
sense
##licated
likely
narr
rural
mohd
disease
merc
nomin
irre
limits
ren
uk
prud
hcl
primarily
mala
contend
example
compared
##26
thre
transfers
converted
region
invited
adjudicate
chit
##irect
probable
type
prescrib
subsidy
collection
dg
##antly
nowhere
removed
ons
something
attorney
sund
acquittal
hotel
cbi
resour
analy
##ilit
park
##ression
processed
thought
aggarwal
concealment
##iture
##osh
indirect
urban
problem
rt
better
##ignment
usa
##eless
khas
##cession
restr
##sl
submitting
tion
social
##urance
reduction
sebi
##uli
exact
rca
115jb
kir
lapse
##bu
executive
fire
depri
compass
attend
bringing
##58
##raj
##oo
##09
link
currency
results
develop
##atever
departments
abh
impose
surgery
##32
##78
whatever
understand
ordin
##app
emb
noticee
arrested
wish
1981
lenders
##ounced
description
reveal
suspended
notional
manufacturer
joined
medic
alp
injured
associate
cru
commun
rah
baj
contact
exists
##ourable
weigh
extra
506
##ksh
figures
ltr
tata
##ida
relig
jointly
madhya
college
longer
channel
gp
mp
webs
forming
club
contest
certainly
integr
reach
clients
debited
##atic
##enses
encashment
repaid
suggestion
industry
spent
asser
terminated
modified
pip
##bir
town
location
lock
insertion
commod
asr
127
harass
break
advised
garg
viti
pron
succeed
lord
improve
andhra
seed
expressly
##oor
adverting
repair
electronic
drew
resolved
##ourse
anticipatory
##hs
indul
indu
afresh
rd
heads
infer
##ompan
prep
places
scre
briefly
acr
##28
fraudul
pgt
pressure
described
gratuity
contractors
##iciary
parame
##oda
peace
amongst
##the
##ruption
##was
##ards
upgr
beneficiary
##olves
exclusively
dru
##will
plans
##ield
forged
govern
stri
caption
##aily
chairman
fts
##56
##anged
resort
conscious
defin
serve
hir
admitting
lin
daily
debit
deepak
nir
wealth
##ila
ven
stak
eyes
##34
##enable
accompan
254
drive
standards
114
latter
forwarded
##59
coll
discrep
dc
user
happen
mehta
##iated
cry
12aa
dhar
sugar
absolute
agriculture
##cement
contends
supple
bag
##06
noting
mish
##fl
uphold
amicably
uoi
420
deeds
relate
auto
##ler
interp
##era
monit
asstt
dishonoured
10th
regarded
rc
seller
internal
concealed
##dish
failing
base
119
167
dinesh
rental
normally
generally
ls
pie
##jeet
##rol
progr
entirely
emanating
cement
bs
cg
wis
##wh
enhan
gets
arun
lor
shree
advert
systems
gl
text
surveyor
##vo
utility
vouch
measuring
bott
jay
##eev
##hu
##mentary
107
assignment
sample
mit
constr
structure
hotels
consolid
eas
onwards
128
opined
tenancy
advice
remar
colum
figure
137
restri
##teen
communicated
sham
equival
compassion
##kaj
requiring
4th
itd
distur
##isable
published
dar
matrix
regularization
##eli
causing
enhanced
sid
##loc
increased
conclude
341
incent
disallowing
goodwill
quarter
pi
uns
##emic
classified
assurance
essentially
##bited
##aries
efforts
hist
stakeh
##03
366
incidental
lessor
vid
downloaded
demonstrate
jm
complex
equivalent
compassionate
autom
occupation
captioned
sud
arc
504
10b
website
wisdom
scen
discount
invoke
purported
finality
hd
god
##24
secondary
rig
qualified
promoted
124
xx
dit
numbers
adjustments
gather
chart
model
summar
telecom
wid
##57
equally
incomp
pn
gst
##ota
1963
reddy
wide
126
generating
told
fell
kul
##27
##charge
pandemic
demonstr
unreason
ordinarily
##yal
interloc
##itim
interlocutory
bud
imposing
settle
dest
doubtful
grossly
shan
arora
acknowledgment
##kj
taxability
agents
##itan
acknowledged
consort
legitim
fu
##rove
prog
payer
parameters
##adh
arrive
says
falsely
##rid
##ams
thak
outcome
clarity
network
ix
modify
ax
penalties
dda
recourse
orient
##uted
mishra
mainly
useful
immediate
domain
resources
bought
fer
qualify
solutions
storage
consumption
sev
manif
surv
400
##onents
ops
great
ble
seems
accum
dredger
chaw
commenced
photograph
adjusted
consortium
##shore
arriving
dealers
across
things
railways
consolidated
fron
box
lorry
aim
hs
sha
banker
boil
##ounded
109
##oration
operated
litig
164
clean
violated
calculation
ther
print
dj
sbi
miss
blood
inputs
unpaid
overall
dilig
mechanical
##54
assign
scri
whichever
khasra
advis
vague
judges
faceless
##rine
dopt
implicated
designated
hours
vital
undergo
corruption
##opal
heavy
onsite
##ury
nine
haz
1908
vacant
##nl
##88
12th
opportunities
##section
suo
dredging
227
hers
asi
valuable
luck
violence
206
##usible
##53
110
visited
##ruction
##mm
##yan
machine
##icatory
292
manish
aes
##rc
exceptions
unauthorized
ns
honour
104
1980
asking
forfe
103
questioned
80g
prec
##etion
prevailing
stakeholders
##kumar
executing
jai
##29
##gers
clarificatory
desired
praying
substantially
sd
##yers
threat
defects
##51
stop
saket
gs
half
deletion
presumptions
theft
lax
##khand
remanded
herself
admin
supplier
unjustified
reproduce
mu
plausible
availing
##want
anuj
chemicals
##unch
ultimate
rai
impro
270
397
key
xii
dw1
800
filling
explaining
asse
host
promoters
sir
depend
conclusions
caste
range
##thi
maur
safety
234e
participate
debtors
brokers
prudent
assuming
aos
column
cros
invent
##reh
nadu
dl
zone
##sex
##uv
subscriber
contested
backd
deliver
lieu
manifest
match
entr
explanations
progress
detenu
##adation
prays
pankaj
159
pot
146
world
ambig
mw
##lete
##ivas
virtual
das
tangible
registry
screening
pu
studying
vig
compuls
taxing
ctr
crossex
crossexamin
holds
186
directorate
excluding
grow
summoning
doctrine
actions
machines
pronounced
imm
##my
180
remove
holdings
diagn
else
llp
serving
simult
##apur
procure
lucknow
simultaneous
##esi
operator
gaz
murder
mix
pred
provisional
shared
274
kant
##33
venture
cce
liquor
citizen
opt
##iya
confined
fifty
##hot
rct
##fort
140
labours
cisco
ltcg
304
whereof
looked
mukesh
hes
30th
intimated
space
##ilal
manual
exha
close
mortgage
##elled
dict
oath
##roc
confron
thr
excisable
volum
imported
166
involves
##ets
129
merch
avoidance
safegu
ng
141
mahesh
installed
clo
exhaust
##ict
##wani
##reg
restore
vendor
mercant
front
addu
vihar
unab
##indra
brothers
##ervation
step
prosecutor
upper
##ica
coal
nhb
vikas
##thy
##bc
##atta
media
subh
poll
apparently
##rection
concession
##igner
##25
manoj
chawla
comb
irrelevant
truth
agrawal
npa
sain
subscription
faith
installation
rit
enl
voluntary
vice
scn
hypo
stipul
prices
piece
pul
conform
herewith
pressed
##book
##faesi
##hood
##vin
comparables
tet
voluntarily
remitt
calcul
reck
lastly
facilit
unreasonable
##rix
mediation
empow
week
history
prohi
##ursed
5th
je
##23
##izing
equipments
##eral
kot
##iles
waste
distance
premise
consistently
epf
##iting
band
replies
spir
sarfaesi
189
satish
gazet
donation
##rel
disposing
deny
conveyance
influ
ie
pw3
jhar
serial
abd
##riya
hari
obviously
backdrop
hardship
##tle
path
designer
green
1991
cpj
disallowances
161
320
entering
traders
accounted
think
itba
resid
113
plants
drawer
##ception
##nels
406
##encies
##etary
##verted
tehs
##gested
ele
##pay
kms
motive
jcit
acres
motorcy
105
consistent
hdfc
defines
limb
jas
ware
##86
remun
jur
suffers
clarify
content
dispens
increment
mercantile
attained
construct
exped
stations
homebu
bidder
religious
cod
untenable
nit
fract
changes
##ropol
##inous
controlled
capable
vinod
sci
workers
analyz
metropol
tract
grid
300
7th
271a
##atorium
devoid
gift
##fil
undue
spl
suggested
refusal
metropolitan
##orter
subsection
135
circum
vest
exhibit
lif
partial
moratorium
ul
##asi
lady
save
tt
enjoy
remuneration
heirs
seeds
md
##mn
presently
adopting
drc
##adeep
##racted
shyam
offshore
manu
reflects
cryst
bla
oats
##gone
tot
gopal
1955
##etic
incumb
srinivas
ens
ragh
estimate
ang
##aving
163
brevity
peculi
confronted
peculiar
vote
subordinate
##ology
goel
undertake
gathered
reasonably
reliable
opened
supplementary
incomplete
originally
junior
electr
communications
traff
jharkhand
existed
##ulty
circulars
bod
ts
170
##issa
123
demands
##kk
##itude
poly
nas
willing
cler
shankar
elic
traffic
monetary
channels
misconduct
depositing
stopped
queries
##istic
factually
##onged
truck
lordship
##urring
suppli
reduce
continues
##aveen
unne
##oma
unnecess
noida
orissa
##stant
phone
affil
colour
1860
tenable
fraudulent
restoration
pursue
suppliers
fast
##jan
accepts
handing
abdul
11th
kumari
##84
##law
##que
via
sealed
200a
situations
motorcycle
persu
labor
reopen
rational
completing
swor
sanj
component
shops
booking
##87
enacted
monitoring
dealer
electrical
supposed
comprising
transpar
130
sworn
##imb
revisionary
favor
354
239
69a
occasions
bat
goa
write
declare
appl
fulfil
bed
cab
legitimate
plus
enlar
##11
soon
mun
accorded
convert
sandeep
##52
beg
wareh
##kr
##reet
inspite
equitable
wanted
bears
expedit
promoter
fabricated
##uja
##lal
doubted
invocation
firms
instal
esic
built
prosecutrix
15th
##otech
rider
competitive
builder
touch
constructions
um
crossexamination
thresh
##vinder
concluding
indirectly
poon
fairly
mahindra
##rap
esa
track
macp
plat
yield
##ims
licens
##elihood
ml
nig
##cent
annexures
wall
agencies
affidavits
##elt
1976
warranted
vitiated
##31
booked
governing
ruling
pandey
vouchers
authorization
positive
stayed
feeling
rahul
threshold
rajendra
2a
recently
taxpay
##gaon
simultaneously
##ulative
twin
##hold
##ng
tab
retail
adjournment
prol
##ama
amar
undou
harsh
##rant
vo
##ae
extr
misused
##76
3a
unear
program
homebuyers
royal
linked
245
phr
usu
clin
baroda
participated
black
incumbent
providers
married
undoubted
deducting
enactment
integrity
##79
phrase
dow
ravi
mir
tool
atroc
women
thor
##erry
##tha
closure
prefer
covers
visit
reasoned
declined
suffice
spec
##body
agony
offices
##emn
measures
deposition
mandated
student
##bhai
coupled
upgradation
atrocities
colony
realization
diab
effort
mic
shareholding
rebutted
struct
vigil
spirit
lpa
##uti
managed
surcharge
erroneously
study
owing
##shi
root
204
372
truly
performing
grievances
271aab
vat
40a
8th
##ches
370
objected
select
6th
173
##itius
sound
undoubtedly
##imal
ot
misp
fixation
components
178
penny
deductible
##ario
adjourned
169
qualifying
wound
##oshi
238
consultation
dub
vacancy
vinay
community
anc
##ami
laps
##orts
obvious
hindust
sums
latest
mauritius
dal
honourable
ups
producing
happened
bans
##itical
##udd
kap
discharging
ambiguity
hindustan
ank
considerations
format
competition
##lish
confidence
##70
exs
lrs
##writ
##onet
fourth
##versal
scenario
##bb
##urse
reconst
meetings
greater
summoned
ganesh
accompanied
##orily
160
retained
arg
necessity
1990
grave
reporting
airport
legality
santosh
pollution
ore
1984
answering
db
expenses
harassment
vip
timely
sush
handling
routine
##ju
##ina
kab
vari
introduction
foods
##regard
men
##ob
##tech
judgements
controller
diam
##eraj
leaving
poor
norms
english
relatives
fed
sad
176
undergone
retracted
elicited
bis
##wers
1972
conced
##aging
1965
evaluation
claimants
diligence
hem
foot
crop
et
##21
inclusive
##cr
##hai
bajaj
pram
culmin
remarks
firs
##achal
sach
##ov
##osen
contracting
improvement
incentive
subhash
##rue
jy
agit
ruled
defending
1975
refunded
captive
dks
discer
##ek
##olve
relies
acquitted
fortif
251
##ases
##adequ
##83
alternate
assaulted
dowry
sb
exemptions
plots
rank
crucial
affili
aj
conject
fat
chaud
##ession
bhil
importance
inadequ
undergoing
presentation
news
ide
dro
##gc
comments
uncon
155
showed
feet
electronics
boards
appreh
##etch
enquir
trustee
valued
shift
expl
tribes
core
narrated
##aves
lending
sli
purchasing
unearth
ip
absorption
##22
preparation
leads
remin
publication
##tees
securing
chosen
measure
##net
manip
born
success
achieved
ig
lot
jail
134
nb
cancel
justifiable
satell
requests
struck
undisputedly
birth
top
##hik
formula
##aji
km
depending
demol
iz
tenants
requesting
valuer
evalu
responded
coram
files
citizens
recommendations
mcd
gramin
approving
sundry
thoughtful
cest
##ikh
##ela
##ima
caution
pw4
motion
ndps
##01
establishing
involvement
renew
##55
chat
##omin
allocation
math
strongly
aa
cell
##iders
abated
sustain
thorough
early
248
interpre
opted
##viable
injust
counts
reconstruction
sn
193
misplaced
101
creating
drugs
functional
contradict
deliber
liter
superior
awarding
acquiring
fis
uploaded
disclosing
chander
noc
chd
demonet
phar
nigam
agro
50c
379
grievous
roll
chron
govind
injustice
xvi
##erous
referring
chaudh
comparison
assem
rad
sez
demanding
putting
fifteen
friend
wai
policies
ascertained
panch
perusing
disregard
promised
diamond
vas
accus
##kha
saying
##95
fixing
vendors
##avi
230
testing
photographs
arch
cestat
376
intangible
rice
naresh
malaf
satellite
wal
inventory
bansal
dwar
engineers
encl
177
guilt
cham
demonstrated
92ca
##jun
imper
illust
inordinate
deems
specify
himachal
really
safely
castes
##usted
depends
1983
compulsory
packing
sab
creation
54f
device
jagdish
somet
##icit
157
roc
##80
sustaining
complying
112
consisting
leasing
allottee
argue
fsl
pradeep
306
215
1978
lok
rf
##astic
regularized
tas
##ss
phase
cant
hi
20th
##andi
guard
surround
330
dipl
##rat
segment
desir
arranged
supervision
ncd
243
498
adoption
accumulated
sra
##ios
121
levying
missing
ots
187
assault
gate
expans
forty
##ksha
uniform
interpreting
##gam
chou
promote
kg
mil
##vol
partition
expect
disturb
conformity
cancer
quo
handwrit
337
115b
concurr
leviable
concre
acp
conclusive
207
admits
tmi
procurement
##get
##thern
personally
impossible
servants
saving
indemn
highest
users
80ib
assume
sending
cart
repet
approxim
warranty
samiti
commodities
fracture
series
ailing
ved
212
farmers
214
staying
story
boiler
operators
cass
active
extending
escal
fora
petro
pursuing
468
connect
ailment
convicting
repetition
apt
mh
279
sudden
thermal
jyot
concrete
##licit
319
unearthed
##upon
misuse
grand
##ones
goyal
##ishment
guidance
unnecessary
##idar
##utation
fairness
waiver
##nani
priority
276
244
patients
chronic
mary
##ika
vacated
exclude
ventures
facilitate
load
belonged
apartment
bul
hr
fake
lesser
consultant
ttj
##ewise
gaur
ips
twice
##amples
inad
convin
variation
saw
averment
mentions
bah
324
poonam
considerable
likewise
600
cott
command
240
reducing
##ammad
##eyance
freight
nut
714
hardly
##69
retain
manually
dispatch
trustees
##gation
209
abeyance
viewed
260
enlarged
##ponent
chain
allied
laxmi
##page
23c
knowing
cycle
unlaw
liquidated
installments
tiwari
##uous
sharing
instances
1979
borrowing
distributors
inadvert
unlawful
##agi
##ining
mandates
deeming
115bbe
monies
maxim
motors
lawful
laying
frivol
##thet
leaves
minister
liberal
prescribes
##una
unfort
tenure
discover
recognised
repudiated
mom
deh
##ishing
trail
formation
counted
remittance
taxpayer
##eat
atm
dhfl
elaborate
misconce
unfortun
gand
displa
trademark
buildings
##lands
bhilai
pharma
bull
##ost
damaged
oriental
lordships
rol
coerc
founded
driven
achieve
frivolous
coercion
174
revise
esto
compoundable
adduce
##vs
179
transparency
dwarka
##ran
##itch
340
forthwith
##89
##ky
turned
inaction
evade
28th
##atable
29a
disbursed
fuel
finished
contesting
rohini
deprived
pump
pramod
##ero
often
##alpur
confis
##dr
factum
357
misconceived
night
##atively
incur
##uhan
gaut
push
rape
workmen
domin
juncture
ailments
unabated
successful
diploma
pointing
pir
permits
bodies
discern
jind
causes
appointing
234b
developing
expansion
nov
##urd
abate
neeraj
tests
reiter
faced
350
ibbi
modus
dk
jab
217
220
389
sixty
locus
debatable
pad
210
predomin
mb
accrue
gurgaon
ruk
misle
##nam
##pi
##ingu
##essel
mutation
9th
##ll
unwar
consultants
rectified
##ination
pw7
bhopal
integra
hesitation
##41
companys
gautam
unwarrant
hal
tis
remote
maje
mutually
discrepancies
unwarranted
vessel
lays
mittal
guarantees
ray
##vest
swp
mohammad
types
wants
adding
influence
bil
grants
estimation
exhibited
117
observes
collecting
recognition
extingu
violative
hoc
##ira
adit
175
exceptional
framework
dhan
fru
distributed
##adit
##ortion
entrusted
gpa
##istr
309
##uniary
brij
withheld
inferred
cable
deploy
374
rebuttal
impleaded
wed
affix
calls
relatable
reckoned
maryadit
gang
raid
##bon
furtherance
explicit
27th
projected
obliged
cotton
jour
##aram
guarantors
471
administr
nin
pas
joining
widow
adversely
starting
kail
##nu
respond
passport
categorical
chauhan
logical
fem
ou
composite
##aps
321
ccs
spon
##abled
sinha
69c
impart
380
controlling
culled
pecuniary
collusion
constrained
gazette
stret
1964
fiction
financials
protected
restriction
growth
prolong
chaudhary
##61
trying
endors
evidentiary
humb
##aching
##ashed
308
methods
ashish
dilip
gul
corrected
validly
savings
##hotra
volume
tractor
gi
prat
clearing
1971
idbi
cu
tn
ai
entitle
accusation
comment
chow
learning
pipeline
malafide
jindal
mig
abused
##road
hyper
10aa
physically
humbly
##gi
##ological
##zar
notings
challan
percent
solemn
choose
couple
stipulates
dredgers
corpus
##amus
11a
enforce
platform
##wah
##asting
juris
ee
165
stocks
advisory
handwriting
stretch
appended
ask
itas
sunita
discretionary
dump
recommendation
bye
considers
malik
malhotra
difficulty
fortified
demonetization
facing
alloc
190
mandamus
syn
asserted
##68
commencing
##ains
meter
operandi
prayers
temple
potential
jha
perf
refusing
bsnl
imperative
recons
##abh
carries
supports
sites
##rolled
hospitals
303
constable
msme
practices
gt
nurs
##atri
asia
sty
bhatia
jh
tally
14th
122
lud
mam
##deep
shak
incomes
adh
merged
##ildar
modi
reconsider
owed
bonds
continuously
kishore
1872
inclusion
schem
advocates
##cape
footing
utilised
consumed
ks
mc
##no
##oja
377
harmon
viv
laksh
##jender
shock
jew
##ayed
##oked
supplies
terminate
signatory
election
##63
##ions
benchmar
408
##bits
critical
speaks
jodhpur
nominal
##enth
viib
1894
retra
thakur
affiliates
##dhar
cargo
ended
synd
arvind
drt
467
mistak
fly
26th
237
bhatt
cloth
scrap
metal
procured
tick
##anes
index
275
vk
##ura
door
essar
ncdrc
dac
wip
detained
implied
##dar
merger
allottees
litigant
bif
chose
amr
438
uncont
moment
##oms
shuk
explanatory
efficient
advancement
owp
133a
##pet
khanna
##illary
kid
pertained
movement
gm
abroad
usage
negoti
insu
##hiana
girish
compute
rw1
discrepancy
meanwhile
elder
lect
##urers
241
medium
inadequate
approximately
##table
honor
##abling
renewal
eg
nether
1100
entirety
gurnani
216
numerous
promise
##ansh
acquire
controvert
kishan
suspect
##wara
diver
lodging
silent
restrictions
kailash
##dev
rtgs
##cket
carbon
gau
##pires
prash
##osis
usd
nagpur
duration
flu
273
nullity
ludhiana
ud
thin
kend
172
361
majeure
gun
size
##jk
##ley
highways
objectives
attendance
assailing
##itely
##loading
jam
amen
identify
friends
bottles
##stantial
conjectures
omitted
pooja
motu
elaborately
ger
sudh
reservation
allowances
little
empowers
##nath
trite
puri
deductor
264
644
displacement
shant
implead
##coming
shifts
##za
##order
wea
returning
338
encoura
mus
inside
##lock
procedures
kendriya
203
commence
auditors
summarized
##lated
patently
madan
crystal
jyoti
veracity
arrangements
cognizable
apprehension
pawan
guaranteed
approve
anyone
viia
informing
diction
kotak
dropped
##ua
##itary
impex
647
719
affording
reiterating
##ham
##eding
trig
impression
kiran
calculating
escalation
jit
joshi
##nr
##olen
underlying
##laim
pleas
nagri
rectify
##anger
##ibus
dissolved
retraction
hp
stolen
cerc
combined
cup
foc
##ulate
committing
youn
doss
war
extracts
fatal
enquired
escape
answers
yog
##las
ispat
unders
quasi
babu
supervis
succeeding
sanjeev
dictionary
dossier
##fs
##uting
heinous
throughout
creates
od
reimb
enabling
prime
677
##kot
brokerage
ancillary
dv
meantime
sans
shel
garb
corpn
ninety
##etty
vipul
fate
distributor
destro
1982
vigilance
administrator
##raft
supplying
workman
brings
previously
exhaustive
pop
378
branches
teams
tank
suits
store
##ulam
withholding
definitely
##inst
##ushan
severally
warrants
convinced
##gen
exter
unequ
256
colly
surety
presume
younger
ye
##ifies
grace
assembly
dvo
1977
shukla
4a
249
ion
##care
impl
leased
contradictory
##44
##85
subjective
conceded
ci
pil
rr
185
encro
emails
travelling
embar
faas
##avan
395
integral
weapon
##fr
perversity
chance
arbt
expend
mechanically
questionna
moving
misch
features
ending
catena
prohibited
franch
chh
uses
sitting
alien
prolonging
insuff
newly
##paper
cancelling
strateg
bullion
afore
##ulu
##oke
explo
basically
183
verifying
illness
tested
ea
circumstantial
sagar
worthiness
exactly
prashant
##chi
##terior
train
judicature
rebuttable
prepare
hazari
cam
manp
patil
psy
inserting
amenities
##aur
parking
exported
bidding
covering
sap
earli
afford
schemes
cere
liv
##edcl
##let
transpires
162
18th
surender
##onies
##chand
insufficient
resolve
habit
promiss
enterprise
external
hall
appr
153d
investigate
donations
surrounding
endorsed
acmm
scal
earth
royalties
promissory
erection
##mate
208
replaced
letting
329
commodity
270a
##ulter
##itya
##unci
288
felt
np
reform
clos
25th
247
336
wil
charity
prevail
surendra
sex
253
nominee
safeguards
archit
aar
205
abund
repairs
expand
##meas
##ibly
js
jt
##eer
##back
resorted
effecting
trusts
427
undertakings
##emption
##65
surpr
enunci
##izes
raja
options
earliest
protective
girl
syndicate
samples
##rad
##prud
spect
##di
rukka
kill
##yer
conspir
output
268
311
360
appointments
omn
jurisprud
##ades
guided
regions
usually
kapoor
try
sine
khand
drug
federation
discovered
##down
resc
submission
center
pleading
ahuja
sect
pw5
printed
dtd
gsa
##jc
impounded
ravinder
victims
punished
manufacturers
sellers
probability
hiring
cgst
az
##eving
##brid
alive
facto
relative
enables
plastic
bagh
gian
hill
29th
judicata
locations
renders
axis
awa
swar
##xy
##osition
tehsildar
resign
219
discernible
##do
409
dishonest
accrual
vary
##outed
exig
terminal
retir
silver
science
newspaper
destroy
tv
admeas
##gha
717
undersigned
tan
##ev
##vedi
restrain
choudh
confiscation
dm
236
improper
idea
architect
eigh
sg
unli
1974
redemption
ensuring
netherlands
gard
pte
##fall
sets
instalments
experts
township
admeasuring
dass
canv
contradictions
expeditiously
ngt
offers
283
conveyed
disburse
definite
mi
439
praveen
msedcl
residents
obst
harm
tyagi
broken
satisfactorily
enunciated
fid
odish
p2
differential
prosecuting
repudiation
odisha
theory
##ares
seg
recon
168
apb
1959
gandhi
bv
182
thrown
rationale
sukh
##ilation
anita
750
seriously
multi
accruing
enforcement
diabet
parity
punjabi
seat
##lani
##arte
##marks
trigger
omnibus
##rand
schools
psych
a1
jal
##urity
##lication
mater
##iah
1952
lk
##leum
compelling
adher
internet
purchasers
soni
vacate
hol
forci
worker
##ateral
houses
lapsed
jurisprudence
yash
wrongful
fifth
mortgaged
ly
pud
##edi
allo
directory
disprove
custod
sureties
trip
square
heavily
mlc
cold
bhushan
miller
occupied
##hn
##bat
##ites
periods
premature
precl
clearances
267
bha
deriv
extrusion
petroleum
184
401
packaging
##cb
325
##atories
abhish
##uddin
##eshwar
documentation
earnest
rath
358
misleading
expenditure
diabetes
cch
dies
param
parcel
nay
##92
incurring
reality
logic
yards
##kes
score
clerk
ham
r1
ats
raises
pattern
harish
moral
bunch
##imes
stages
analysed
##ses
white
exparte
353
proposing
offering
checkmate
questionnaire
##akh
rajiv
starts
winding
##craft
##erals
miser
realized
concurrent
##licate
defaults
kanpur
##ivoc
##otes
defeat
oppression
logist
captain
kamal
##lu
##nda
inception
proponent
maruti
##load
specially
moto
akin
compelled
nearly
dumb
kha
##64
##anshi
formulated
challenges
375
##ushed
assertion
obc
honest
insist
213
801
safeguard
ted
13th
healthcare
dpc
##ower
265
assam
392
seventy
ht
pret
moder
394
agrees
warehous
unequivoc
##dle
##onal
##arda
301
rub
##oity
##ku
neigh
181
noticing
package
disturbed
printing
gap
##ream
justifying
backed
protest
permitting
lend
street
1958
web
##ultiv
335
##hari
forums
probation
alta
amer
fold
rpad
contemplates
kabul
##under
##ara
tour
laches
micro
arbtn
canvass
##til
appe
forced
26as
449
ceased
daughters
lecturer
19th
delays
approvals
271d
million
##umbr
258
bhas
stipulation
wood
##uc
##ules
23rd
aircraft
geeta
rid
alom
litigants
programme
nursing
700
tu
sethi
257
refr
shifting
dominant
yard
raju
trace
psa
quote
vishwas
##oming
##akshi
466
rites
##oh
finalized
rohit
formalities
rpc
sai
toll
364
bonus
emphasized
broadc
sometimes
152
max
322
##vened
pin
wes
##eness
##oul
##lace
correction
german
sury
305
349
advertising
##ued
##ureau
conspiracy
logistics
##eem
guiding
383
allocated
dacoity
whis
aditya
17th
272
1967
testimonies
structures
sot
##ays
417
analog
style
cultiv
launch
bhan
organisation
godown
kun
fort
arb
##selves
cheating
absorbed
rm
##si
reversal
ongc
departure
patidar
larg
afforded
abhishek
sewa
194c
hindi
ij
##munic
##vek
shal
therewith
demat
368
295
bureau
reh
interview
transact
##active
24th
occur
easily
##az
accomm
deliberations
miserably
287
prescribe
tools
xiv
##aa
##dv
224
minerals
trademarks
gaurav
ipsa
army
allows
enforced
partially
estopp
rh
compilation
16th
levels
##ampur
1957
pnb
tir
##aster
accommod
household
cf
parked
maturity
agenda
labourers
scrip
tabulated
pic
##ze
##ously
salaries
countries
session
342
cumulative
telecommunic
han
hur
p3
##mer
##fp
##enger
alto
##ola
vivek
indulged
altaf
##read
meena
risks
udy
##where
##aly
##ots
estates
deputation
contradiction
convertible
##ashi
apportion
proxim
upd
moef
layout
overriding
srinivasulu
sachin
krishan
override
middle
d1
pick
sens
##omy
##ravity
246
trees
289
privile
warranting
checked
eastern
xvii
eighty
dlt
tower
arth
prescription
ourselves
benchmarking
albe
##iably
regularisation
practical
connectivity
pratap
lakshmi
bb
jute
courses
stone
unc
##avour
259
defaulted
likelihood
compounding
##mb
##lin
##ilt
##eti
goog
1948
ignor
120b
dharm
slip
lis
##rum
specifies
21st
albeit
bach
suraj
332
bazar
vidya
survive
shape
gif
##adur
licenses
networ
controverted
narrow
387
hybrid
belatedly
pipes
wedlock
perfect
mischief
dashed
nish
tub
indo
depositors
bhagwan
forfeiture
aad
gam
##elming
append
pays
poc
##inda
##ucherry
44ab
weightage
bhagat
thoroughly
cnr
##pora
textile
angle
altogether
bio
rain
##ec
gram
usha
diaries
overruled
269ss
chatur
task
manpower
exit
depravity
enabled
##roved
john
instructed
withdrawals
happens
neighb
lh
attack
utter
khat
##mes
sports
326
441
integrated
hired
pod
resultantly
koth
seventh
assigning
inadvertently
tort
chet
thereupon
butt
1969
precise
jitendra
franchise
bp
revival
overwh
dress
sketch
overwhelming
##utral
uncer
pw10
fasten
homes
##bz
absurd
forfeited
unfortunately
puducherry
big
##ering
novo
neutral
satisfying
google
##ciary
amounted
scan
interesting
quarrel
gds
attending
avoided
reflecting
dcf
scales
routed
depict
tehsil
ky
##uda
regime
229
ascertaining
gel
king
##inqu
exporter
generators
22nd
confirmations
encumbr
vishal
nan
##ils
postm
448
234a
ende
##ratech
udyog
##iaa
designed
balances
##ksa
##ographical
tamper
restrained
fertil
mass
mact
##anta
##erved
restricting
lump
livelihood
cos
evasion
##puri
river
cars
conditional
4200
installment
##oud
classifiable
saini
adhoc
vivad
##iet
##lam
inpat
##arti
prompt
##shr
outsour
##asive
sunder
tea
becoming
410
alteration
encourage
reforms
uda
1949
metro
vikram
unauthorised
route
sushil
disbursement
inpatient
shr
indis
##iac
portions
ultra
dum
rb
tor
##we
##62
guwah
additionally
391
koh
automob
pretext
uncertain
ku
##cated
##wt
ongoing
abide
retire
csr
enshr
ships
drop
mud
undertakes
gravity
diagnosed
dispensed
fidu
guwahati
sort
passage
242
paperbook
amicable
governor
rigor
mant
##orse
anywhere
propose
sexual
fiduciary
cv
mca
displ
awards
80ic
brid
saroj
medicines
kb
ol
pv
arjun
coch
citation
dissent
indulging
ara
lose
tio
##waj
##kan
##key
realt
wat
nitin
western
##pg
##udes
implies
278
280
slr
ok
sv
294
386
utt
69b
td
asian
arm
membership
investigated
appln
jp
gok
someone
engage
solitary
preparing
incentives
analyzed
contd
pirya
forcibly
ones
citations
specifying
rooms
restraining
culminated
atul
mutuality
brib
sight
##lines
dear
doc
362
437
resultant
engg
marginal
jabalpur
eoi
##alla
348
certainty
##ock
buying
steam
infact
raghuv
ari
vati
##cal
##wati
26q
rajkot
interpret
laboratory
journal
resignation
realtors
wider
wak
##hol
suble
##uri
spa
srs
cpp
anti
intra
northern
apartments
wholes
aimil
enjoyment
warehouse
milk
unlike
naveen
##haps
##ml
perhaps
insisted
##ists
demar
communicate
quoting
arguing
299
peak
lalit
bike
taluk
durga
sik
crm
weak
virtually
acre
##alli
reputation
furniture
violating
resorting
appealed
235
drivers
container
accrues
ample
khar
uma
shre
mines
subscribe
sainik
clinical
gc
421
harid
script
abundantly
garden
desh
fash
delin
approx
399
designation
split
zonal
##ws
##gged
##67
prospects
riding
affecting
boilers
kohli
vatika
##inath
relinqu
eva
wrote
candidature
rebutting
introducing
bigh
sse
##elve
notar
##ada
290
compensate
accidental
litl
lad
quota
surge
ntpc
hostile
closely
gali
unil
accountants
decline
contributed
540
##99
##wat
##erson
operates
twelve
cease
ignore
elaborated
fluct
entail
privacy
huss
adverted
##ritis
agitated
fitness
##rations
##riety
1968
508
quantified
pond
passenger
evid
efficiency
placement
equated
waiting
recalled
bd
edition
##aterial
##ppl
prospectively
enquire
nominated
arthritis
kothari
##lesh
citing
pregn
handover
365
phil
studies
pensionary
runs
fdr
coroll
cpios
merchant
modern
estoppel
convers
##cept
refuse
ahead
##ster
##abri
##itsar
298
communica
retention
fraudulently
immaterial
supervisory
nu
mineral
##elsat
consistency
concur
unrelated
amply
choudhary
camp
alco
enh
movable
46a
cooperate
pngr
fides
mess
##oz
throw
##anshu
225
subscribed
mahila
dehrad
enhance
kesh
realty
##fering
##khil
407
346
nirmal
##ounder
sumit
loading
252
confident
218
315
396
moham
madhu
dehradun
##tr
##rah
totaling
differently
excel
sixth
hypothet
impleadment
hussain
tend
##sor
boy
interfering
805
746
achieving
thinks
udaipur
unilateral
r2
rop
feas
132a
amritsar
delinquent
male
1970
450
practition
batra
pngrb
mys
##iors
##kd
##ows
##licable
crew
blue
comprised
##orters
##pee
buildcon
wishes
hsbc
corollary
tha
inspected
reaching
purportedly
pers
nep
aop
281
405
1954
thirdly
krishn
##lr
asha
feels
audio
van
##encing
nobody
guide
infotech
1922
chowk
mst
##match
cave
171
presumpt
discon
fc
hma
##ook
##esis
intelsat
distt
approaching
negotiated
bahadur
solemnized
bse
ek
sro
appra
decides
uncle
grams
318
ccr
extrusions
kil
##met
timelines
sheikh
purport
328
roads
531
silk
contacted
analyzing
ajit
##uma
##andis
unqu
rests
medicine
strike
imparting
uber
##gar
presiding
##rupted
investing
conclusively
##eha
encroach
canvassed
rom
##itur
anj
meer
desai
293
##ront
793
registering
played
mixed
speculative
2ab
##ico
forens
denies
419
urgent
naturally
juven
expeditious
eur
wi
meag
declining
succession
manifestly
laboratories
gay
##ech
modes
493
cards
baby
##nor
##cot
importer
##valent
forensic
inder
##mat
##tan
##arpur
rever
investigator
prag
dayal
warehousing
##fted
reinst
forgery
prevalent
359
548
bidders
karan
alloys
rigorous
fle
hect
alld
##umin
transl
solicit
adjourn
##aduate
instalment
mistakes
bish
11ac
hero
228
propounded
dtr
occupants
chaturvedi
bone
##ump
##eto
confusion
birla
umesh
tnmm
tree
acj
meen
interro
pw6
282
hypothetical
gms
##mv
##fi
##veen
lapt
intends
unserved
raghuvanshi
isol
seci
marlas
clubbed
hypothe
laptop
sla
complained
##izers
rama
384
realm
utmost
borrowings
alias
matching
voted
mehra
shortage
eventually
1881
constrain
siddhar
poss
##rated
karn
mg
rot
apposite
##athy
recruited
picture
ignorance
bribe
kav
pd
pit
##vely
inapp
chances
meters
mutandis
universal
lr
##vision
annul
advancing
occasioned
upsc
focus
dry
hq
constant
dup
##adha
amrit
spread
surat
brit
rented
stamped
negotiations
jog
##cive
191
obl
##cles
presenting
circu
385
infratech
cbind
administer
crystall
vy
##71
parting
403
fdk
thakkar
uncontrolled
wilful
enshrined
evacu
gy
##amy
evaded
546
removing
merchants
kus
##hir
amending
345
exchanged
estimating
agreeing
films
rawat
weighted
maheshwari
pio
##atis
vires
affects
mouth
retiral
nal
##amal
suman
embargo
wta
##ray
perpet
stra
trf
revoked
343
##max
values
craft
knew
398
ncte
spectrum
kas
slow
stores
capitalized
bala
broadcasting
kbe
oe
##ided
estt
totagar
vision
frust
vire
infos
textiles
disregarding
bath
coaching
271e
probate
wakf
aust
rough
##96
charan
##kari
surya
examinations
rulings
surg
crimes
rajeev
evidently
locality
gazetted
mine
underw
carriage
demised
bhup
career
590
consulting
jaiswal
ulterior
confidential
##etu
##alled
automatic
dictum
498a
sublet
kbepl
dak
##pired
orna
span
312
whatsa
feature
##oop
363
351
concurred
whisper
largely
wholesale
inapplicable
whatsapp
ber
##ls
##66
inqu
dee
##aben
reconsideration
dummy
##umk
guideline
altered
kinds
dishonored
nearby
dissolution
diagnosis
cct
##kins
##gars
questioning
rob
punitive
##ccb
fiscal
nr
##73
##bur
##brand
##uman
highway
carved
feed
355
488
occurring
mutatis
unique
gty
milit
1960
affirming
mails
remark
fulfilment
geluv
promoting
summarily
persuaded
dair
##bar
repeal
impedi
bankers
mandi
enactments
babita
exploitation
alcohol
mall
##yar
casts
taj
commissioned
262
412
578
meerut
900
alleges
fallen
markets
narcot
farmland
cutt
anom
advise
573
pradhan
utilize
possibly
geluvu
ry
credible
##avir
signals
centralized
284
employee
raiding
uae
itc
alim
changing
exhibits
diabetic
indemnity
yogesh
custodian
notarized
dairy
tong
##ox
##meet
##ruct
compliances
aw
##gopal
##athi
pocket
850
golden
shelter
iq
init
##alia
##ppa
complic
recom
rajender
standi
334
339
attach
##how
##tage
condu
##ially
behest
restaur
unde
##affir
660
debar
inferior
ner
ability
decis
310
##khar
416
visual
xxi
apprised
mysore
fetch
reaffir
replace
291
opinions
mostly
alternatively
dmc
fn
##jee
heat
##ande
402
445
447
gujrat
forthcoming
frequent
affixed
khandel
infosys
##atives
##earing
resum
faulted
revisions
559
cardiac
weighing
evaluate
kusum
kwh
prison
sue
545
465
recalling
dod
##icide
beat
##idhar
##cha
coer
confirms
regulated
hardware
solicitor
shir
abnor
satya
demise
contributory
##shell
compete
drawback
machineries
totgars
demolition
nutshell
rolled
ras
rpo
##pesh
pri
suz
##anda
fired
computers
boundary
roht
extinguished
surprising
appendix
haridwar
danger
gor
##lor
opd
352
coverage
wrongdo
emer
striking
jaypee
kanta
explicitly
##mt
singhal
emd
deviation
travelled
repudi
tamiln
postpon
255
232
vacation
governments
lifted
##stante
licensed
mamta
tongue
khandelwal
##rich
intend
resolutions
balan
quarters
kuldeep
meenakshi
hat
dept
sood
pool
277
groups
mortem
summarised
underwent
ped
defaulter
arrayed
indisput
stored
wheel
415
kalyan
suddenly
dent
gad
nation
sf
zero
seiaa
recital
caut
compensated
pt
p5
##voc
anur
insp
uploading
empty
54b
compliant
evidencing
bun
jat
lata
##dd
##enced
spares
signal
violations
trades
usual
implant
blow
##dict
byd
##than
consec
##tery
##andeep
cita
confers
317
1966
desire
509
expressing
intimate
bottle
rolls
ornaments
cuttack
armed
331
##pable
indus
landmark
memos
286
bars
589
voluminous
adhered
surgical
ire
iota
pill
##07
ctk
234c
trader
encashed
formerly
message
juvenile
418
650
implementing
alimony
aksh
fals
kath
lives
nsel
##orbit
##lets
quiet
1343
ravind
doesnt
233
##aringly
sufficiently
461
470
predominantly
pocso
nid
disent
finvest
obstante
leaf
poa
residency
persuade
enclose
indemnify
##oury
confess
categorized
cwjc
waived
kamlesh
flav
bol
ton
##cm
266
791
fight
##anges
##anth
extant
generator
smc
film
withdrawing
remittances
cabin
honorable
emerging
hour
##front
##itu
abov
derive
ghansh
quarterly
unabsor
p4
##bha
##ese
aspir
##ips
mandator
ceases
shed
underval
parveen
accountability
cloud
famil
##pathi
abatement
reimbursed
buttress
totagars
ice
uco
##ros
##asted
sult
261
trend
##khla
origin
airlines
consciously
illustration
jite
##een
##stone
shut
gunt
profile
increasing
597
bleak
fruit
telecommunication
##orbitant
unabsorbed
##ton
##graph
alka
##ortem
574
1882
irrevoc
sard
##ole
detri
simpl
judicially
narain
procuring
mtrs
savoury
cgh
ik
watch
##rise
drill
plen
moti
##ojk
cuojk
picked
avi
mf
tcs
##elty
owns
211
minus
bailable
561
nominate
lockdown
##vent
rekha
sea
tripathi
bhand
mismatch
##hani
##versing
fitting
southern
ghulam
sudhir
fashion
jitender
ftc
mts
sle
quashment
##mony
53a
importantly
television
ease
gut
##74
neur
pw8
solid
mahendra
garments
miscar
desirable
networks
lent
mans
p6
rera
tand
upfront
opponents
314
bald
misre
cbse
deputed
playing
clarifies
bulk
surgeon
mohammed
mandatorily
miscarriage
##winder
whims
stake
pari
crla
passbook
depose
imports
venk
cctv
ghanshyam
jv
neel
pw9
realised
ceo
##phal
incorrectly
flaw
dubai
sensitive
fib
##rh
inquir
stale
amenable
trained
cranes
confession
390
641
functionally
jap
sre
##oka
##ubhai
ibid
388
ganga
ny
##isely
incap
##acent
369
regulate
##psed
549
1321
narinder
hydro
ankit
wel
##jh
ish
prab
preservation
431
pw11
comparability
negotiation
blind
nhai
succeeds
waters
##ken
##icated
##gend
abb
rav
##aik
describ
381
capric
678
typed
bifur
wag
yrs
spell
##ogi
344
naz
reminders
manipulation
evacuation
tamilnadu
a2
mfa
seth
disapp
ago
seeing
367
qualifies
earnings
postmortem
consecut
nour
##ukh
##gated
season
##veri
intermedi
grain
graduate
##jections
adjacent
ked
##hh
##aspur
##amed
exorbitant
grad
roop
discounted
obligated
bids
wait
curt
freed
hostel
gifts
##vel
##bl
452
##ano
##icul
adal
replication
##outs
verdict
##tension
436
enduring
radh
##oon
##garh
triv
hereto
legs
checking
withhold
budget
sic
disag
transition
correl
guise
roof
judicious
sax
buildtech
derog
precisely
compulsorily
optim
manipulated
intermediary
fmv
ranch
##eb
knows
envisages
locker
privilege
ravindra
pist
argues
century
incorporating
deprive
sabha
ias
##owners
effects
incidents
glass
sdm
reminder
hypertension
##erving
##isting
informer
disputing
seem
saved
460
lacks
destination
entrance
##thetics
ticket
triggered
impediment
##ching
disorder
traded
scod
##izations
brushed
aprop
sangh
window
269t
sundaram
harmony
bifr
practitioner
##cond
##esty
bhav
meaningful
draws
believing
talks
induced
licensing
apropos
ace
lps
pou
rg
rand
rbe
ugha
timeline
327
458
furnishes
##pura
kaus
target
##ropic
narration
adducing
kyc
fertilizers
ws
##atio
##anging
##anti
couri
alumin
aband
##iae
limbs
overt
mandal
##uki
forwarding
cwt
disturbing
analogy
endeavour
mend
##inter
anju
lak
impress
outer
valley
guess
221
speedy
jewel
british
dot
tell
tus
forg
##quitur
taxi
compensatory
##ltry
proposals
sunrise
remedial
geor
skills
##ooth
aadhar
##uka
drawings
equality
flows
friendly
dor
##arsh
pars
maker
223
balaji
749
726
contraband
accompanying
cghs
bere
bounced
xv
nod
noticees
##arender
refuting
eventual
javed
pgcil
worthy
shoes
kanals
##wanti
rubber
nce
pled
sms
##rk
##urai
##athers
347
rajinder
arrival
poddar
poultry
iia
mav
##wide
##itz
invite
spd
numbered
intimation
206c
fluctuation
eia
##face
##lave
abdom
crs
worksh
refuted
scrutinized
comparative
absolve
bridge
saxena
bereft
##kay
rele
proform
sept
incom
aman
guest
realisation
hospitality
673
telebrand
broadly
flag
suzuki
sultan
##ki
1912
imply
publicity
297
496
exchanges
filter
formality
flakes
cruelty
ster
complicated
acced
trish
unmar
##esha
remission
contracted
drain
propriety
billing
ccm
landlords
##153
vijaya
lapses
agitate
cartrid
adjournments
holid
chop
revive
crossed
discovery
5400
magn
managers
proforma
bai
eq
jose
sare
##oot
##rotech
withd
launder
ambi
label
pmc
cadres
exigency
cochin
gos
##rtc
arcil
deficit
allege
dutiable
426
publish
pipe
chamber
desires
synthetics
circuit
courier
nab
##oy
##lined
##iced
80hh
surinder
519
destroyed
unmarried
cater
kart
##icksha
##uts
resisted
construing
modifying
cgd
dispatched
bilaspur
precluded
uttam
withdrew
sip
vic
wire
lawyer
interalia
authorisation
directs
2788
sparingly
mandir
560
souh
dissenting
joginder
kjk
lovely
480
devices
##caution
skin
dicta
nasik
extraneous
feasible
rrs
siv
pream
precaution
explains
proposes
586
nandgopal
jet
vod
puneet
complications
kin
tee
##sin
##san
asj
##ptcl
10ccb
revising
occurs
sealing
llc
weighed
overwhelmingly
reverting
sardar
george
hor
posed
##wadi
anim
##ainted
spr
271b
bias
floated
cured
dun
##cos
asphal
ways
apl
435
judiciously
leasehold
permanently
empower
slips
rathore
preamble
ov
wdv
abst
unac
accidents
diverted
cements
flood
morning
hazard
flavour
telebrands
aag
mul
omit
rea
revocation
propounder
traced
vaish
healthy
##joint
elapsed
codes
rescue
demarcation
straight
abnormal
cuj
dim
kgs
lp
tk
##tings
reapp
medically
bhar
negi
drafts
margins
inherently
vitiate
nidhi
aux
mang
296
430
sanct
syed
##ologist
recruits
dw2
diversion
derivative
caveat
cine
upp
thumb
1904
panna
550
mahavir
ranjan
dont
resorts
pulw
244a
ridden
5a
hom
hier
##pm
##che
abscond
443
venue
##laimed
ranchi
avt
##iman
enrich
tera
favourable
separated
521
switch
##ushal
adequately
##deva
infraction
diamonds
refrain
pulwama
cca
jd
##90
evening
ocular
575
pressing
influenced
moefcc
hors
ki
map
priya
reside
conserv
bharti
prosecuted
multiplier
accumulation
pilot
pistol
##van
##olic
##aker
spv
cpf
refundable
consecutive
hierarch
nv
##hat
##hati
adhere
404
misd
arranging
voucher
delivering
pregnancy
tut
##iratta
una
transpired
spare
sonia
530
indulg
asphalting
6a
gn
hip
ox
auth
ern
##mani
spelt
brain
knee
prosecute
endorse
smooth
464
commonly
rebate
ambala
sahu
literal
paramount
##att
inward
##rej
appli
anu
tact
bhard
certify
bags
unequivocally
abovesaid
freedom
kes
okhla
##orthy
##iraj
##ordin
whereupon
caught
grains
##eshwari
433
backward
adj02
professor
pursued
rana
accessed
peaceful
precision
##aviour
sometime
giri
fastened
vodaf
bhardwaj
eb
py
vit
inev
deficient
declaratory
restrictive
concealing
cutting
traveling
teraoka
shro
##forth
hearings
meticul
760
radio
guardian
auxil
hans
sas
vf
##ture
ase
animal
##aman
neetu
12ab
opposing
##opard
231
specialized
518
630
rashid
advisors
annulled
vodafone
3cd
fish
ration
rud
##cers
##ker
##zma
asg
##uria
compreh
##oli
indra
includible
dutt
503
434
listing
194a
enclave
valuers
scene
reckon
uncalled
gro
pledge
shashi
chir
height
enrolled
##itech
413
pandya
female
coercive
nourishment
indulgence
auxiliary
ring
tin
vu
vine
inorder
ast
shetty
##rao
abhi
corri
ansh
529
essae
futility
distribute
photo
tickets
workshop
chopra
souharda
avtar
shroff
lite
narender
##ishi
##ician
prer
prav
##amps
exam
##eworthy
verifiable
456
prescribing
jeopard
jewels
presumptive
kavita
##gendum
eventuality
corrigendum
c1
fear
tie
##hy
##but
##isar
##igal
adampur
##thora
497
532
##atched
blocks
expectation
predominant
dharmendra
gow
sag
##tel
##wad
##ford
lex
assail
rentals
young
ashw
availment
veer
religion
biswas
promptly
hypothecation
pon
##pro
anup
benami
285
451
geographical
subscribing
tractors
reconc
nodal
##yl
conjoint
shad
501
44bb
breath
645
khur
940
disburs
renov
restaurant
nse
noteworthy
shub
revived
432
designs
cdr
nccd
nashik
interestingly
##tp
##vir
##organ
shail
stbs
seema
pcr
godrej
outsourcing
bin
##mers
tej
image
425
##ibhai
##right
prudence
dispensation
kidney
xp
##bing
convened
chin
challans
pace
puts
excludes
organizations
constructive
vests
nim
sange
til
##vnath
##rade
##person
##ishna
speech
plethora
medi
728
cmm
osr
jayant
sachdeva
deployed
perpetual
kaushik
cure
##inely
bef
resigned
agar
caps
exporters
insa
11b
madurai
amarjit
america
parsvnath
##qf
##kia
##ene
suicide
##ulsion
crane
hemant
shanti
rescind
oecd
mendiratta
dug
wage
##js
##etime
11ua
knife
457
increments
humble
boxes
gear
sick
##jr
nomen
honda
soil
partys
replying
463
impleading
##2014
292c
preferably
vigilant
oy
##ih
##wood
retaining
spice
steels
ilr
inadvertent
discontin
narcotic
reaffirmed
indisputably
##mia
##pan
##pic
##arm
##chem
##etan
##amation
repl
benchmark
refin
642
families
trishul
dip
rare
tay
##anc
orally
##imla
stream
parikh
##otropic
excav
curative
assignee
sponge
suspected
##umkur
ampl
##ped
##kim
##arc
haji
##ulates
undertook
lacking
electricals
gauhati
strategic
p7
rib
radi
sib
vc
acute
stc
##usa
agm
cook
payees
lien
upset
opposes
##apers
depositor
oriented
begins
enclosing
unfortunate
##pgb
quietus
##ork
itano
##ght
##licted
thane
bupgb
symp
462
visible
552
swiss
colleges
acknowledge
awaiting
bigha
dad
ost
pion
tumkur
##hru
reversing
anir
crz
tribe
planned
65b
672
nagari
contemplate
amicus
scrips
akshay
gal
gks
rn
byn
adjusting
637
escrow
succ
worthwhile
lux
thrust
hierarchy
pioneer
gag
##eja
seats
sher
neha
cheated
newsp
bhub
490
addressing
falla
administered
aviation
tushar
unaccept
newspapers
awar
kitch
p8
injection
casting
perkins
centres
distant
saj
bescom
158b
constructing
sanjiv
population
psychotropic
keshav
japan
eth
##ohar
adani
##room
commits
542
755
funeral
radha
fds
vard
forces
fao
invar
mani
avin
declares
emphasised
fdrs
launched
unacceptable
ln
sct
##kal
##illy
visa
farmer
inducted
bottom
292b
ipso
constraints
laundering
nain
##ndest
##icor
##itha
china
clandest
##izer
credential
##minder
singhvi
440
478
1947
920
786
mobil
icai
glaring
##hri
##imate
chr
ifj
timber
##amini
bhavan
paul
423
donors
fields
extraction
gpf
migration
kur
ola
rod
##matic
##oth
exim
arith
##shad
metals
##ields
vesting
begin
footage
hald
traceable
accommodate
datta
##iram
anybody
petrol
475
477
acknowledges
embod
292bb
##linked
austral
##ickshaw
vineet
eso
tc
##oom
dealings
4800
499
537
765
chairperson
enjoying
easy
residual
variance
variety
demolished
mistaken
nomencl
hl
jul
votes
wo
unloading
landowners
revolves
signs
regulator
renting
428
609
villagers
1169
laxman
popular
relinquishment
cord
hope
13b
mangal
discord
slump
713
liquidate
probably
dgca
inventor
dlf
immun
bt
ck
##das
##olving
entit
spur
371
counting
635
parental
mes
treas
regulating
##wali
481
prejudiced
keys
584
versa
minority
budh
aimed
aiims
exigible
reinstated
drilling
kitchen
bit
dic
mould
yam
##owed
tran
##endar
neck
materially
pw12
narendra
comprises
automobiles
curtail
bhi
##fk
inn
resides
conspect
manj
80ac
cbd
720
mohit
enforcing
enjoyed
paddy
perfectly
uncertainty
persist
avinash
conspectus
aqu
jj
rich
##icted
##arted
alok
peruse
ars
relieving
airways
640
juniors
unfit
variations
cultivation
capricious
jign
toy
rach
rightful
moneys
witnessed
636
##ography
ppas
resource
manisha
prohibits
touchstone
conversation
kay
##dc
thap
##ldc
abusing
bhu
string
dharam
##eevan
piy
venkat
ernak
ball
##hal
##nh
##mond
##br
##nded
##ench
towers
##ulla
attaining
shekhar
imag
harb
inflicted
flight
646
deriving
665
organized
dynam
introduce
pieces
ensured
ancest
shakti
neighbours
interrogation
invariably
bak
kel
thom
toto
byk
##alling
502
382
discard
591
593
731
lodge
travels
hob
nbfc
concurrently
spons
debarred
ambika
gee
##dhi
##atore
##oral
crick
imposes
316
contrast
crossing
455
601
740
rws
medication
growing
crops
clothes
bhaskar
##kaner
yamuna
love
rang
comfort
grown
505
privy
nikhil
designers
abhin
bleeding
nayak
encumbrance
inspire
trivial
nic
oxy
vks
##cop
##ared
pran
projections
tension
infring
474
bikaner
registers
divide
llant
recipients
##yanka
fruits
bhasin
bhubanes
lane
1950
526
625
analysing
##ottam
nagpal
##imbatore
evaluated
strategy
apportionment
bhubaneswar
kad
sed
##ndant
inext
coins
honours
##ptic
shortfall
648
dgit
budgam
improb
specim
display
initially
awareness
cricket
inextric
mens
##odia
partake
coimbatore
amort
393
conflicting
kamla
akash
ambiguous
sciences
polymers
deployment
hazardous
gist
ih
##77
##enath
tob
byp
incidence
##ulating
##estated
tranch
political
color
513
honoured
dispensing
ksrtc
recomput
sleep
lone
sac
##hant
##iance
##itis
##isal
genesis
saran
hitesh
veil
pumps
oxygen
mush
##ori
##esth
reorgan
##quar
provisionally
transpon
11ab
28a
presuming
weapons
bhawan
teeth
icer
mund
ub
wt
##icious
##olu
france
bose
bother
##hiya
##roverted
1650
414
defaulting
waive
1168
fern
sanstha
cereal
restraint
gczma
ssee
aluminium
##mant
##vendra
##ayi
activ
##sue
behaviour
patrol
imv
everything
reviewing
721
unequivocal
germany
gorakh
unaware
lift
nra
##ican
##ires
cool
356
429
villages
inflated
combination
estopped
egm
abandoned
fing
fled
forem
##odi
centers
swelling
macps
wheeling
sangeeta
nomenclature
bund
tm
##eel
##cap
stamps
conspic
1638
respects
shriram
violates
discoms
611
cbwt
520
jump
cwp
ccps
segmental
franchisee
conspicuous
dav
elev
hk
pra
asc
##ceration
generic
trauma
converting
contravened
copyrighted
clerks
literary
adalat
3b
ale
fathers
stu
evasive
manju
logo
coron
funding
spices
artistic
489
emi
001
temporarily
crux
threatening
pulland
american
shadow
thomas
##alal
##icks
##ifl
vij
interlinked
periodical
pwd
circulated
provisos
572
turnkey
tarun
##porting
mahto
982
vagu
demonstrates
bandra
##ohit
cautious
joseph
rata
##asse
forex
gopi
loaded
loquitur
barring
565
##acco
quantities
floors
860
annually
donor
unrebut
programm
mathew
uncontroverted
pledged
piyush
ich
sod
tat
##98
attain
weather
depb
marking
contribut
techni
positions
1951
occupy
unnecessarily
proximate
bm
comparing
henceforth
commissionerate
exemp
enters
##rarian
inherited
defining
pathak
encroachment
wrongdoer
prerog
jignesh
abhinav
improbable
foremost
unrebutted
kerc
sten
1194
revis
373
580
lifting
sectio
duplicate
row
##ingh
manohar
roi
effective
muster
##shree
cpcb
pertinently
##built
cryptic
transparent
dishonestly
obliter
misreporting
jda
##yani
##jot
nokia
##ilayi
acb
neena
delaying
543
urge
##ounce
##ucid
isolation
tobacco
prerogative
ges
guls
wadh
##ao
##93
##rani
##pose
##ichand
triable
scoo
##unds
attaching
607
agriculturist
biom
cessation
##arshan
fabrication
##krishna
dubious
273b
unquoted
sarees
naid
pant
sree
##97
washing
##uten
parted
atle
precious
libor
technically
790
flowing
integration
jewelry
sanctity
inextricably
a3
era
gta
rast
yr
##word
whic
purpos
owning
raman
718
fittings
779
pleads
vishnu
rigour
exhausted
tampering
siddharth
gulshan
atleast
sica
vai
stt
transit
rafi
postulates
phool
clarifying
occupant
morality
huda
rv
##iam
##mous
##wd
alam
##aka
nehru
sourced
colon
judiciary
avoiding
761
mathur
pushpa
derivatives
gfp
mission
##w1
shil
adulter
oppose
overd
pws
didnt
699
568
ceiling
951
kulgam
prolonged
walk
muslim
khaj
transacted
tendency
crystallized
guntas
welcome
cooked
handled
454
sells
968
storm
depriving
tabular
knowingly
reimburse
jsw
releasing
ernakulam
gwal
rppl
rear
##idely
ites
##ollo
##uling
lake
agrarian
1500
lists
retd
loco
maintains
gurug
happening
taluka
peacefully
survives
worldwide
cvd
commens
commences
outright
reval
readily
obligatory
calendar
situate
estimates
lanco
1497
automot
missed
mavilayi
specimen
mith
vr
incharge
##anim
rend
prest
seh
inco
impugning
models
rathi
785
compounded
basement
construe
germane
gwalior
ccit
kund
uc
inbuilt
anant
##util
##ulal
chest
chits
une
earmar
deposing
2303
drafted
rajni
expires
##bhav
analyse
diligently
prohibit
encumbrances
katta
##preet
shot
##sung
yearly
upload
singla
80j
688
khata
pondich
nirmala
patrolling
scooter
gurugram
vrs
##gg
chak
crmc
wills
vargh
myself
971
telegraph
calculations
vipin
361va
virender
cbdts
1b
##cast
afr
1035
##tures
25a
colourable
minim
farms
minds
irri
495
redundant
looks
recognize
elucid
silos
durg
meagre
inevitable
ostens
prestig
pondicherry
##zan
prit
grading
climate
##laxmi
brandix
cyl
venkata
cables
anomaly
reconciled
eou
fs
fet
kup
##well
deponent
##utch
##ung
evolved
sheer
saur
01st
909
samsung
advertised
renovation
succumb
hobli
akh
ccl
jcb
lj
##idual
angan
agri
##akar
depicted
invasion
objector
483
486
harvest
collective
flour
670
remanding
ranbir
acknowledging
preventing
unsat
clinic
phraseology
treasury
stringent
doshi
hm
loses
tib
##flow
suri
##ushing
gop
contribute
testified
die
476
dape
swe
escaping
recovering
hsn
willingness
structural
cci
dir
##sha
notify
disabled
preeti
saluja
adjudicator
classic
569
legislations
cea
currently
##chana
ghosh
rasht
dumping
priyanka
automotive
1s
##nk
sew
actively
indiv
depot
productive
570
terminating
sweep
tendering
criterion
kochi
sahkari
cleaning
licensor
byneha
naidu
niz
ply
goi
transported
##liable
handlo
shara
##vene
edel
mahender
813
avails
obtains
culpable
histor
voice
evaluating
sukhdev
tandon
vicar
won
wake
##kv
##jar
##orp
##iser
coin
cane
arbitrations
excuse
946
secretari
diagnost
kapil
rfp
##weiss
random
cylinder
unsatisf
icd
vex
##200
tap
chun
exp1
mrpl
balbir
696
656
730
relaxed
unreliable
strive
truthful
circumvent
##batim
secretariat
kat
kptcl
##ues
##vk
##itr
prabh
detain
unanim
defra
##ipat
pawar
sang
headquar
controls
lodha
fractures
clerical
illustr
commanding
lkw
proximity
undervalued
succumbed
830
hkh
omax
##sight
##pande
bee
anterior
hong
unutil
quick
##illed
couns
subjects
680
563
conferring
fundament
stipulate
rolling
shreenath
confessional
irrevocable
varghese
kupwara
edelweiss
eif
##listed
##astal
acs
coastal
##umat
crediting
plate
adjo
vacating
rishi
efunds
misconception
curiae
##etax
abhisar
debiting
disagree
individual
bc
eow
gol
oj
pac
##osph
expire
powder
efflu
violate
##wala
prosecutions
411
slight
1009
statue
510
plantation
993
curable
skilled
menon
killed
bachel
depicting
omaxe
tkr
##lod
##orious
casted
resale
ordering
proven
##ondon
##odule
restoring
specifics
745
970
elim
bhagwati
aims
residuary
dubey
recitals
credentials
minimum
bpo
dave
guru
module
uj
uday
xk
##oft
bysu
hav
tagged
abet
##umber
1200
moa
684
deviate
negligently
mtr
yeida
scanned
subletting
commensurate
og
p9
##aw
##inges
##isers
adarsh
viable
depression
documented
apollo
710
derives
626
1864
cus
gcc
ome
xero
tomar
forb
wash
##seb
judged
quot
verbatim
plast
settling
saha
rajan
sonu
424
701
bij
shopian
736
fiit
divya
concepts
epis
upgraded
dehors
immunity
transponder
xerox
dha
fsi
jak
##urch
##race
responding
abo
ramji
headings
infusion
ratan
nik
870
occupying
destruction
indexed
automobile
decisive
incometax
acceded
disbursal
discontinued
afraid
adjoining
dust
jack
rto
##head
##lad
##81
##imay
acri
disk
cris
##akumar
certifying
pho
472
idle
dalmia
ireland
anshul
overdue
trou
##rang
##gin
1934
transform
wrongfully
turb
unreal
preposition
discounting
diesel
bpl
ei
##fla
##91
##idc
arya
authorizing
sinc
extends
bros
regularised
saigal
belt
753
610
incidentally
##ipurpose
sarita
designing
containers
multipurpose
##cript
inspectors
waqf
tenders
breakup
calculate
taxpayers
sikkim
optimize
absconding
bow
vad
yo
##bard
stones
coven
affection
spend
irration
oils
offenders
femur
kidna
divergent
fateh
tanker
pravin
persistent
gescom
wadhwa
fiitjee
7a
tall
zah
que
firing
whoever
define
##artite
aforestated
itrs
mahar
licences
performs
chandan
surveyors
continuity
950
995
gtm
surprisingly
fg
mos
rps
##dkj
noor
suj
seva
incar
tapur
##adevi
coordin
impair
somewh
dutta
smart
commercially
exclus
urja
practically
janak
##anki
reproduction
unsold
habitual
rehman
deshpande
rohtak
80hhc
cbwtf
tapuriah
culture
ji
renu
##sen
##oria
##esa
##arn
deuts
accom
##osit
archana
leases
afterwards
##aba
intact
corners
##atha
democ
refiling
pw13
visits
swati
malp
autism
fabrics
locked
ig3
uniformity
bhandari
token
##entic
shoul
accurate
fines
emphat
44ad
capitation
627
bounden
ranging
vinimay
branded
surviving
swarup
kingdom
cabinet
ifjok
emphatically
epc
ict
mn
win
##rates
therap
ina
concess
##tered
##otra
summed
##apy
ours
sympt
crlm
dipper
567
meritorious
facet
helpful
darsh
vidy
affiliate
hills
vyas
meticulously
kelvin
gb
##wp
##gah
##ears
mega
473
pensioners
elaborating
extinguishment
preclude
chetan
arihant
tactics
acrimony
somewhat
deutsche
concessional
d2
##hk
##iq
##ipped
##rent
##ella
consulted
leak
howrah
aforen
financed
dena
sita
953
913
parlance
##403
protecting
1863
totalling
mbbs
disentitle
dfp
jeevan
##bate
##bled
##gl
1527
##abi
1632
salem
exempl
denotes
153b
bright
principals
iva
##ajan
194j
553
595
ndmc
kalpesh
advisor
mathura
mantri
bungal
rastogi
vaibhav
sincere
b2
gk
pai
##pid
nob
orth
##rian
compulsion
therefor
dispense
grades
marry
##ogue
boarding
682
instruct
deterior
705
khem
thread
sehgal
b1
dying
lf
uter
zee
##eing
shill
shaf
bhoj
backing
##hana
servers
motiv
453
breached
schooling
596
emphasize
sarkar
meets
malicious
surely
publishing
inflation
forests
update
rendition
ff
jure
kit
defer
judice
interactive
remot
moon
surface
maz
england
incorporate
583
675
525
ncr
abhay
venus
selecting
tirup
translation
iqbal
irrigation
irrational
shillong
kak
sate
##cels
##yard
##itably
##omatic
reserv
implicate
raigarh
corr
drin
807
cardinal
ghat
vitiates
srinivasan
conjecture
impliedly
goklani
daksh
siphon
vuq
dus
dign
ew
##case
##veer
##etent
exh
precon
upward
rajkumar
ports
535
devised
903
##angers
861
983
screen
mitra
elections
tracking
exclusivity
820
930
##fo
##82
##lease
compare
dislod
##pender
emolu
kaushal
674
706
baba
embro
maurya
lifetime
sapna
hurt
utterly
bydamini
inquired
earmarked
hub
hop
lc
pint
p10
ros
##rg
##yat
notions
sep
##udh
chadha
1938
matric
soph
roving
satinder
somebody
bhai
misusing
585
594
599
742
chartering
##faced
navin
##adhy
touching
tubes
scripts
abdomen
esop
accompl
kelvinator
gained
ncc
sow
wild
##ians
##esia
sop
1104
vert
ay2014
neglect
494
528
551
naw
dcp
unsigned
facilitated
exploration
obstruct
hanuman
displayed
clandestine
remotely
ded
hed
##house
##itri
##ilst
##cho
##imar
##irpur
heg
##arya
interval
empl
brick
lowest
613
512
92c
92ba
voltage
795
incompetent
clinching
vedanta
updated
frequently
dimension
tuticor
ancestral
vexat
##hil
##gets
##cific
informants
marine
surjit
mindful
fourteen
nilesh
988
earns
1925
airports
psychological
prabhu
dynamic
bykamal
bypass
aforenoted
emoluments
dab
erect
foul
ied
##ias
translated
overtur
overcome
bhad
sufficiency
committees
775
compromised
gurd
transportation
matrimony
holistic
apportioned
programmes
illustrative
dash
udh
##mill
##esli
dewan
##cile
crp
disproved
sugars
617
graph
980
remitting
trucks
yielded
explos
hpcl
dearness
authentic
dat
tanged
##rp
##kf
thick
##enix
##icon
##mswt
schol
adjudicatory
bhajan
phones
bailment
iba
459
virgin
ashwani
ssc
broking
883
304a
contented
scient
literature
segments
svmswt
meager
gaya
spells
appliances
pel
xl
##izon
usur
##ublic
meanings
barter
sanchar
array
979
pmg
walls
speculation
ajmer
architects
tripartite
mfg
rachna
rashtriya
precondition
vexatious
oti
vimal
##can
##rj
##orrh
toward
reins
sura
depth
corn
##onda
misra
worded
objecting
rajpal
infection
protech
759
885
tradition
duress
indulge
dargah
muesli
hescom
mansi
srei
mesne
phoenix
a4
tied
vaid
##enture
##idden
alt
##ulatively
cro
salt
##khan
needful
442
ilfs
inherit
cumulatively
raheja
legitimately
djus
matched
biswa
culmination
retains
anuradha
rafiq
saurabh
dignity
##hab
##vation
toler
crow
purity
goet
##actory
returnable
43ca
485
547
##shot
638
556
784
tier
1367
gpu
inquest
toyota
aer
fishing
ids
kala
nia
rush
theat
##ania
examples
lawyers
districts
consented
mohalla
extensions
1507
clock
expanded
heroin
crisis
3ce
tcr
##pad
seb
unver
charu
species
ruchi
##ava
##avior
finalised
536
612
592
treatment
siem
nanda
repaired
discounts
shocked
##mita
##adev
coop
doors
finlease
##ewal
meg
verbal
actionable
pauc
misb
nationalized
##yaz
pw14
587
616
solanki
brah
158bc
bajrang
vasant
chowdh
gmbh
awaited
neelam
ashwini
nawab
tangedco
paucity
kunal
kmc
nds
##uz
orch
dey
moot
oversight
sharp
bali
substances
discom
4600
slum
##neet
722
swift
grab
tempo
factories
programs
demonstrating
jasbir
neighbour
detrimental
incapable
arithmet
unsatisfactory
embroider
tuticorin
wearing
##thal
coff
overhead
patents
assent
##ysis
peps
581
916
expiration
shopping
typographical
ankur
inadequacy
bbmp
resume
##thra
##aya
bob
reasonings
cpr
##pcb
regularize
798
dsir
anticipated
deliberation
harmonious
##itzer
ecs
lb
london
ugc
vp
##uly
##ez
##mukh
##tu
ink
##rec
rein
##force
decades
viewing
##achi
aven
negated
refunds
shiksha
pmla
schedules
lacked
characterized
participants
supervisor
801a
shalimar
krishnan
beaten
repudiate
haldia
fernand
siemens
hh
kand
##nes
##var
iti
compel
parcels
##quency
scam
##isha
loi
overdra
esp
scrutinize
621
dwell
talk
bihari
pronounce
uncons
mislead
adhering
pragmatic
oxford
rudra
cath
conve
anx
shai
1910
##endu
marital
2500
spil
surfaced
arbitra
discoura
stepped
577
588
##gram
620
layer
economy
frequency
monitor
improving
hilli
drainage
australia
spurious
hegde
##inge
shg
##rak
panaji
41403
695
1953
modvat
bread
##ultural
598
chooses
divorced
osd
pedest
plenitude
diagnostic
embroidery
kati
vim
##asw
##icable
devendra
coach
coke
##uster
commr
expatri
##roid
##ugal
plates
507
1940
fitted
facebook
773
thousands
supplemental
gamut
##esthesia
unconscious
aah
kok
rif
tice
bypr
whilst
procl
##odar
uninter
suppose
memory
differs
knowhow
##walia
conceiv
conceived
657
643
sikh
wards
sahni
sadar
cereals
reconcile
rhe
aravind
fittingly
avenue
lia
rushed
sldc
andaman
##ado
admn
parmar
offline
repeat
sov
neph
basing
ahlu
534
658
turning
639
##illai
917
karnal
shivam
hiralal
wipro
aqua
uninterrupted
r3
##sar
##spl
##mart
##father
##ert
haste
hassan
lean
purush
marit
##mini
spending
690
943
blamed
p11
##appa
governance
bathinda
vksj
dividend
coronary
aict
dag
##him
##vpl
##urthy
##ched
shank
ate
puran
##alfields
knit
privity
stepping
faculty
narang
fluid
hamper
impressed
fallacious
imaginary
incarceration
maritime
aakash
dp
lived
mds
rus
##nity
semi
subsu
##lick
contri
corner
gradation
digit
barg
longest
communicating
539
increases
rispl
packed
icds
chambers
42006
conduit
khajuria
harvesting
corrtech
##opp
##xt
##enc
##unct
authorise
itsc
##ops
sumati
governmental
desk
##neys
945
versions
dilute
enacting
illiter
navale
ensures
pvc
dental
holiday
3ceb
ahluwalia
5b
danda
rating
wear
##nat
##zing
##itor
##ication
##uration
fro
hair
##osable
taker
manjeet
paise
saum
605
yours
cbec
557
switzer
936
helping
pgi
ciscos
repairing
columns
hesit
analyze
varying
frustrate
ravish
forgot
comprehend
finger
proclamation
cel
ies
kanch
zu
##bow
inland
reward
##tering
frl
surana
seconded
equipped
chargeability
engra
##anchal
491
urg
715
194h
##days
pcits
masters
masih
muz
persuasive
begum
shantilal
accommodated
abbas
cj
gq
lid
relev
##umal
year20
quer
562
632
942
##inku
rw2
smaller
bareilly
emanated
rectifying
rounded
hira
surrounded
materia
philips
defraud
##adhyay
ect
spp
tainted
vani
beena
chavan
##oken
purports
gene
audi
685
genuinely
737
976
packages
councils
unsupp
hindr
dissolve
paints
forfeit
sirsa
rfrp
jspl
implantation
cts
sor
##metic
##isa
shore
cher
pwdv
circulation
negligible
757
702
escorts
ranking
pali
##ridhan
merchand
udc
chhab
alienation
wooden
goetze
fernandes
switzerland
aac
cin
dfr
##jibhai
##alone
##antic
outlined
principally
659
527
mutations
622
bijender
780
875
bodily
structured
dropping
aspirants
refinery
dhing
wjc
##yong
wastage
faulty
##ques
rock
tenor
unduly
foreman
forcefully
517
bangaluru
977
874
istridhan
filters
1493
rashmi
macrotech
improvements
linking
hosting
predicated
benchmarked
warning
tourism
pillion
derogation
mobilox
unutilized
aicte
doll
hatch
kutch
sash
tiles
##ria
##etra
dele
repro
foundry
overla
##ixit
supportive
posit
lightly
promul
magistrates
758
khatri
cw2
796
valuing
geology
##ciously
windmill
mortgag
accompany
srinivasa
vasude
gutg
gowda
malpract
arithmetical
akhil
iw
mount
##nar
##listing
cousin
##utia
complication
##lacing
coalfields
authorize
1672
formally
suitably
sacl
bell
614
511
approaches
binds
734
145a
emanates
nominees
dealership
bighas
graduation
gorakhpur
cid
eo
kf
pli
##eating
##tes
##life
reas
##abhai
surm
surve
marketable
border
624
recognizing
economics
sandhu
reproducing
harassed
dalal
sikka
ishwar
khurana
tkrk
bou
kong
lou
plying
##fting
##vil
ith
##stru
ante
imparted
bashir
standalone
422
492
884
bonafidely
vidh
attacked
khatoon
cartridges
conservator
vagueness
symptoms
otiose
shaikh
fb
nair
rickshaw
tip
wani
yarn
##mas
##dha
secre
himanshu
drum
varied
kolar
ssang
816
adequacy
strenuous
snatched
maternal
virendra
repudiating
plenary
amplitude
dakshin
bypradeep
2b
tuls
##nit
##mur
alk
##amar
pare
trc
16a
##opa
confine
minute
symb
prompted
##bey
globe
##gaum
pressur
savita
gstl
appraisal
hectare
dhingra
kw
kush
kapur
wit
##eda
ation
##ema
##vii
minimal
trap
655
92b
rupee
732
probe
memorial
unsuitable
adopts
bajri
whimsical
counselling
ojha
aahir
billa
dual
hurd
nak
sone
##nil
##aut
##aria
##alysis
##adri
shor
##imer
chs
indira
1800
sinh
faroo
panipat
turp
571
579
studied
623
##atches
stranger
grewal
lathi
unrec
links
supplement
enlarge
pharmacy
bifurcation
gutgutia
ssangyong
bay
bimal
ned
seac
anesthesia
acrs
repatri
619
633
921
meeta
veter
develops
bedi
depicts
sultanpur
vidyut
cst
emission
huk
rk
uap
##mity
##inc
##isan
##reat
copper
carp
2105
rajput
544
infras
654
pradip
969
889
normative
pipelines
explore
grandfather
agarbat
curtailment
plastics
tirupati
reinsurance
unsupported
merchandise
hale
iit
commentary
perception
##sum
authorizes
transmit
insult
2400
##tenant
belgaum
infavour
modules
649
711
##operative
144b
919
877
dishonor
silo
mukul
fulfils
fourthly
kunj
ladies
detriment
abhijeet
ostensibly
turpitude
hort
vith
xy
##vati
exams
haem
consisted
scs
behavior
##ibles
khal
broader
gratia
resided
gulab
commented
splitting
xxii
catering
aig
fsp
lom
tks
ue
##qa
##uth
##yant
##gad
noise
##oser
imposable
unav
exposure
upadhyay
##ressive
premier
favours
4038
baldev
hydra
chandri
targets
924
lengthy
measured
gases
navig
soma
reaches
parameter
culminating
gnct
sashidhar
agarbathi
por
p12
s2
vint
##uh
##ections
##itous
fraction
froz
provin
trivedi
payers
nec
periodically
marwah
rupesh
verb
sufferings
irda
alterations
516
tyres
pgimer
luthra
contradicted
rahman
shaw
clothing
jeet
mhc
encroached
transactio
dangerous
uterus
saumya
frozen
bap
dixit
##uct
##more
##pol
ofc
bela
church
allian
servicing
##hib
loh
intang
tek
disputants
constitu
wording
msmed
realities
538
cec
practicing
rameshwar
bullet
dumper
telecommunications
mond
snow
wra
##night
##dip
##kesh
itj
##therapy
indig
sof
gran
533
delivers
671
lalita
blame
veena
##elessly
dictate
demolish
fnuk
entitles
bhupender
revaluation
eliminate
sovere
geneva
unavoid
awas
jac
yds
##maker
##jid
onshore
##star
##olia
perqu
learnt
leather
periph
goodself
sanitary
cream
chandni
603
794
greens
comprise
unproved
deprivation
bses
improved
empowering
amarjeet
voy
nbw
aptly
tube
obliv
embodied
nizam
nephew
gher
gmc
##sman
##cane
##fab
##isations
paralysis
##ifs
matured
regardless
howsoever
singhania
effica
mini
undated
existence
744
edn
sugarcane
shaile
pushp
pushed
extinguish
shelters
endeav
veterinary
bk
kz
##hpl
##iri
##bud
##ark
byan
sharda
unh
##abir
knock
bhalla
sheetal
ibm
existent
officially
owe
789
karol
pw21
1362
hectares
anomal
balancing
shubham
stenograph
shoulder
engrafted
queried
allianz
pillai
rish
vill
vast
##lot
##fin
##part
##jal
thro
##atics
##ayam
stre
heed
regd
payal
scns
detection
variable
confused
consuming
harv
harj
classify
751
turns
tara
esskay
planted
1429
788
sarai
##ushyant
819
evicted
academy
superan
cyber
muth
pulp
##imsy
aptel
giver
hamirpur
gayatri
siddhartha
ethics
yoge
fnukad
##016
##rens
##kula
no2
rewari
notary
pros
tail
##aking
neeti
evide
evading
trials
printers
desp
dragged
declarations
ansal
flimsy
##mohan
swap
gurmeet
brace
invalidate
navnit
analyst
websites
crossexamined
##apuri
cantt
wiped
fetched
balanced
nazir
exemplary
efficacious
kon
lading
itos
ensu
causal
mayank
##undai
landed
##ubh
funded
thirteen
1395
childrens
##point
damodar
582
acquires
treaties
ranka
masjid
proclaimed
broadband
breaking
nirman
gulati
honestly
dharmesh
torrent
anurag
magnitude
historical
muzaff
6dd
mcg
naik
##anct
toile
##uram
resu
incon
##odes
laj
##orded
artery
cities
reluct
questionable
rup
refle
prevailed
joy
identically
hyundai
479
651
629
669
restricts
auton
839
tradel
1065
strips
nbcc
deliberating
journey
tampered
isolated
obliterated
dhawan
subsumed
superannu
buses
lens
##wil
##orum
##isites
##ppers
apple
compart
chick
##ifiably
mead
1039
singhs
spinal
somehow
patwari
ayur
sangam
694
dhru
566
664
724
975
1546
captured
niryat
mixing
azad
analogous
##rosanct
flawed
incapacity
enrichment
shailesh
sacrosanct
bplj
chhabra
surmise
bg
eld
nage
ua
ug
##ouri
bys
ascribed
##adia
##eard
chok
serves
##istan
spin
bham
creative
borwal
634
723
repaying
contemplation
packaged
curb
upgrad
federal
obstruction
iab
jott
kcc
nre
nip
wb
##lata
projection
proxy
excer
consign
1932
leis
subserv
proofs
penalized
707
667
technological
959
872
computerized
nahar
hirer
monitored
kulwant
sevak
vkns
cartridge
tranche
techniques
revisit
purposive
pmgky
jottings
aap
dla
darshan
mri
##nia
##oni
interaction
personam
16b
roster
spoken
purposeful
colla
bhati
##icians
##karni
practicable
818
ranjit
panda
##bhu
mtps
routing
absorb
rcr
##kaji
opting
depositions
demonetisation
panchkula
piramal
custodial
bisht
infringed
bowel
mnre
rheumat
intangibles
unavoidable
excerpt
leisure
ces
dani
##hya
##bad
##kir
conj
##cean
deo
##chud
accent
amra
mayur
1534
kaul
rattan
indicator
ell
878
absolved
chandrachud
lacuna
ministers
yardst
outsourced
euro
deptt
sterling
usurp
##orrhage
subservient
rmc
##tex
##inity
seize
##etal
##ulas
amc
vipl
outflow
##rup
motilal
burnt
ratios
larsen
strange
labourer
dwelling
1363
blacks
##uddha
desirous
retiring
rathod
sfio
karta
reorganization
roshan
shanker
resumption
fan
gems
kc
nks
##hman
##ipora
##off
##iculture
##irected
outward
##ugu
##berc
##para
discharges
provisio
classifying
allotting
704
770
blocked
mentally
conceptual
ordinance
faithfully
rfkk
bhupinder
abstract
christ
golf
latches
forging
alignment
stcl
abol
ldo
limine
profitable
imaging
discred
541
602
618
ledgers
787
dtaas
nearest
880
825
blat
mitig
sorting
kathua
radhey
truthfulness
crowd
farooq
catch
ecl
gabri
kewal
lun
pam
islands
##owned
amm
cits
##assy
goal
scoot
1215
sheth
plainly
buys
addit
msa
691
modesty
747
845
colleag
960
crack
unfounded
farmhouse
kalra
printouts
potency
ajm
tanks
privileges
postmaster
c1t
mangalore
inheritance
illiterate
positively
upgradations
rheumatoid
kendra
sail
tte
puram
preet
irs
652
kaim
524
physician
774
tpos
copyrights
peoples
rounds
notionally
hires
battery
yielding
assembled
fibre
aniruddha
scooty
fest
pear
s153
vash
##nage
##rition
##itches
beating
bysh
notably
waseem
haj
ame
scj
transf
##iley
1875
producers
reportable
809
itats
donee
realize
trai
alters
615
628
affirms
facets
ranks
kanwar
unjustly
sahoo
##hotia
trailer
surprise
aircrafts
torture
purporting
inquire
misdirected
inventories
louis
arib
meal
ril
wn
##ovo
##zo
##nders
strand
##raf
canal
##ewar
rab
##ffk
##aib
esjs
##astri
2635
kolk
lights
conception
idv
ssi
css
mehr
1027
girdhar
sided
ritu
hypoth
mhrd
convince
expanding
kedar
taylor
unrecorded
autonomy
gabriel
a5
bn
bpt
pouch
##ui
##anj
##irm
adword
conservation
enmity
##oveable
plaza
movers
##acle
financially
manufactures
ramp
484
info
inflow
capability
564
523
##veni
encomp
swed
casualty
languishing
886
elaboration
1064
brands
shiva
##board
strengthen
mtnl
parkash
embassy
extrapol
1287
assignor
immoveable
affiliated
158bd
nainital
sponsored
encompass
dna
wires
##enged
french
contemn
crown
purohit
1375
intake
liver
##inde
benchs
varun
negat
crept
##cellor
752
6537
515
##iba
pfa
662
physio
sarla
978
graciously
squared
babulal
kanal
uppermost
kotwali
efficiently
sudhanshu
fortis
##rahim
disconn
flex
pacemaker
pranay
anganwadi
ajmera
dcs
foss
ncer
oio
p20
rose
wet
##gil
##eng
##ened
ana
shake
stcg
chal
petty
amin
reco
wef
timing
##cerated
ruia
clt
##vik
download
487
hosur
urt
solita
663
hazrat
muns
pragati
pdf
robber
kedia
ponder
strenuously
solitaire
ere
ptc
uch
voc
##lc
sus
##urav
parbat
ener
##abouts
##ensity
##rica
pacific
020
broch
pensioner
bik
ccds
mohinder
mohali
widely
axi
progressive
incuriam
holidays
scientist
daniel
hypothesis
vil
vogue
##nesh
##fkr
##wi
##wo
##inh
##rey
byga
pard
##iva
cogen
canno
neft
setup
2651
drafting
2943
##tailed
avocation
469
punishing
271c
chancellor
owes
554
ssa
661
biological
untrue
busy
shipyard
1673
walking
rainfall
gymn
80jja
headquarters
jakhotia
deterioration
bygaurav
kota
native
rta
uld
##uff
##eesh
##din
##gy
parks
ldc
bhola
negate
sixteen
ombud
dw3
910
##ulls
pandit
accessible
939
##whney
kulkarni
thermax
matches
abundant
fighting
grover
robbery
cth
fcc
lg
mel
rl
##fcs
##eria
##asium
no1
notifying
underlined
acco
parm
dismant
##uni
cres
##andir
lta
aft
unch
mrp
producer
spinst
signatories
sourcing
3409
mutated
849
augment
kanoi
kirtan
induction
gluten
godara
gsr
kabita
gagan
tapes
overdraft
sonepat
gymnasium
spinster
dms
q4
ride
##gments
convene
sta
parad
reputed
1045
##ructed
corpor
##minent
saleable
24a
806
plw
bhim
endow
rajya
689
08th
traction
divert
youth
792
evict
aidpl
ganja
firearm
hsg
exhaustively
umb
ankle
sabari
styled
rrj
podar
resumed
tranqu
vicarious
forbear
transformation
reservations
discredit
kirtania
yell
yus
##bons
##xr
secu
hailey
decided
tehri
2650
##ophy
subjecting
cola
maa
equities
thiru
calam
729
sky
972
helps
samaj
nhava
clubbing
stipulations
igst
darshjot
purushottam
chandrika
vintrade
fossil
kd
kang
rated
##hkk
##ality
onward
##idhan
faz
##hika
1038
bhel
speciality
sawhney
##print
motives
698
divest
helped
happy
2503
surviv
lokesh
cpps
reckoning
##natural
meadows
cms
game
geh
mate
rinku
vant
##nik
##atru
##allenged
scrib
ifs
##ugn
takenup
2646
extortion
markup
premised
cpwd
denovo
collectors
ignores
739
saraf
914
##miri
organic
890
ghai
nullified
eastman
attorneys
dharwad
bagic
chaman
mehrauli
frustrated
animals
cinema
mediator
pullandas
bysunil
theatre
reflection
tradelink
unchallenged
dq
iy
las
pus
rin
york
zones
##nis
##onic
##aside
ists
prized
##etric
soc
##ishan
1094
1242
sheela
produces
roasting
spo
refuses
2833
bhoom
specialist
ibrahim
utpad
niit
896
envisage
inducement
reminded
presumptio
correlation
cooking
kk
p13
##he
undermin
stall
parole
ldce
unnatural
drat
2145
802
generality
1535
badly
systematic
grey
debate
990
samir
curtailed
##huja
miraj
confiscated
gifted
nisha
postponing
precautions
reinfor
sinhgad
cogeneration
ksh
kuru
mld
nri
zy
##ht
##field
##yap
##lex
asth
##stock
anish
deception
fag
##ectomy
disruption
##ership
repugn
##akes
outra
banned
directive
informations
salient
examines
sheva
finances
##ressed
prevents
558
futile
797
918
##2018
intec
figuring
ambul
jagat
sakhar
tions
jayesh
rigours
impartial
apprise
maternity
irrevocably
capsules
venkatesh
therapy
scholar
delegation
jacob
physiotherapy
yusuf
ppo
sath
vak
##side
##vesh
##bulls
##aton
##oufla
onerous
storing
atl
##eway
leeway
exp3
dispar
handica
searches
balwant
settles
promin
meaningless
roadways
901
##ivedi
niwas
856
868
887
palm
krishnam
blast
kashmiri
murthy
ritesh
chouhan
camoufla
maxopp
weaker
reappreciation
suraksha
urgency
harvansh
handicapped
echo
kmp
kali
pk
rfa
##yu
##jia
##reja
anoop
##labh
indias
quint
##ugg
##itee
valves
foundational
2653
##cipl
##hang
chanda
925
burdened
omkar
aided
niran
diligent
discerned
lots
canter
europe
tilak
vardhan
bundle
prestige
forgotten
ombudsman
bimla
jiv
nis
yoj
##hapur
cong
shastri
##osa
subro
##unath
abras
obso
exposed
tec
bhum
technician
683
050
693
urges
##onymous
709
recognises
985
##147
##wanath
teleph
waited
blended
munna
functionality
garbage
pregnant
ebix
amortization
shilpi
matriculation
superannuated
d3
ions
mipl
ugh
wif
##mw
##vnl
##riti
inject
##anya
hasan
##teries
stick
atc
##odys
recs
1905
interact
officio
exposition
basti
setaside
##acks
favouring
apar
techno
phras
rajat
4987
6523
mahadev
transports
functionaries
logistic
80iab
cyst
threats
lords
ritual
brijesh
negotiate
exploit
cfsl
conversant
interrogated
aur
ave
aab
bore
hide
jcc
pall
q2
##mila
##ratic
##yas
notion
##that
stan
##lah
subba
alliance
2025
whereabouts
##agun
cheat
barrel
separation
446
608
973
981
malvi
foikh
895
acknowledgments
vijaylaxmi
paint
asserting
immense
nutrition
bridges
kilome
vitran
episode
hopelessly
##jiaji
obsolete
gani
uis
weld
##site
##bling
inse
began
##stream
acid
tape
##orting
payout
meenu
##mender
1643
##wna
workm
sharad
2595
drove
realizing
panj
preparations
5539
ssp
swami
##adiya
relationships
packet
##084
kashinath
overrides
navneet
polyth
elicit
negotiating
recomputed
lakme
bothered
trouble
arbitrable
lombard
dan
gill
jn
kkd
losing
solv
vv
yah
##uitous
##tic
##lh
##gate
inactive
##oram
##chal
competing
##usory
republic
neeta
1517
mann
##eeps
mercy
undo
4216
514
703
drawee
soura
organisations
963
divul
palam
transporting
vijayshree
madhub
collusive
automation
gathering
fortify
accusations
music
harmful
shalini
bachelor
zuari
oblivious
dhruv
bplj016
conjugal
mehrotra
bvi
cot
ferv
fare
jang
mso
ting
##jad
inno
tours
nose
sequ
tag
arcel
tril
decre
quest
logs
revoke
varies
demur
quashes
##geries
ansari
khad
sweta
##heri
##comp
967
breaches
occupier
##boo
riyaz
merchem
raghav
assaulting
largest
fluctu
entails
biomass
sewage
handloan
cropped
3c
curing
hb
niss
tb
vats
wz
##nish
##vp
##nding
react
reserving
##unition
##unged
megh
racket
insul
periodic
##owner
deserving
customary
realise
magaz
676
quantify
counterpart
morgan
auctioned
farming
hinduja
vikash
lsg
shamim
stakeholder
raghu
coloured
touched
bilateral
girls
secti
tuberc
constraint
wagon
reappra
rescinded
sympath
attains
3cl
nang
pak
##mik
##zy
##jya
##eri
##itating
toub
connot
anpara
stpi
##ponents
arct
replacing
improp
outb
1072
handle
genetic
concludes
contributing
needy
rajbir
681
sony
undertrial
4435
reduces
743
packets
movements
##kjh
mbpl
prescriptions
boyce
describing
david
##ggle
elucidated
tibia
ujj
leakage
spinners
byshitu
munsiff
toubro
impropriety
3d
cmo
gatta
lloy
pamp
ron
rar
tul
zinc
##had
##wami
##pati
##bin
##anty
compiled
hauz
parade
##mploy
boys
booth
coparc
affair
papp
objectively
686
07th
##cont
907
ratlam
volition
725
ddt
repayable
broke
987
##deo
embra
alpha
assert
unreasonably
walia
terminals
paramjit
cfd
spaces
shirish
mortgagor
ammunition
ncert
axiomatic
forbearance
polythene
coparcen
bcr
cull
iyer
jc
lamp
slo
wer
##uated
##nagar
##vy
##pcl
##keep
##thar
semin
2083
stom
finstock
cite
inves
pooj
erad
sats
desist
surgeries
auda
doubting
senthil
4988
staffs
927
764
##afa
865
acquies
suspend
810
happily
bett
rigged
widening
mortgagee
paswan
sudhakar
ceremony
npv
pickles
kharb
charanjeet
jatinder
chakra
sophia
hindrance
alkali
vocational
cultural
hrd
jr
sion
##hall
##reme
reena
forcing
##ulosis
subram
complaining
impract
imputation
expose
manipur
directives
1230
terrace
formulation
justifies
writings
##avari
drj
publications
images
rampur
legible
hospitalized
chandi
retract
##ganj
gander
735
##inker
11826
acquitting
illusory
cmd
strikes
sidhar
width
##amshi
prints
poonjiaji
insistence
ruby
berth
slightly
dislodge
nagendra
cx
dream
gaj
gvk
hrs
kl
kale
mci
vul
##fpl
##kin
##anand
##isetty
##icular
##chim
stable
parish
atos
chlor
disgu
##unj
importers
entailed
hereof
insurers
2800
bhart
proposer
sahib
rajpur
msi
jaina
swast
sunny
957
882
892
833
inspecting
choosing
##pali
educated
midc
introduces
breakdown
114a
sudesh
jaswinder
gridco
sneha
260a
campus
cinemat
exempts
drinking
vertical
ganderbal
bda
dtc
ken
oman
rents
##itors
##cher
coupon
dock
ltu
impound
interdi
1078
suppl
upkeep
op1
adventure
saty
cpu
sanika
##ureshi
headed
kolhapur
emot
orde
premiums
bindal
recognizes
769
cardi
876
nandan
convicts
infracon
bhagalpur
linkage
##kshmi
enquiring
godowns
disentitled
vaishali
sleeping
kidnapped
kanchan
vanijya
tuberculosis
stomach
interdicted
bsl
eis
hinges
nima
pig
sis
tit
xli
##tps
resist
##udan
anyway
##estation
##mpor
##racy
impe
meat
unlisted
sohan
outgoing
scarc
indiabulls
manjit
presents
detect
constantly
syner
childs
burn
freehold
dwivedi
944
869
863
pbg
chemistry
cattle
kashyap
dyeing
misconstru
naval
bagasse
complexity
1898
harshly
micros
tasks
padma
246a
slab
abdominal
recompute
inaug
gehlot
arcelor
aas
curs
dul
hen
jb
kore
xray
##uthi
##dys
##stances
##amma
adult
agr
1075
rawal
##ugopal
displaced
##oped
varma
differed
rajouri
instructor
04th
oblige
840
collections
palpable
##154
hemla
migrant
closer
##mbled
throwing
anjali
reinstate
nrpc
sheraton
innov
thapar
quotation
bungalow
uapa
bless
fue
jaj
lpg
nm
ploy
sway
xix
##kant
##xic
thi
orbit
prope
##riages
##lakshmi
##roi
folder
rohan
bhab
##ksv
012
756
576
penalizing
biased
776
vincom
jagbir
icar
mukhi
suggestive
kishor
1077
bandipora
hardships
ravikumar
swaroop
rbind
relinquished
falsity
disapproved
thapa
unemploy
wildlife
mcgm
toilet
disconnected
energo
ambulance
bettiah
cub
dkj
jil
jadh
lam
##enly
##orders
revert
2057
##ayu
##ellore
conside
sca
##oking
basant
maya
monika
##shine
604
dhe
ceth
712
apparels
omr
763
pleader
965
divine
938
telecast
dark
optcl
hemorrhage
cartons
weakness
contributors
parekh
hurdle
stenographer
phrases
kor
nvs
qureshi
sadh
tvs
##zg
##atium
ines
##icacy
##reak
seas
parminder
1409
deck
unasse
transferable
drastic
stopp
shortcoming
msspl
creature
promises
##worthy
emis
baddi
5858
906
1150
strang
fiat
krishi
acquainted
debits
937
castings
ghewar
sahil
typically
savitri
114aa
##erald
bhawna
johnson
absurdity
lumpsum
kastur
tonnage
sagun
hlpl
motivated
katiji
festival
wifes
jadhav
unassembled
cng
hath
nk
##ax
##inations
tok
island
sempl
##sters
adm
adjud
tripura
reposit
3051
##oglo
gainfully
fixtures
dhiraj
contempor
905
##angi
631
867
landlady
836
bearers
recommending
venugopal
nitesh
dksbz
incurable
rayon
architectural
torn
postpone
disagre
moulds
accomplish
conveying
swastik
cerv
dn
nw
rena
zur
##roll
##zi
##any
##anour
accre
lacerated
mature
unim
unatt
usman
1828
ceram
2536
financi
##ensive
capitalised
emper
efficacy
##tiar
employing
##naught
085
urine
768
955
778
vishwa
mediclaim
summarise
vinayak
bhilwara
grandson
jhaveri
indexation
kuth
prisoner
confessed
neuro
xyz
bip
fel
fci
rks
tif
umar
##fur
##vn
##dj
##bk
diseng
disorders
obvi
unal
gog
10ab
advising
daya
##apna
ayush
conducts
687
rams
msas
forecl
haris
emerald
extracting
748
juxt
854
kargil
##beam
899
nanded
1026
navy
godavari
agitating
tissue
embark
manpreet
chowkidar
horizon
recomputation
fundamentals
ayurved
yardstick
blessed
zurich
juxtap
bold
c2
cens
horse
tight
##wear
##rays
##omet
forgoing
anubh
alavi
stability
fax
##oti
contours
##amended
obli
interior
mart
##levard
##mind
workforce
overage
##iani
stopping
disclaim
panwar
##aju
692
##ivali
022
conceive
devolved
783
nars
gurud
contraven
completes
madhus
alike
silence
ncds
mukund
158bb
unauthorizedly
vohra
ajat
rukmini
paschim
gtb
https
unclaimed
deshmukh
initial
sympathy
covenants
crpf
boulevard
bysapna
telephonic
malviya
embraces
parishad
cinematograph
emperor
eat
eulas
gla
nps
pee
connaught
##olan
stig
##ushi
tahs
paraly
arra
amway
delve
ober
sameer
unamended
outlet
scw
1034
corrupt
bookings
postman
2405
originals
engages
metric
edge
countered
956
mva
foodhall
casually
847
812
nde
rohat
amputation
1031
##regation
163a
guardians
alienating
philos
krishnendu
bathroom
goswami
enriched
overturned
reluctant
anubhav
2page
gd
les
r4
wri
wool
##corp
rewa
ity
alarm
##owda
##ulations
ary
##otion
mez
enor
aoa
1058
race
1106
##itek
30a
2517
caret
3300
confirmatory
devesh
solatium
quantifying
974
karam
864
##arios
ananda
tiol
saves
oswal
3022
scenarios
nbfcs
atmosph
dumped
implants
dmrc
conducive
##ullah
harbour
jumped
pacs
sujata
bapu
vknsk
mitigate
crescent
bhoomi
aish
boun
kear
kkj
tends
wns
##fb
##reated
##regn
orix
##amit
stag
stack
cherry
doer
unro
bokar
##oldings
sind
secondment
diff
apml
infant
aprl
locate
023
dahiya
mutaw
jup
khod
115ja
sunbeam
malice
834
madhok
players
baital
sandhya
aruna
kulwinder
alienate
await
bhupendra
military
describes
pullanda
cylinders
misbeh
byanita
bptp
poojari
unroasted
eci
gem
icu
jme
nad
oms
pala
vora
##iot
##nals
##dhan
##arian
islam
ont
dece
shish
##igar
stp
unused
cag
authoritys
upendra
26a
sple
denmark
conductor
levies
injurious
021
ideal
1941
##ibha
ashraf
ctet
859
853
lenient
772
891
bonafides
stronger
bawa
enquires
##junath
milest
unlik
neutrality
uttra
postponed
oyees
fetters
hampered
symbolic
horticulture
uispl
ain
dol
gail
lall
nts
tear
##mac
byhar
stair
facial
rsa
manjunath
1125
guards
singular
2100
surani
callous
shortcom
sanctions
husbands
marketed
##works
tradecom
infections
terminus
857
sarth
helper
994
bhatinda
##453
fdi
kirti
collate
survival
shaft
voter
thinking
yea
motihari
bifurcated
sivitek
kiad
sweeping
khalasi
hydraul
shailendra
kuruksh
dheeraj
jmepl
shortcomings
3page
bam
eve
igh
nurse
pink
pgs
q3
inequ
##ankar
##ctures
appur
asif
sued
##stom
frag
cog
victor
triveni
##akti
quorum
1528
intel
workings
justit
governs
suffices
joinder
brig
belongings
668
edible
142a
841
octroi
luc
##458
ventil
1023
1889
dgm
govindji
bullets
yoga
chettiar
neurological
sweet
ghatge
catholic
sweden
microsoft
kearney
unlikely
kurukshetra
cds
ding
hals
rtc
ui
##hail
##yog
tow
##revi
sefl
hasten
resolving
agni
amt
1936
##ansi
interc
passive
opens
esse
feeding
##ksx
corrective
objectors
auditee
depository
69d
altercation
biotech
733
##150
nullify
1165
induce
debito
legitimacy
mcdow
uniformly
approximate
displace
abbrevi
scarcity
stoppage
bouncing
justitiae
click
dial
dried
eich
icc
othe
sifl
vee
##sr
##nima
##vage
##itus
andheri
beer
crit
##illon
authored
gob
grama
sharan
postulate
circles
balodi
negating
slps
qualit
directorship
rejects
edc
divested
siwan
##948
murari
shipment
typing
jaswant
favorable
245d
susheel
roles
odd
npas
tuition
wrongdoing
##zanine
tallied
ifjoknh
nobel
pepsi
expatriates
leaned
shorn
lajpat
survivor
unattended
philosophy
uttrakhand
dast
een
kru
llan
m2
mol
sizes
tps
##cate
##made
##fd
##pun
##inth
##isance
recap
issuer
1522
##cule
loa
grind
ers
advisable
24q
2486
1439
bron
bhuj
macl
##shatru
dhillon
pensions
deviated
1445
846
prospectus
autor
papisetty
blanket
understands
gopalji
sushila
dhani
dacp
appraised
mistakenly
kundan
democracy
vulner
emotional
ajatshatru
rohatgi
caretaker
bsa
kalid
keeps
p18
pavan
qaz
vd
vain
vending
##hl
##ux
##iate
##vast
##ndran
##asia
##pps
shap
resp
stent
pardeep
lach
partem
1040
expounded
marsh
sheo
deduc
cents
25b
31a
bho
bhut
aps
pair
declarant
creations
collects
devotion
##grid
871
layers
835
cdps
mukta
ascertainment
dl1
jean
homebuyer
raghunath
cartel
petrochem
journals
gokul
cautiously
aspiring
jeopardize
tayal
vrinda
turbine
zahid
conceivable
compartment
kolkatta
adwords
contravenes
oberoi
jupiter
berry
cmp
cif
eac
ipl
jeep
kumk
mok
oust
ure
udu
vel
wpc
##lay
##krit
##ato
##engar
no3
iss
##imp
##osures
chanchal
##quid
##rous
consents
##aksh
unaff
bohra
manages
ergo
sincer
sati
satbir
80ie
plaster
bricks
misled
smack
##shed
slj
chanan
domic
milling
848
palap
bestowed
dilatory
##bhal
aeg
cycl
bird
1089
siddhi
accumulate
sushma
miglani
viva
sgf
practitioners
anjana
blindly
misdeme
manjula
durgapur
pritam
maharishi
reprobate
gnctd
brochure
reinforced
subrogation
cursory
enormous
bot
eula
fever
vri
##sana
##car
##cla
##bury
##esan
##cts
astha
##thetic
##sem
##ayment
stitch
frank
##nty
parle
offsite
arn
amri
##izable
##ckey
informs
impugns
examiner
powergrid
sphere
publicly
cpa
plinth
pater
apology
sitamar
regularity
regularizing
wordings
##pace
idc
static
ranjeet
rung
hockey
correspondingly
##390
enjoys
harassing
ferro
sdo
muham
1590
agroh
disturbance
paste
sanskrit
concededly
trainee
demarcated
fashions
narcotics
describe
optimum
heights
dipak
mundra
unanimous
coordinated
intervals
relevancy
promulgated
sovereign
excerpts
vilas
mezzanine
eicher
recapit
unaffected
sitamarhi
rty
tns
##ien
##fabri
##ping
##gowda
ofthe
##atible
##isse
onto
ital
2048
##nderabad
payables
deccan
leela
unenc
intern
wherefrom
scar
10d
1218
##ckets
grass
1124
oph
tem
wheels
justifiably
cluster
2102
bux
endanger
endangers
harminder
679
stays
condem
untreated
781
concent
pendis
1061
ahmd
birds
shama
206aa
manifests
pathank
platforms
fateful
forcible
anupama
ribbons
effluent
chowdhury
muzaffarpur
stranded
secunderabad
iyengar
census
kumkum
palapetty
vrijo
aaf
dud
fkk
rising
vet
##ule
##rish
##inlaw
##itra
beach
beaut
##aying
stance
amir
1900
##andas
hissar
boa
##roves
defamation
respectful
1704
earner
80a
plough
punam
necessitating
appointees
harness
capac
retro
928
926
##309
234d
815
controver
823
934
concise
captively
cypr
freely
kalkaji
sudha
hdb
survived
mixture
begun
platin
successor
##jung
tourna
blindness
forgings
bhiwani
mushta
fgm
##opsy
additio
negatived
repository
unaltered
atmosphere
udupi
unencashed
pathankot
iled
jar
lub
lng
muj
##oa
nova
anami
##ells
##raham
abu
invites
gras
1735
writer
roasted
brown
05th
sangha
borad
##iciable
716
pspcl
dina
maler
beside
##jiya
kochar
##arsi
santh
religare
nsc
threatens
murdered
hemlata
272a
fortune
rehearing
derogate
accede
geekay
tranches
adulterated
janakpuri
ofcds
villas
kccr
misconstrued
unemployed
##oglobin
mushtaq
heal
hra
kum
ling
mk
mural
rms
sma
ties
ula
##mol
##fir
##door
##ket
##jali
sul
##urang
##adium
deen
alstom
casc
resjudic
permiss
parag
chot
lever
unst
##illery
interven
counters
pole
seeming
rope
2184
thanking
registrations
32ac
shortly
phosph
correcting
substation
billed
##waran
##001
infused
708
92f
bijay
gaon
tyre
stridhan
boundaries
912
karur
organised
814
893
##143
wardha
geco
economically
bharati
everest
naught
bsf
gsc
juristic
expectations
atmcd
mcx
focused
obstructed
cosmic
raswant
implanted
sibal
gagandeep
harbans
erectors
overlapping
perquisite
kmpcl
niranjan
decretal
agnihot
intercourse
anamika
mell
rte
tpa
##tor
##tcl
##pk
israni
##ppal
sukumar
als
sube
abode
abani
abrupt
abraham
1046
evin
##rule
1243
##undal
advices
27c
carpet
baljit
assuring
3205
validated
remainder
##neesh
labs
indica
skims
827
utilise
ecb
kob
mmr
exclusionary
enjoins
hscc
hazira
1897
cautioned
reiteration
dkz
affixing
gunshot
warehouses
bhanu
pedantic
transitional
duggal
democratic
tolerance
rifaur
peripheral
endeavor
navnitlal
eldest
s153a
accretion
disengaged
autorickshaw
condemned
cyprus
9a
cte
eco
founder
kach
p15
rpt
##qj
##xa
noble
perin
##oskar
disaster
implying
##ills
1013
detract
1728
oppressive
##asher
formulate
##ematics
descript
refix
excell
sona
peon
##bib
tarsem
lala
941
soul
elbow
siya
mask
understated
kalan
harshad
##agiri
fruct
bachao
cvc
publisher
##utenant
sopore
hesitant
dollars
consignee
kuthial
mutawalli
##fabriks
ophthal
resjudicata
agnihotri
bakshi
df
ews
jaid
kod
rust
samp
tum
##qr
##uing
##mu
##ris
prize
shimla
champ
interregn
evil
##asheesh
approbate
handset
mov
spends
dua
smifs
panc
harbir
##shs
competitors
1005
solapur
ssk
843
##2016
##ourably
##355
nauti
hiten
1164
glance
circumv
umadevi
sneh
migrated
swarn
wipe
fleet
deepa
prestigious
prabhat
unrealistic
covenant
coffee
ensuing
rajpurohit
cervical
critically
interregnum
nautiyal
4page
a6
lw
mores
ump
##md
##fan
##pai
##bus
##gb
toe
##sukh
disse
fincap
##orty
mata
honb
imputed
##atingly
salmond
handa
pahari
phal
bailors
unden
frames
1008
reddys
agriculturists
javeri
1428
1155
sara
##afe
available
822
##bhir
lieutenant
murug
photos
communities
confront
nurses
hollow
kyn
appraise
kartik
luxury
bmw
akhtar
fundamentally
stanley
insulin
outbreak
inescap
1tr
2c
a7
bma
bta
bbc
eh
gala
ici
lig
lila
mile
pav
sesh
wd
xka
yat
##sis
##rl
##zir
byasheesh
asrec
2038
aligarh
shat
acg
##udge
ags
##ando
rapid
writs
mrtp
804
3500
phases
avant
090
1397
technicality
##worth
importation
rpm
##phur
terminology
exporting
mahagun
738
nipp
915
squat
protracted
figured
829
adobe
seizures
humid
1455
controversies
rigors
platitude
dalip
bulls
affixture
storey
inquires
jacket
siphoned
unverified
daga
aapico
pamwi
pappu
disguise
##vastav
cib
kani
kpid
mild
mha
pans
tsa
ya
##ucom
##aire
##tics
##link
##path
thwar
exl
adc
##forts
amaz
##ersk
repeating
recordings
authorising
screw
##cks
opining
ramzan
harpal
148a
6500
devinder
recruiting
genuinity
1159
niyam
juneja
ingen
accessing
##waha
shivaji
sends
cycles
##bank
akzo
renal
kirusa
dcr
kanti
dictated
retailers
dbpl
gunjan
chhabri
khattar
indisp
reversion
fruitful
nabi
hmj
randomly
constituencies
impractical
bokaro
rungta
muhammed
kpidfe
thwarted
fancies
gyan
hgr
maid
pale
sesa
tic
##cular
##mother
##onable
asp
suisse
dei
stairs
coating
vie
scd
tribal
noticeable
corre
wrist
##asha
centric
sumo
##parable
37ba
jobs
msil
alteram
candidly
653
5500
ctu
##iev
floating
contemplating
844
##2017
layering
helly
conferment
madhav
junction
ecr
mmtc
exclusions
aids
supervise
navi
ganj
narrating
rigid
progression
shahi
amrita
##kotla
cultivated
nishant
kiln
chirayu
dugdh
outrightly
unanimously
satender
shgph
navigation
verbally
tranquility
oblique
palace
appurtenant
vulnerable
malerkotla
ced
ction
dipt
fist
rly
rcc
tenth
vist
vind
xav
yd
##iments
##lings
##utosh
franc
dob
decor
unmind
sobha
depre
scuff
manz
##ilee
hears
1658
1705
drs
careless
2316
maersk
compensates
271f
1946
psi
fitment
nariman
964
1209
##138
blunt
hundreds
minutely
midnight
nathu
1286
maximize
crystallised
sponsoring
wonder
vador
traditional
malpractice
throat
reappraise
disclaimer
tahsildar
seemingly
kuthiala
cow
dabri
klt
lshs
##iency
##gue
inner
##eni
##enka
##itage
##arai
suited
##etically
##ellant
habib
aroma
fincorp
commutation
meera
interface
outgo
scra
bene
heritage
eros
concert
requisites
undes
syrup
susten
stationary
606
urmila
jahang
2024rj
insert
799
cooperated
858
767
##jaz
safdar
gravely
771
eller
pande
pandurang
pcb
brake
hyderabads
clubs
lockers
prepaid
tsr
biscu
maximum
aziz
cosmetic
alcoholic
seasonal
nabard
efflux
unverifiable
kushwaha
colleagues
utpadak
asthma
welding
sequel
satsang
innovative
wriggle
mcdowell
permissive
jahangir
ema
fj
lich
oerc
puls
wct
##mail
##ko
shelf
stab
frffk
incurs
##udi
chhot
##otomy
ams
outlets
accountable
##clared
1217
##iza
policyh
mandali
coca
madam
52a
522
apparel
727
swc
hardev
mali
stamping
894
cspl
craa
1166
sundar
kirt
kirit
remarked
djsa
potest
concessionaire
concedes
footwear
cells
imperf
fema
mischiev
killing
hamid
hurried
manthan
breathed
dusane
sustenance
bos
ceta
ghar
ipr
jot
pty
p14
tl
woke
##mation
##fra
##dated
##jpl
inoperative
prath
ort
##stood
shra
shab
habe
chint
dish
indub
megha
goenka
1030
##ongru
martin
teh
templ
mof
ourt
drawal
##aveer
digi
drives
forego
briefing
44da
dhir
categorization
5857
shikha
762
mohanty
989
suspension
narela
travanc
csa
blu
shobha
emanate
1885
##oller
1085
rahim
pronote
1899
ulcers
##writing
kabra
dominion
11aa
dmk
rotational
restaurants
embodies
adulteration
gkn
hukum
connotes
lloyds
staircase
inescapable
chhabria
hgrl
francis
safdarjung
habeas
avers
gia
lil
wels
##acles
##glo
##atur
cashi
##usher
incongru
##ulia
##verse
parasher
##lavi
doz
vibh
1340
poison
##formity
followings
justiciable
spm
803
punct
shortages
foregone
010
016
competency
flung
proteins
vacc
ashutosh
bijb
repayments
##changed
mechanic
occupies
palak
824
envelop
culpr
ncome
dgft
kirl
abhiman
printout
bandw
apprehend
mathematics
illustrations
partitioned
mhow
sectors
choudhury
games
franchisees
shrinath
undervaluation
dormant
comprehension
anupam
excavator
bachelors
overheads
pedestrian
hatcheries
repugnant
yahya
innova
nissar
kalidas
moreso
dipti
travancore
fits
hud
kj
mason
mounted
ning
rder
##lite
##fast
byela
byamit
##idth
suk
##mentia
##utary
complies
lah
##umen
honors
##pti
quando
soya
purnima
##outing
judging
libr
workable
mrc
poster
brass
consumables
pahuja
namita
imrg
3822
crlad
urdu
importing
altering
leader
juice
766
8437
relaxations
pcc
pcfc
##icky
latters
helpless
consequentially
aliquid
##196
tipper
##enues
painting
ukky
167b
1244
pathan
sbn
enclosures
flyover
camera
ovarian
kesar
##copic
technique
maharshi
kandla
billaiya
snowtex
ariba
bikram
ujjain
unimpe
brigade
bronch
lichfl
2s
cfs
kure
pull
wave
##hans
##mr
##tl
##years
##zz
##edia
##aro
prah
orange
compend
##sey
rested
disable
cope
crusher
##ansal
cleav
erics
1750
carves
prince
spring
pljr
bua
##kssr
040
##agarh
idem
pfi
futures
deviations
kva
emphasise
majestic
malur
organizing
ingots
817
garh
##bagh
checks
nfs
##justice
epd
talking
somesh
chatt
kgar
escalated
administrators
camps
triple
hypothecated
pdcs
dorset
wireless
chirag
tejas
discarding
shafi
thickening
vidhur
abrasion
chakrab
corrections
kirloskar
eli
hing
janta
los
p19
rut
##iidc
##nur
##may
##iner
inhab
shash
##etics
##ulat
subcont
amjad
abided
triump
##achable
1249
defiance
workload
vern
3155
seconds
arts
expressway
##ahira
categorised
burning
cto
khalid
treats
873
897
vijaylakshmi
morph
kanjiya
nirma
lorries
summaries
dependants
mdg
chattel
mhcm
jyots
grandmother
sapra
cosmet
##burys
wager
meticulous
radius
khemka
megptcl
russ
bargain
blatant
fervently
misdemeanour
mellitus
welspun
bandwidth
cleavage
triumph
5page
aai
bru
hut
hmt
jural
kond
linges
pals
tq
##eas
##cating
##jai
recharge
sem
shinde
##oward
exd
parul
cohab
wepl
caf
ifci
raz
popat
bases
1240
charts
rightfully
approves
clb
confines
2406
spvs
finalize
32a
##ysya
barmer
##lessly
driv
cocs
44aa
outsider
##2021
898
##136
filial
cataly
superfic
nandi
sahney
curiously
enlisted
weekly
batteries
apprehending
sezs
predominatingly
harmoniously
prevails
gym
feeds
fibroid
lexicon
richa
orthoped
hubli
kwipl
despatch
kilometers
workmens
seminars
sadhna
controverting
deprecation
template
abhimanyu
ericsson
2d
bent
dagar
dgs
eous
ial
ketan
mug
pent
tinker
vt
xs
##ea
##mnt
##kbz
##gra
##jas
thahira
ine
##idge
alert
shc
acme
fringe
aditi
atma
agrotech
considerably
cape
1788
2535
23fb
8046
bhal
apmc
digest
airtel
realistic
##play
incremental
002
untoward
sarp
probative
961
1542
unfilled
winds
faults
ganpat
panchal
carton
stretched
sansthan
whisky
indusind
eleven
siphoning
graphics
liaison
awasthi
##fabric
yellow
krishnamurthy
unmindful
bijbeh
jyotsna
lingeswaran
ej
hue
hood
kgn
lath
nn
qut
rba
rns
xbz
##uva
##iar
##dhani
##kam
##inated
##anced
##anath
##elect
alic
##iml
underground
incul
consigned
indors
##perc
##ewell
decade
leade
##aken
unset
unbe
departed
##roo
1148
##eema
wheat
##acular
spre
satpal
cpm
centralised
surjeet
artic
planet
balram
43a
paw
naming
restruct
acceptability
prejudicially
ratified
741
bogged
8516
scch24
992
contravene
donated
##125
moraj
dependant
jurid
contradicting
jhansi
launching
tajinder
bittu
bungalows
nobodys
drums
tehrir
sidharth
swayed
chakraborty
cosmetics
sarpanch
unbecoming
bard
bmc
cels
dni
fallow
gil
hame
kings
nail
rans
tig
uti
vansh
##ben
org
##sequ
##aming
##uss
arid
reclam
crude
commuted
1214
##ugodi
charities
chemin
erv
23a
2175
contrasted
favourably
bhur
lakhan
barun
panvel
utens
##sher
arrives
1942
ssas
nika
falsehood
ski
karmur
986
censure
dredge
affirmation
samson
rashly
nazar
chitra
contentious
blacklisting
panchsh
encouraging
swaran
hurry
pitted
bhandup
correlated
kesoram
circumvented
rudrapur
pardon
endowment
camouflage
eradication
ellerman
kirtilal
cashier
library
prahlad
catalyst
bijbehara
juridical
reclamation
1t
hidden
iic
mcc
qa
rug
sft
tes
ubs
##oba
##vis
##wm
##kka
theor
##idas
##ceiv
unity
nepal
1036
raig
1518
##sons
##rooms
charas
salutary
uplin
herbal
clash
sharab
spi
1433
3439
vehicular
backwards
shortlisting
electro
creed
panels
697
urging
legislate
754
902
dereli
escort
cardio
prospecting
garage
csir
llj
deadly
bajpai
mpkssr
dcrg
cleaners
stops
1890
roots
concedit
ajai
izfr
endorsing
shocks
shocking
franchises
picking
austria
bydushyant
prabha
##eshaft
australian
reorganisation
conspicuously
vicariously
mazdoor
explosives
xlvii
kokani
knocked
accentia
pearl
trilok
byharvinder
domicile
undesir
kurele
cheminvest
uplinking
aanya
bdr
ddu
dora
hither
nur
oka
pushing
s1
ses
##ej
##tled
##othi
##lon
##bul
##bare
##gonda
oft
inhere
apps
degr
ally
##imandir
##osy
petit
##anship
unworthy
1260
deton
clue
roork
reception
standby
desi
furnace
maq
misunder
backup
endowed
propag
rajneesh
electoral
09th
realtech
occas
infoc
chandimandir
daulat
burgl
mahant
handedly
881
teles
##109
participates
prudential
analytics
breakfast
advertisers
axa
mdr
canteen
2767
gulam
commenting
jamshed
misreading
springs
straightway
sweets
threadbare
dabas
gherkins
kaimoor
gsrq
lucid
amazon
driveshaft
dereliction
ath
gest
kushal
ocean
pier
tent
ubi
##eo
##wealth
##warya
##ona
##alc
##ppan
onetime
##ilp
##ayal
fra
chad
disrupted
arul
imperson
##akir
caw
##abs
charters
materialized
showc
##athu
mool
varkey
extenu
searching
arti
deniot
misde
phd
magma
stationed
vacu
physicians
leniency
geography
gratuitous
revealing
weighment
##565
1074
ankitech
surprised
azadi
harmless
bpm
indisputable
shuttering
ashwin
dipankar
stuck
gopinath
shafiq
discouraged
outrage
obviate
madhusudan
retroactive
jaideep
hearsay
extenuating
gps
rita
tdr
umed
##hayam
##vam
##wall
bykrishna
##imm
##amber
weaving
commision
hisar
honey
aunt
gobard
1059
ush
salvage
worship
monu
##oga
colonies
1473
2718
personality
##cons
studio
encry
851
greaves
krs
khanwil
##384
wishers
cleaner
entrust
coding
conceditur
illustrate
expecting
netherland
psychologist
nvpl
fallacy
bellary
quintal
solvent
disagreed
halsburys
tournament
agssl
scuffle
undesirable
khanwilkar
6page
a0
jila
kim
kisan
tant
##bhi
##kl
##kad
##jks
##enity
andolan
notable
anth
##vet
##ayat
##ateek
faces
appellan
subvers
##oded
##quest
factored
recy
recol
abha
abuses
##endran
delh
leag
scored
1014
pose
mango
##onga
##ossain
maruthi
1639
lime
1795
merge
distorted
drun
##tek
##apar
consume
instrumental
attar
015
dhol
923
edus
bones
ccp
##crime
gurpreet
voidable
withdraws
1589
dharmender
coded
lifeline
handwritten
pasted
warm
prematurely
honesty
massive
beatings
pooling
gradually
headquarter
bysumit
kidnapping
mosque
vasudev
secrets
paralytic
stagn
alicui
occasional
gobardhan
subversive
fli
hossain
lamin
naj
pith
q1
tive
tmc
vom
vces
##cut
##gat
##gavi
thri
forever
conjun
sequitur
##utable
##terial
##usad
subbur
##suf
arss
coir
abiding
trol
wecl
obey
imped
unwill
unitech
unchanged
secs
howe
1130
videos
marath
opal
1829
specious
moist
maize
sitaram
husbandry
crlmp
pw16
56f
##nea
buyback
bounds
fob
executor
characterised
player
shivakumar
koppal
sahai
relatively
santra
##429
commodeal
collated
shambhu
spirits
##rella
angles
1690
canceled
hike
majeed
40854
diverse
strategies
networking
militates
chinch
arithmetic
cordial
drinks
pepsico
vithal
chokshi
nipso
prominent
korea
lubric
nfsg
##electric
hitherto
vacuum
subburaj
unwilling
cil
cers
flan
fys
hinder
hilt
ive
piv
vkj
zen
##sad
##mos
##lers
##rite
##bani
##zu
thigh
##idars
anvil
shame
subb
##oty
##otia
##umi
##pton
maybe
sec153
##ruly
hima
valve
##gupta
couldnt
shrimir
contractee
2449
##mang
1437
36a
bhuv
##kshan
involunt
tracing
infirm
##graduate
7259
1424
sriram
855
deducti
##2015
##beer
811
pbdd
miscre
multiplex
kalp
widen
biswal
radhika
illustrated
novation
npj
triplicate
appendectomy
nangal
vaishn
sajad
dimensions
yogendra
fanci
undermine
magazine
sincerely
platinum
indispens
indubitably
vernacular
indorsed
shrimiraj
aero
ckd
eag
gom
hmc
iipl
oo
plied
vysya
##nical
##fit
##wamy
##bic
##edkar
inox
prateek
prodd
anw
shorter
##imely
1937
vireet
vsnl
##pec
unmatch
nemi
##ishti
1050
worse
1745
satur
brush
sanitation
##yappa
080
##waras
##post
motherly
ka04
liquidators
mahabir
condens
freezing
untimely
chapra
skyl
maintainer
998
##607
masse
envir
##381
##limited
nausad
overruling
kalia
flaked
navjot
kirpal
bajwa
striving
jaya
xxvi
cpj453
raghub
2077
gauri
pratibha
habitually
kunwar
roped
unclear
encroachments
rotation
militants
lpasw
fisheries
entitling
bijli
windmills
haemoglobin
anomalous
harjinder
muthoot
madhubani
pakistan
##clause
amsri
restructuring
unmatched
ated
cip
dang
fcs
gng
ila
mpp
m29
ohri
rane
tang
tilt
wap
##mak
##fy
##rain
##bd
##idal
seals
dek
perils
stained
stents
haq
adi
arterial
coated
coils
amo
recre
cites
commiss
rswm
learn
quit
scores
prefabric
1300
1304
##isht
marble
opr
suprema
moves
spain
constables
costly
refute
4048
assn
43d
societys
situs
industri
smith
seniors
saiml
husk
3961
invokable
##paul
viscer
904
buried
##karsh
782
mohsin
952
821
935
1498
##dhenu
cuts
1923
1167
lacun
kamdhenu
nirav
2541
munni
pramukh
dhanlaxmi
holes
yashpal
khaitan
fertilizer
sumitra
ropar
robust
capriciously
aluminum
omits
homicide
lnv
iedc
bhadrak
orchid
coffers
##rakash
inauguration
kasturi
qualitative
burglary
fanciful
aarti
b4
fic
gri
ima
kansal
puj
riders
tide
zile
##light
##pn
thail
threw
prachi
byjustice
2047
wasted
shit
shpl
exon
accred
atr
heera
dose
crushing
14b
##akant
unruly
1037
manmohan
1700
1733
##ashree
financer
thana
50b
usefully
stationery
vaz
##karan
swd
srivastav
recognise
tariffs
primacy
installations
relaxing
##2013
##ourav
rajeshwar
tablets
enjoined
dgk
glitches
mixtures
1298
pollut
beds
rfs
discernable
femoral
2471
##ohall
aw1
fnk
falsified
tandem
excavation
vardhman
episodes
malpractices
granite
voyages
anomalies
juxtaposition
kanika
disablement
spreading
league
supremacy
a8
aic
gf
jav
nach
ount
ousted
pem
pestic
rip
tmt
##ii
##1e
##tak
##place
##bles
##inished
inch
##icop
prith
##leon
aseem
washer
shw
##tera
##etus
ammal
##uminous
impinge
unas
unnot
##class
1047
mayohall
##abali
defam
insta
forma
merges
booklet
drm
genus
spade
apfc
dealcom
4500
firmly
condonable
counterfe
##afar
skies
karth
helmet
helicop
gurjar
unfinished
nagesh
girda
sunday
##which
304b
jasmeet
demolishing
vasai
allocating
lakshman
halls
fifthly
rhy
dissented
feasors
persisted
##burst
hydroelectric
abhijit
kurla
colorable
explosive
conceivably
vasudevan
mounting
carpets
infrasoft
indigent
unheard
umbrella
ceramics
victoria
gobind
edusmart
unnoticed
bata
cgs
c12
eminent
fnu
gipl
hcs
hatched
jant
jks
kits
ness
nort
nations
##iers
##iyal
##mh
##zr
thee
##atim
##asil
##alified
##omed
##ompton
byman
forget
whit
proce
sees
##adir
anch
shival
##etown
stain
trich
1903
crompton
boats
outburst
preview
1018
cores
mars
2021and
##lop
specie
sport
essel
detailing
civic
pawn
settlor
smugg
barely
##moning
defaul
motto
hygi
pw15
271h
dhak
dhabi
kaveri
pscrime
6600
sarve
chapters
warranties
countering
optional
probabl
likes
talwar
1028
arresting
supervising
##283
advertiser
kuldip
mukh
opts
volumes
iec
ideen
exploring
lotus
passu
apprehensions
chhote
sgah
nayyar
hanif
campa
plywood
impaired
knitting
nizamuddin
hajipur
calamity
grinding
paternal
bronchitis
chinchwad
aq
b3
cigar
gudd
jg
jury
lest
mich
mgt
mseb
nder
ndt
pag
p16
##uel
##mally
##oit
##yab
##ids
comforts
sender
offset
amol
##umatic
africa
uncom
unlimited
##oured
1306
supr
evac
1235
1234
##efields
##uguna
1635
clots
3002
extreme
2143
insurable
##khz
punching
regularise
serenity
primafa
043
minded
bells
##ajpur
060
irc
scrutinised
severity
##ahoor
labels
brook
keen
##anga
outsiders
tariq
mahal
kvuk
dinajpur
##rasound
ultrasound
948
838
telugu
828
braitri
996
shoe
##jitendra
typical
1082
narrative
##263
embody
dharamshi
vidur
automated
feroz
ferrous
facilitator
##isticated
fastening
bahuguna
lecturers
encouraged
sarojini
mohamed
slowly
sreen
ranga
vaguely
impairment
dislodging
sophisticated
yogender
pouches
contemnor
corporates
european
subramani
contemporary
splend
byelaws
unimpeachable
inhabit
palsy
digestive
commisioner
thrift
anwesha
prefabricated
viscera
defamatory
trichy
defaulters
primafacie
braitrim
2x
7page
bw
gum
jame
kuch
sits
tx
tect
wlr
##eet
##time
##fm
##win
##kong
##erx
##enti
##tham
anwar
deab
comptr
##amb
reson
steep
##usarai
subodh
arp
citi
citrix
boi
##ache
op2
opine
worn
##guly
verizon
movi
drps
config
2309
##emia
##vijay
plc
costing
##khu
downward
farhan
avenues
anrs
ramdas
##shid
yousuf
retrie
6414
redo
92e
khera
swa
8536
millenn
##2019
paps
##148
concurring
##106
##406
##yamper
overridden
sahay
distinctly
locks
siddh
threaten
incumbents
commandant
metering
tanwar
eighth
kamaljit
unauthorisedly
gcpl
madhumita
unqualified
precautionary
hometown
nvvn
giriraj
pyro
cooling
handloom
abetment
surveys
40388
cracked
sathish
counterparts
hydraulic
smait
circumvention
misunderstood
comptroller
3s
boda
jub
lmv
nug
tile
tane
vellore
##iyan
##fn
##ploy
##jav
##cting
beed
reet
byjitendra
concom
peril
ads
adhi
##allo
##otiya
cov
1348
transcript
1136
valsad
handic
2411
behera
meda
submitte
40355
balraj
3275
settler
3902
validation
1396
sonika
traversing
068
##osale
mutp
conversely
ultratech
958
skoda
probab
helpers
speaker
readymade
filthy
ecir
kashmira
kalu
upgrade
1267
unreasoned
begusarai
##khawat
wedding
dvos
moderate
ladakh
vanita
##ehaved
nalgonda
pillar
kathuria
hormon
158bfa
stuff
sangwan
therapies
pinto
altitude
misbehaved
##unctory
carpent
fccds
sympathetically
henry
deceit
vistra
superficial
raigad
marathon
miscreants
proddatur
cigaret
deabd
concomit
aay
gall
gru
gav
kred
kwal
kourav
##mend
##top
##yur
##ctomy
noon
asa
##anthi
seam
2046
dewas
deiaa
ada
chell
lapar
##otic
trun
cann
interplay
outlay
1042
1143
sindh
1718
1702
clc
estella
royappa
singhara
##aph
40390
pah
numbering
terming
syrian
##amped
54ec
myt
dhande
solve
psc
852
stray
valuables
palp
heavenly
murli
ganguly
medicare
1676
muff
combust
circumstances
munjal
miranda
ankita
footprint
reframe
arif
jatin
originated
uppal
ribunal
activa
tallies
contrived
raghuveer
aishwarya
inequitable
beauty
kynjai
xavier
subcontract
cohabitation
flanked
raghubir
evacue
a9
aam
blt
dushyant
gord
hitech
jio
lq
ound
sks
sna
##oze
##itics
##anna
topl
##ctc
ishar
ori
whos
##uries
seel
couched
shrid
orderly
regis
tries
reporter
relocation
unno
enrol
exp7
1250
1645
1647
1717
profiles
##certained
schefields
reader
spelled
plural
favoured
objectivity
051
validate
##monary
travers
06th
emerg
irctc
forceful
cetera
55a
saras
144a
divider
garment
gurinder
runwal
icse
supervised
mpot
rcf
consolidate
arcade
telecoms
1468
1669
jurist
1307
santoshima
sensible
networth
fertilisers
ekg
prisoners
bolero
kayan
coordinates
pintoo
sowing
anxious
##reatitis
lohdkj
acquiesced
ayurvedic
pancreatitis
incongruous
unascertained
sreenivas
millennium
##yamperumal
kredl
kwality
shridhar
emergency
bilal
jl
lv
mla
misf
nift
rcs
wings
##mad
##michand
##lance
##lkj
##dcl
##bhan
##erating
actuated
ami
##ewari
interrupted
gov
##icals
instig
shekhawat
politics
postmen
##oplas
genetics
bhotiya
technoc
1530
wrongs
013
marketability
adverts
categoric
viral
virus
1943
edit
installing
scheduling
characters
waiving
corresponds
plays
ghs
1884
irref
contacts
##thyroid
hypothyroid
pathway
sadan
1765
loaders
halt
raymond
##dhari
udit
nagrik
refrained
bhanwar
rehab
ignorant
rainbow
shruti
enshrines
bishal
nalin
gadd
nimwat
##panna
clandestinely
fingers
praful
contributor
revisited
fatehpur
wrapped
gherkin
streams
abolished
glaucom
nippon
##ceivable
pivot
indispensable
mpotr
glaucoma
3years
gts
h1
lm
mack
naib
rings
tner
xith
##uge
##mis
thind
thiness
##ingi
##idham
proponents
##stere
deaf
resting
ati
heated
heating
tro
trips
afte
rsp
auctions
unwell
quid
sost
pursh
1012
1043
intensive
1652
1830
erp
1713
revoking
readiness
##mann
spoke
21a
3176
thanjav
##ogri
insolvent
specialty
erring
##setcl
ramlal
productivity
magadi
025
02nd
shareholdings
idfc
kaundal
cegat
5185
edif
mahaveer
biyani
khure
984
842
debanath
telen
997
933
##139
participant
nagal
acharya
fdlh
ppi
summer
summing
hitting
1258
deadline
texmo
savla
5067
gpil
nirup
jaspal
dispensary
harshit
microw
spont
trainees
nanak
throws
shirt
priy
mfn
conservative
vfhk
disbursing
chowdhary
dollar
##opausal
eclerx
girdhari
suscept
hbn
cardiologist
synergy
stitching
manzoor
detonators
jamshedpur
taneja
hormonal
postmenopausal
tnerc
##sterectomy
thanjavur
1c
cfa
dys
fp
ica
kuk
sbc
vicky
##sed
##ault
##mug
##rcl
##gold
##onji
##arium
##omal
prak
priti
sujit
##chery
##utches
##rif
##riwal
stem
stressed
tahir
parbh
parvinder
atms
provi
agn
##otrade
indenture
repo
1415
impunged
bopanna
scut
1308
##okh
usg
salar
##india
formulating
goverdhan
2448
sparsh
bhong
balkrishna
numer
ahad
3372
peer
hysterectomy
deteri
irfan
netram
evidential
devise
devote
lateral
fitter
cw3
encumber
millions
866
837
exercise
presummoning
##105
inspections
nagaur
bonded
##723
mukati
parentage
dgce
abhil
inducing
screens
10thclass
unsafe
keyman
growers
jaswanti
##crores
maximise
ganda
migr
##urao
sgreat
bhawani
801ab
kunhayam
surgeons
philanth
amritlal
vyapar
roughly
sheds
sanghvi
ponni
galleon
##flag
secrecy
voyage
80jjaa
panjabi
bhartiya
kiadb
mileage
pawandeep
recollect
wapcos
hypothyroidism
khureji
susceptible
kunhayammed
bial
d5
dich
fod
gic
jetty
lso
lends
mpcb
ngs
psu
sme
tewari
v56
##tm
##veli
##yari
##bag
##aran
aslam
itcl
anis
deformity
shrou
withstand
##terf
taw
subathu
lag
diso
theref
trinath
##ghela
crr
regen
replic
1400
impeding
banita
nee
1349
transp
1015
rachan
banka
manmeet
1145
obser
marico
1689
##eex
##artpur
chequeex
vermas
contractually
drolia
36565
certifies
40309
maingi
contributi
shortlisted
##ocable
rajandeep
rajdhani
discards
##pling
019
steering
dimentia
allotments
dhogri
undisrupted
redploy
burd
##angmo
stayee
khatta
bidla
8511
nilika
skrit
911
malasi
divinder
divyam
likabali
csd
bearer
jung
temporal
happiness
##170
rw3
jagdip
saklani
socialise
##kshith
destinations
jaiwanti
vinodkumar
tables
dalbir
loader
bahartpur
trusteeship
jamia
reheard
cfo
khattak
sunderbani
kharera
beru
attaches
wagers
##itzangmo
tkus
inevitably
veerpaul
tejpur
agarwall
vcf
dadahoor
kadugodi
3brd
pritipal
hongkong
quotations
accomplished
pedestal
vimi
vimmi
celiac
province
provincial
inconceivable
flexible
pusuing
vakil
inseparable
fluctuations
adjudge
arraigned
kulwinderjit
intelaro
displacemnt
grasim
shattering
hameed
dekitzangmo
campaign
movie
nugatory
gaddwal
nagalphur
nirupma
parbhita
bhongiri
deteriorting
bic
flying
lumin
ngo
ond
ral
sorts
##claim
##aon
##master
##oir
##bod
##bool
##eds
##inesh
reag
##etical
##usagar
adiva
accel
parvati
subtenant
lai
##ivated
coast
amas
amuse
abt
comma
##ewan
delicate
inviting
rae
exp2
insight
manure
##roving
himats
opc
sinnar
##atesan
brut
##khed
plank
2966
moneywise
ramdev
0856
hospet
072
haresh
traces
fours
dhulia
legislatures
qualities
ka02
devoted
##joy
majid
1186
omprakash
ghose
fye
jkj
impacted
deepika
ambedkar
culp
reciproc
kameshwar
1088
flagr
sundresh
2067
honouring
lifesty
nbws
izkf
rollers
1744
germin
websters
nanji
complicity
animation
uppcb
horses
contemnors
recapitulate
saraogi
##easance
qutub
driveshafts
karthik
sarveeda
##oitte
seamless
misfeasance
edifice
bush
ection
iil
iifl
kem
kdkj
oh
px
tcg
zig
##hand
##iant
##lla
##fj
##blo
##khi
##zam
##atric
inm
##anu
forear
anonymous
incurr
##verty
parth
chour
subclause
##ldr
abadi
##ghar
commend
honored
mehar
iff
1515
obsc
supposition
1600
observance
##loi
mop
postgraduate
drink
patra
artwork
computational
032
##charan
reportedly
adds
##tax
sanders
msp
turtle
026
cblr
##respect
##tinad
ccd
avoids
avoidable
144of
7726
iob
##152
samira
##435
babbar
ecology
jagan
beneficially
##462
bhagwanti
mpd
jmh
jmfc
thakker
jeth
pathology
uls
1696
sadhu
manipulating
1341
mcm
tankers
habitation
dmb
jalgaon
button
rbm
older
okn
relinquish
anjuman
660948
watches
absconded
dadri
tatu
instructors
orchard
expatriate
bargaining
rabindra
dismantled
aafia
forearm
8page
bld
gug
n0
nj
spt
tpc
wished
winter
##ingka
thats
byjas
##urately
##ols
resub
stew
faiz
subur
subjudice
subtle
##cient
##sual
laca
dislo
coowner
amal
commotrade
paym
payroll
##aki
goals
scb
accuseds
1019
bankura
poverty
evolving
bash
mansukh
##ossed
1642
##ipore
rupa
revisable
postoperative
2103
artworks
ayyamperumal
apa
4006
misread
backside
1537
sonali
0809
##plant
##ampura
41384
dho
mothers
visaka
6454
kapp
5278
funct
pensionable
khadi
8524
strides
escoms
skel
malign
malkhan
sqft
ashoka
diluted
windfall
absorbing
linkers
colluded
140a
dictation
pulmonary
elementary
nasa
culminate
panchwati
rays
1907
perfunctory
questionnaires
mihan
chettinad
r2w1
translates
rohtas
guntur
jeopardy
binod
ethical
ifjokn
brahm
cherished
repatriation
lohia
strangely
gurudwara
bhogal
internally
ploughed
scdrc
maqbool
eagle
jantri
spontaneous
dgcei
byjaswant
aks
bgs
d4
gaps
kp
lum
nest
sown
xrays
##nz
##dl
##gas
##ref
reaction
##urg
##ilesh
seis
semb
##utes
##aye
undersection
perv
ade
chugh
distal
conspired
docket
crush
##irendra
deloitte
goo
expw
15a
1520
manipal
##uggi
charting
vallabh
##juddin
clears
sigma
3012
##opathy
powertech
cared
2142
1430
##roducts
maine
famous
barad
pannu
018
017
steph
ka51
908
6321
metre
khim
dinkar
millen
1440
wanton
expiring
samast
##943
##137
geo
correspond
##hraj
##506
hina
citygold
murti
kamble
interpol
pictures
puja
thrice
trafficking
sushant
##anese
azam
safeguarding
rmz
ponds
nucle
anjani
undeclared
abnormally
irem
endorsement
amortized
abetted
fgd
orthopa
udham
yojna
titagarh
capacities
santhosh
avantha
erosion
skipper
sec153c
pesticides
counterfeit
girdawari
inhabitants
traversed
amusement
himatsingka
dislocation
semblance
orthopaed
1page
cti
c14
fount
fty
gv
gg
hich
nly
niv
pes
p17
qty
sipl
tun
wad
zeal
##ho
##qdr
##city
##fjr
##rome
##kind
thur
##ouza
proactive
shet
pere
partha
ambal
amba
inde
honbl
expats
mayapuri
benam
intell
grove
defeating
1629
##uba
808
finalise
denote
phen
bari
045
41283
4615
turbo
slots
refunding
194i
pfizer
practising
004
swamy
nij
sarva
mistry
skj
elcs
foster
cognizant
blocking
931
latitude
madhavi
masood
dilution
hoo
##949
##132
ghmc
1068
##758
talent
typist
governors
feroze
kantilal
1407
1891
40624
##kki
1785
literate
##namcha
jhuggi
3297
segregation
http
engagement
malls
blows
bydinesh
falsify
katha
japanese
radheshwari
uppcl
dicg
hkq
niketan
deteriorating
hesitate
rishabh
##hkkx
vantage
aegis
unstamped
abruptly
recycl
accredited
palpably
##oplasty
ctc
cama
ech
gud
hv
kaj
miles
pine
tment
ust
##eus
##iety
##naik
##casting
##fty
##wears
thera
##itious
reis
sujan
##aina
##imming
hai
subhas
##unak
aber
crunch
ltc
decent
soyab
pura
1357
##ilever
1138
defies
intoxic
1751
polished
alongside
surre
construes
##ogen
2880
1536
35e
msco
##pls
##waroop
utkarsh
modal
vaghela
lalwani
ashram
nihal
8436
accruals
multiplied
dsiidc
talcher
amitabh
vaginal
renusagar
chitresh
chittor
##build
asrani
1270
##oorthy
bsr
vouched
summarize
blending
stipulating
pulled
blair
1707
mirza
ideas
roller
milan
gandh
padam
dhanbad
solemnly
vivid
broadcast
##venture
nazeer
dunes
switched
##iraju
prohibitory
reservoir
vaidya
pressurize
paradig
##xrku
pallonji
pampore
retracting
jajodia
dasti
perinchery
mischievous
rugbk
theoretical
roorkee
bymanjeet
dichotomy
culpability
thurles
dicgci
hkqxrku
8a
cree
fas
ile
qay
xt
zakir
##yst
##ern
##ctive
##isms
onkar
almir
compact
withstanding
sts
fran
parry
chary
lao
1914
1909
crldr
furthe
mates
deline
unm
unb
purnea
bano
15g
timblo
maninder
salim
maria
##loo
##ashiv
##ube
2665
verge
clutches
3084
spher
2317
143a
##ogram
dealmark
paisa
3259
35d
audits
sylla
fixes
041
075
5318
1945
1449
8640
879
ranba
latin
##149
csc
mouza
quarry
dsouza
ecg
epayment
hitachi
flower
jagad
strengthens
santro
##495
understandable
bottling
muni
jyothi
enforceability
##weigh
mudali
deekshith
rohtash
manjhi
mushroom
ostensible
overturn
gurdwaras
eois
extrapolation
wooll
murugan
galaxy
almirah
baf
cvo
fss
igs
kri
seld
sda
telling
vh
yas
yach
##ristan
##bour
tod
alv
shy
std
pariet
##iful
factoring
coowners
delta
1316
transplant
15h
banked
ents
intl
intest
##vtej
william
1831
##mins
advani
kumars
extort
sattar
satyam
esjh
desce
##acking
britan
apathy
035
regulators
farsa
specialised
serco
ramnik
0835
realising
pw19
sridhar
062
##shri
damani
5784
##grams
5284
7038
encaps
emphasizing
##ushree
grazing
949
organics
nearshore
foils
pallavi
presumably
invalidated
incorporates
unfav
1490
##ographic
cmc
jkt
navtej
shivani
inflamm
1366
navj
ganai
ganesan
eighteen
sundri
ditwor
1263
kanthi
epfo
polytech
fortifies
1573
pumping
jhun
nationwide
workshops
##project
nimhans
discontinue
infringe
unrealized
queue
overlap
harjeev
resistance
lamba
milestone
undeniably
imaged
rhyme
guddi
jameela
evacuee
flagrant
incurrence
millenium
ranbaxy
seldom
9page
ckr
ein
hul
rains
umang
wali
##ius
##noi
##wpl
##dam
##eru
ofrs
##leas
assure
sekar
aneja
withregard
resisting
##allu
arena
cril
yearend
preserving
outweigh
ensue
##ferent
15ca
##cked
##bert
moin
2700
sumant
2488
variously
plug
generis
patta
effectual
2814
2210
balwan
technicians
##missioner
33a
imminent
secures
legacy
4595
pw17
064
gujjar
objectionable
flouted
slate
7500
damaging
psas
srijan
1154
7600
mohta
##iklal
relaxable
divan
telef
826
1184
mobility
unfold
logos
1458
ambica
sandesh
storied
somani
1073
buddh
immoral
predatory
conforms
munish
2385
expln
malafidely
expansive
40812
40813
##frame
sgpc
cultivating
kunigal
gambhir
marginally
##trade
rasool
tonnes
adalath
ckt
shilpa
chunk
hedged
monday
transfusion
divesting
ifsc
disparate
yojana
qazi
hurriedly
subbiah
##makers
smuggled
seelampur
lifestyle
spheres
woollen
1d
4b
bsp
bipl
dour
fard
fkha
jad
lied
monga
pds
riz
sailing
tone
wc
##shar
##cw
##lore
##vl
##vana
##dus
##erian
##enne
##asty
##isor
##omer
##urga
alage
perty
faq
##sued
consen
indoor
unilever
1318
rais
1514
reasonability
dispel
1878
approver
merla
##acom
varju
subjectively
5017
drag
artillery
nonest
compensating
03rd
instantly
customized
tennis
nationalised
6884
appointee
barcl
sonal
sonam
provisi
##bie
infuse
1326
candor
cbic
meted
designate
8402
languages
travesty
litres
enacts
##135
blrk
windows
controversial
flagged
somnath
stakes
axe
dlr
vikaspuri
angel
ganeshkumar
gateway
raids
##noon
focal
wilson
alloy
mantola
shreesha
pitampura
5497
pledging
floods
mangol
switching
reconciling
##pedhi
promulgation
repatriated
abolition
paradise
10941
gogaram
ontrib
cogently
posterior
##ussil
vomiting
shittal
yacht
parietal
aae
cn
cake
iata
jon
jpr
kt
kios
lung
oz
qab
qadir
tg
tts
vap
wah
##nic
##tance
##jesh
thy
inam
##leman
2032
##adom
##utations
underline
sticks
hakim
##cia
abusive
allerg
1939
imposition
lepr
qui
scot
enum
1302
1060
1529
mankind
1245
1133
setty
defe
clever
##eek
2664
earc
overst
invests
25154
carat
trexim
4047
aggressive
1533
billion
realizable
leguminous
traverse
##pool
dawood
excepting
khev
khatha
115a
sunshine
##204
protested
966
divy
8905
832
gurb
##142
##102
adjourning
babubhai
rajeshwari
murl
rohilla
batches
##476
akola
akbar
osman
sudeep
widest
therm
forfeiting
1597
mercantiles
spiral
nigerian
apprehends
vaswani
indemnified
##alpuri
gulf
tallying
schematic
gmr
triggers
rrb
mijks
hanging
##mbic
bigar
cosmos
nuz
unquestion
euros
straw
frustration
radhe
correlate
eqy
kinetic
fisher
amplified
sajjan
esops
coolie
alembic
purposely
fetter
nikunj
gurdwara
celeb
cidco
vithoba
kaimur
uchenne
atlantic
impounding
cascade
honb1e
djsaa
moisture
involuntary
stainless
ndtv
samastipur
mudaliar
cse
dps
dada
git
kour
kpo
kott
l3
mj
nalla
tons
tjr
volv
##mesh
##mati
##xka
##ino
##ionship
##omo
ismail
forgo
forfa
##stu
##chl
##vender
alc
alar
chu
subterf
##rai
##soor
##ghly
furl
presided
serviced
pref
afternoon
1236
marriages
1605
1835
1823
2663
wells
carriages
spcb
2130
empire
cpgram
demer
patpedhi
denomin
employs
##hipur
siti
digits
3368
violent
086
harpreet
014
srm
diwali
badarpur
foreigners
6176
rebuts
##ronom
contextual
6627
003
strat
##ushad
karhail
elite
87084
creditworthy
ings
autopsy
brakes
csm
##134
humil
ght
bharathi
ecgc
protects
naushad
hindus
flaws
renowned
xxiv
angi
ankush
##bbing
1607
sbns
malafides
allocate
synonymous
synthetic
nursery
yashwant
htm
probationer
woodward
##sinh
mulund
haldwani
mushrooms
wtgs
ascj
sodium
exempting
cjm
##murti
blatantly
vashisht
pamph
foreclosure
guardianship
buxar
##firmed
countersigned
emaar
exd1
articulated
trolley
carpenter
cigarettes
concomitant
salaried
kappac
functus
hooghly
jagadish
consensual
leprosy
bair
cows
dio
elo
gda
hare
jva
rame
sng
wine
##sc
##eers
##wy
##ply
##pia
##atically
##alim
todi
##inga
foreh
##adhar
alwar
shen
shabir
suba
disowned
recalc
fincon
vius
##endras
socially
13a
1016
1294
1109
##ounding
##amine
copied
80ab
plf
5050
bhosale
3468
039
3783
054
##sette
saniya
3826
lighting
1382
answerable
surveyed
categorisation
ida
joints
ratilal
lalan
929
92d
khul
strain
counterclaim
karia
947
8701
multin
ranges
narottam
functionary
litre
envision
diac
1456
##457
1029
santhim
pains
traveled
1274
colluding
shreeji
dopts
mixer
mixers
polyfabriks
battle
bedroom
munshi
snatch
nuts
shaken
ksk
silentio
earthqu
aaditya
okz
gokalpuri
nuisance
ekta
flee
rasiklal
familiar
trends
randhir
abandon
binay
refinance
aniruda
transo
hkw
khatau
washed
satendra
perquisites
rarely
tulip
coupons
ramswaroop
shapoor
lachhman
mofussil
orthopedic
kalpraj
gavai
topline
enrolment
intellig
therape
chittorgarh
qayoom
sundriyal
angioplasty
forehead
santhimadom
dap
density
fvpl
hkk
jee
mune
p21
rial
ripl
sorted
smita
tthe
vnk
wan
##qy
##uating
##nut
##vg
##dari
##yo
##killed
##gp
##zc
##ont
incho
##eswari
##arth
##aration
nocs
reap
##elal
ong
itis
anmol
##olab
##termin
##irl
perso
stb
stadium
##ulum
adesh
acceding
paresh
lahot
disallo
partakes
##ific
amro
abg
##umdar
vsl
direc
1353
15cb
##abai
salil
1842
gund
2683
2779
3009
##archand
tremend
patron
downstream
4046
misgu
circulate
35a
3578
sankar
095
peter
harvinder
067
cali
##arring
daman
10044
##grow
lalji
gujarati
derail
cooperating
954
9406
1338
organize
fohkkx
ndd
geotech
impacts
1501
ftld
mpid
venez
unskilled
jmhpl
##kjke
facilitates
nasir
##841
voce
ganesha
##obar
sbml
snr
promotees
dhanwanti
3097
synch
##adeshi
jalan
lkfk
juvenility
circuits
nalco
disapproves
anirudh
biometric
mithilesh
tibetan
dusib
conveys
christian
injected
rituals
financier
horizontal
sarthav
krupp
satija
inculp
planetcast
enviro
qabristan
multinational
transocean
inchoate
venezia
bution
bina
bays
fma
fkka
jhan
nai
p22
tdi
w1
##ean
##lk
##rayed
##priya
##bari
##araj
##alco
##icidal
rex
rewards
prone
sei
sebs
2079
shush
comparat
perme
pershad
stare
adcs
chado
lapl
disg
petti
doe
indif
regret
##ewat
lekh
unin
unwant
##illance
interiors
nemin
nefar
enem
1359
cau
##ruth
1238
1233
1608
1648
1653
makers
upcoming
##lib
guvnl
1723
landing
climb
dross
varsha
simran
departmentally
cirps
favoring
plr
2970
balas
3250
phc
smoke
engines
sahani
33ac
3399
imran
unions
auditing
diet
inflex
scrutinise
ka03
ratna
exchequ
##karam
66e
shield
shipped
swimming
115j
862
##201
##gsl
shaheed
madho
##124
##born
correspondent
##459
1063
moveable
1506
3071
unspe
frontal
1097
puc
igi
chatter
sponsor
gtkj
npd
sgp
gardens
sukhbir
pickle
dressing
mudra
tiofr
modernization
nuances
pdc
crafts
bunk
bolster
buttressing
gosain
abstained
gksus
sangita
anxiety
pressurized
nakoda
khader
stigmatic
kkjpl
misdecl
hygiene
adhikari
microwave
inmates
intoxicant
khevana
eqyf
volvo
therapeut
synchron
chadoora
unwanted
exchequer
9b
bailed
cgo
dci
hppl
ider
ived
mksx
ppe
slic
tain
ture
uts
vb
yk
##uq
##tia
##rus
##pes
##gun
ofcd
##edhan
injections
##itter
tom
beta
rehana
onc
whirl
2054
angu
hash
decip
sheti
##etr
##ignty
##usamy
haw
adhar
chaff
subordin
laceration
petrop
abc
abid
regn
honbe
1309
raped
exp5
expunged
grudge
1126
clearer
##eeb
erf
1740
formats
reviving
postulated
takeover
1538
profitably
083
##pras
everybody
1384
yourself
netting
1006
meritless
solic
##iben
5579
006
strangers
##304
waterfall
elx
962
##151
garima
1545
gurmit
shahid
junkar
dyes
baburao
deeply
1067
hufs
hindalco
1502
##vided
10831
##781
descriptions
breaks
niraj
advertise
1376
enlarging
igof
formulae
loka
perfum
muscle
spectator
##bridge
improperly
nankhu
acjm
kashipur
impediments
visualise
visualized
tonne
ikl
jd196
kesari
##copy
##esthetic
shreenathji
neighbouring
year2017
surveillance
sovereignty
rampyari
parmod
tbop
nangloi
aastha
ventilator
imperfection
panchsheel
muffasil
snapped
aberration
surrept
bafna
dourado
alagendran
intelligent
geotechnical
whirlpool
jd19636
3ca
cics
fm
gw
icl
jug
kifs
m3
mub
ments
maps
oun
oia
pci
pok
pgn
rou
##hc
##nished
##cp
##mil
##mood
##wary
##rast
##pel
##kumat
thc
theme
##edar
##edical
to30
andrew
belied
##lecha
##mentation
stpl
parve
chik
cheema
##unik
1930
crkk
wever
learners
##ptt
neet
1010
1550
mange
loqu
intents
graded
periodof
##lik
1703
##ashish
foundations
##avis
##avpur
sps
2108
2178
##apalli
bump
##ricate
poses
endomet
1390
084
educomp
hoshi
##007
substantively
##short
diwan
badri
2715
##ahalli
solace
penalised
##phy
66d
plantations
007
bounded
karim
karuna
##2020
suspending
8904
chaos
831
##15days
bestow
##129
##724
ambrish
kanubhai
rakhi
rajeshkumat
rohella
cygn
1364
infraproject
sompo
deprives
5061
inferring
upgrading
cgda
arunachal
greatship
djuk
nasal
mico
footpath
pharmac
chronicle
assembling
pancholi
aiol
adhunik
camer
fidel
haridas
slao
feedback
blower
##jhun
bhavya
septic
jeopardise
popularly
biomedical
haveli
abetting
omega
trous
##wpuk
bhojpur
constituency
streedhan
chicken
interacted
divulged
fragr
biscuits
pulses
showcause
vkjks
shameem
gfh
pemises
helicopters
hcsl
pivotal
encumbering
paradigm
britannia
telefil
barclays
nefarious
enemy
10831084
to30days
periodof15days
1or
aipl
bj
bich
cort
dating
esu
eps
fh
fay
fji
fuj
gah
hun
hiv
iind
mbc
msetcl
ous
sie
svs
tter
tca
wol
##shan
##iy
##fold
##fdr
##water
##atin
##asa
no10
isha
reint
forshort
ite
sujay
sune
prow
##adra
hashim
deponents
compatible
perfor
accust
accoun
##gem
chim
subt
provoke
alloted
1916
canes
vile
presid
honbie
leathers
1519
inspires
mane
1239
impugn
chek
17a
1747
workplace
singed
robe
printer
2465
cashew
bhog
apfpl
minis
tenability
sawant
imc
mando
##bandi
093
3943
ramkrishna
pursuit
0846
acceptor
harjeet
jains
1389
6083
##nec
5787
invoiced
##onym
7039
991
##baz
##123
registrars
1929
unfairly
mercury
renuk
##561
1370
1299
jeera
footings
drops
chanderbhan
waivers
dominance
potentially
egg
james
embarked
4096
dmat
canvassing
caveator
drying
charanjit
visualised
gadia
emptying
minuscule
slept
omitting
gnida
dadra
inventorized
bhiwadi
##areddy
mundka
activated
elevators
hedge
akhilesh
naked
belagavi
shakeel
10942
echoed
abbreviated
evinced
impede
saturday
skylight
configuration
laparos
iffco
steward
comparatively
permeating
balasore
petroproducts
fidelity
forshortthe
4s
aak
clic
cma
cfl
ered
gant
hell
kud
lilly
nl
pcl
pseb
pimp
ric
sarat
vkk
za
zia
##iery
##ael
##tas
##gul
##gating
##jinder
##atol
beers
pravir
##elveli
##idable
orb
concil
ald
underne
##rable
##unelveli
arshad
contusion
recou
aba
##andrum
vijender
commut
1450
uncit
goings
enure
mangan
entang
advent
1756
formidable
mentione
overrule
sharer
25381
abscon
2200
##ufpr
prayag
addi
gaining
3992
3885
msmes
hosiery
tradefin
modular
271g
dham
leadership
incorrectness
indicators
ccras
valuations
stark
malla
narula
932
mohanlal
crab
sama
##940
##438
joins
volunteers
ambuja
kanu
weights
curren
kalyani
1644
sdmc
dlsa
2391
muniraju
wounds
panchas
honorarium
halli
architecture
khatuja
bpip
sumitomo
##graphy
trivandrum
praes
corona
akhund
brightstar
moonshine
brahma
fluids
colleague
zydus
rarest
werpl
intervenor
garhwal
shashank
combustion
migrants
jungle
resubmit
ferozepur
modalities
kiosk
forfaiting
furlough
uncitral
manganese
aed
dmp
eal
hic
ira
mmc
pcs
pora
x1
##cpl
##list
##vj
##des
##dpl
##kanth
##xs
thim
beque
##ppy
asgar
forge
sehra
##adar
##adable
cassette
##amurthy
perumal
stk
adro
adumbr
##osnu
##lakh
##cif
coy
trains
matt
repose
imputations
lawmakers
unload
interruption
depute
purvi
1350
1372
races
insulation
##istak
loyal
1248
usable
##orem
1634
##mina
advs
1708
1724
##indavan
esteem
##opar
seeth
2475
medial
patties
5038
maini
034
boarded
trusted
explaine
laiddown
bailor
##hara
ramjan
committal
048
082
cremation
belg
4148
magic
magnet
invokes
carryout
063
punishments
retrial
psl
jao
jait
converse
khudd
009
banglore
1157
hardeep
frauds
##208
malay
foil
gurjeet
##145
multiply
blade
cadbury
tpf
dsa
distributes
##409
bailee
talathi
mehsana
nandwani
##054
##585
alpic
venial
budg
shanmug
4001
1093
2069
diagnose
exhausting
conforming
tetrap
harihar
fractured
batlib
touches
tracks
##769
245c
snap
vascular
diverting
hpmc
pilots
estoppels
tirunelveli
mudkhed
duplic
militant
jatia
curtailing
targeted
mavji
revalued
turbines
pelting
amrapali
hathras
bipin
policyholders
stagnation
##otype
thailand
instigated
chourasia
ftyk
unmistak
navjeevan
jhunjhun
tremendous
elxsi
infraprojects
telefilms
underneath
bequeath
batliboi
dse
dell
dfl
eta
fso
fqj
ged
jgs
jena
kpt
lqf
mai
nimb
oyers
rerc
slt
tuli
vimla
wives
ym
##qd
##iwal
##manship
##dem
##bam
##gor
##atal
##ito
##ester
##eswar
##araju
asans
ities
itxa
deve
##chair
alla
shesh
pern
pert
hapur
fau
adyar
##udable
##aided
disha
##ighted
##otox
vib
delux
obsequ
##akha
unified
unaided
authorises
outfit
prejud
exposit
basanti
1805
1836
1826
1824
sheor
1743
##athe
drains
##media
spds
mahip
registe
3218
1532
excuses
grouped
rajnesh
actuals
portugu
fixture
koli
minda
0840
54e
srtc
066
##issur
028
labh
brooke
90a
burari
rpf
ctt
gainsaying
emphasizes
starter
kranti
gravel
tooth
protract
##159
##156
gurcharan
seizing
packers
bhatti
sampling
cummins
##432
cadila
moul
kanoria
1563
flown
1254
vishwanath
locking
1377
widened
##kjs
backdoor
persuasion
354b
unearthing
daljit
remind
bahl
240a
trailers
dumps
warned
exploiting
##radha
tukaram
shalt
bureaucr
accommodating
28919
tortured
slapped
visualize
overtime
tkuk
astronom
gears
galore
ckn
##coping
pranav
mithal
aerated
hindrances
muzaffar
lungs
kedarnath
nangia
cubic
tnsi
murali
excellency
ecrpl
clashmore
telescoping
dangri
anchor
splendor
basheer
phenom
earthquake
indifferent
therapeutic
fragrances
accustomed
praesenti
tetrapack
asansol
portuguese
ajeet
bodh
d7
dsp
eks
gat
jx
lco
loud
miz
nter
nisar
pid
ppl
pksv
uh
wwil
##sk
##comes
##tison
##yak
##bral
##zd
##zand
inver
##icut
rewor
##ele
appc
##aine
respec
##eller
chen
chha
##ifr
cotermin
abl
crest
inds
trimurti
decomp
ques
nev
cabs
##clusive
raut
##rogen
intensity
himanshi
1604
1637
1609
upwards
1843
1754
2586
2418
spine
2106
emplo
##ilya
ayub
030
farzand
##kshi
phq
ahata
smw
unds
sankal
3960
4122
harping
##003
promising
10045
ceed
5231
metres
70462
sword
gauba
womens
todays
ministrys
debarring
occupational
packs
csg
1207
hole
##107
ecotox
unjustifiable
humanity
epig
jagdev
mehul
capture
##boob
kalam
inflating
chitrad
medications
pii
1095
1107
##payment
271aac
amarnath
upsida
etp
izkir
panchvati
tasle
gtpl
dvb
habitat
sexually
raina
unquote
translate
guesswork
gospel
jettison
bharath
smoothly
##pany
dir12
coinc
winner
##aswamy
knitwears
##uthu
encompassing
endowments
fazil
jivan
sympathetic
##pkart
culprit
losers
flipkart
lacunae
pahwa
brutally
germination
kdkjh
ambalal
gandhidham
hkwfe
muneer
rexine
presidency
akhundji
khuddam
jhunjhunwala
sankalp
chitradurga
cush
drought
eog
fans
fence
ging
gadiya
ipo
ove
r5
sarda
ura
uke
vof
xok
##hare
##iment
##oly
##rats
##ruddin
##pvt
##ye
##jani
tho
isk
ishan
##ppings
oresaid
seitz
ano
alkal
shl
shard
subzi
disrupt
agrove
tral
1917
1931
obiter
boost
interwo
password
sofs
##iveer
1057
timings
benz
looses
looted
inturi
1654
1845
1706
##cery
ruch
readings
sharif
##acing
financ
monet
satbeer
2104
2147
annuity
1438
pati
apars
conductors
smfd
3942
3944
3845
thiruv
4875
070
selections
fatheraj
retu
vacations
rati
dtpl
edmc
deviating
float
##spdcl
saral
ilc
ahmednagar
1336
narrate
##balpur
##144
##127
wahi
corresponded
##405
unjustifiably
1257
1162
rectifiable
akr
kishori
khasi
shamsher
complexes
fellow
manifold
1869
immature
manuals
thrissur
pulse
influential
expedition
wallace
1874
jhab
shantanu
##chandra
paramjeet
shalom
tirum
bigger
rbis
kavitha
##raying
kalyanji
sterlite
kartar
anshuman
ballistic
nicobar
##ggles
pacatol
queens
tailor
collapse
meals
##http
vvr
sourav
coparcener
nwr
vaishnavi
philanthropic
lumino
khimji
nuclear
sgpgi
misdeclaration
endometrial
stewardship
adumbrated
seetharam
eogm
agrovet
interwoven
aacc
btil
dpr
dabh
ethy
fof
fps
gree
huts
iac
jer
komal
lhi
mesh
mik
nel
naf
pound
ppc
rre
rlr
tire
ves
vuda
##qaf
##uah
##cor
##lat
##wart
##rest
##rath
##p1
##dada
##kit
##keshwar
##xia
inks
##asis
##alo
iscon
onble
orp
2045
align
##rimat
##ayan
##ayuk
##amat
##eared
resh
advers
anytime
chatha
subash
##quet
##rage
heater
hefty
triang
delving
imprimat
authors
sofi
enroll
supdt
expun
manik
corru
displeas
1615
tepe
advant
revolving
sharon
##ricted
##acon
2350
annoy
declination
2841
apolog
criminals
##charged
1539
##ocon
ahsan
mandating
sanch
sanket
##anchand
irshad
5712
1002
194ia
lalu
##karma
converts
005
jana
115w
bidar
##301
alternatives
##103
ncb
1025
sureshdada
kamat
kalinga
ganpati
##ouched
piping
rdpl
sudarshan
incompatible
gstr
1265
fuels
optical
cloak
residue
angst
tabulation
ajith
##hikesh
grievously
enclosure
rfct
metallic
amrut
odds
fatehraj
3299
transacting
intraven
notarised
visions
decisis
baij
circuitous
conjointly
bakers
steno
khajuri
eliminated
zahoor
sujatha
thickness
preconditions
fazal
korba
sarthak
cyclone
deiuh
russell
degradation
michael
probabal
technocrats
rehabilit
defeats
commuters
entangled
currencies
obsequies
imprimatur
displeasure
7b
bib
dkk
goda
jds
kial
llow
lsa
mose
mto
mfe
nes
oven
pect
rz
rashi
sppa
tate
wl
ykk
zo
##mics
##kart
ofs
rekh
##idhi
orm
italy
sutar
wher
2084
anted
allah
alipore
shee
##terns
acps
##blem
fromhttp
parcha
subten
##ighty
ares
arist
aga
coals
1913
auqaf
sco
prepost
capr
10c
1508
1247
saleem
1806
limaye
twins
3059
2521
##iori
confection
opines
arbitrate
4378
technop
privately
ocps
paperboard
ramky
panek
offerings
5428
harjit
myst
##anik
infected
2710
029
ka01
922
khos
sarvesh
clips
counterfo
garavpur
gurdeep
executant
vijaykumar
sambalpur
filings
##respons
##431
##439
##757
talreja
koz
vikrant
sakti
sakshi
afforestation
bhagir
2265
##hsilp
nirhsilp
1033
sirsi
thrashed
adduces
1893
sanju
biswanath
lokayuk
commands
maxims
raided
kswpl
embarking
cerebral
habitats
swaraj
khaz
tourist
pnbnk
bahadurji
rotork
seasoning
siccl
sivakumar
autho
fledged
##nkz
historic
unutilised
hurdles
anaesthetic
dqe
disparity
congregation
reactivated
nm3
##ksvz
milestones
petrochemicals
umpire
kesarwani
ejus
polluter
jgk
fodder
acceleration
unfavourable
blrk12
loquitor
bichu
lqfufpr
mtoa
preposterous
ais
dos
dai
dfs
eure
fencing
fccb
guda
hfc
ipp
ipt
jcd
kos
kenger
lame
lily
lks
mew
nces
oi
svt
sadi
tta
wre
wpps
##hia
##qi
##ejay
##card
##wife
##erable
##erations
##itas
touting
##isys
noka
isro
ree
##leaf
byhari
fors
##uraj
coma
##ston
##adder
wastes
deu
dew
##change
allev
resold
##udios
##ifac
amandeep
abn
##ghat
regency
##answer
vsv
ley
lethar
lawsu
lawda
##oused
purse
banyan
invi
1054
raich
mayo
videocon
materialize
##ipc
1742
twelf
singa
includable
grantee
revalid
complementary
2588
drast
copying
desu
36b
aye
2805
consumable
baljeet
differentia
misman
misapp
circulating
apeejay
055
ramnath
msm
injunct
##wares
lesson
6941
everyday
scratch
024
1325
reviews
burst
viraj
ceig
fairwealth
pfc
ctb
##ipuram
strained
grabbing
elastic
98054
##upinder
wanting
figment
1547
vijayshri
1182
##ficer
hcp
##101
##bhadra
##bhupinder
waz
bladder
##434
##503
dye
economical
aepc
jagjit
icmr
birbal
cisp
djs
bodied
sadashiv
manipulations
iznkz
vasu
vedic
gtil
dmtcl
khawaj
refraining
##waja
##wajit
okgu
pooled
pillars
rgppl
mulchand
tilted
baki
comfortable
exempted
tkrh
khemlani
ewac
discourage
desktop
sppd
pressurizing
shailender
kangra
synerg
115jaa
marshal
bhutani
intervenors
ophthalm
yatra
stabil
shrawan
shweta
disobey
replica
burdwan
ontribution
mijksdr
inflexible
eqyfte
bumper
fjiksvz
concili
dkkzy
dqekj
byhariom
twelfth
cisf
ceding
dart
dush
epa
ebc
fath
fmpl
hpp
hpc
kut
kah
kosh
karti
lx
lenses
linde
lwpuk
nue
natesan
oly
rrc
tuf
zk
##iwala
##mott
##wai
##pb
##bound
##zapur
##jy
thwart
inches
##arial
##alp
##isgarh
no11
rew
##elon
appel
bybhupinder
##adesh
anus
deme
acrop
steal
haider
accurately
##osity
taunt
hema
araria
taxn
suchitra
crc
repacking
1417
unwork
unanswer
##illing
caus
exp6
##oki
1208
1246
respecting
1725
productions
rupt
disallows
2179
anna
##otherapy
3247
regulates
phasing
sau
substrat
imam
##unications
seri
##psy
##iums
ramani
ramgopal
negatively
commercials
1471
calicut
6086
capita
dhirendra
protein
5392
9022
5167
##ronics
terminates
recruitments
planting
khet
khare
lodhi
skimm
##itika
##miya
malu
truing
garner
siel
##604
##602
khana
samrat
##ojit
uptil
volunteer
jkd
##195
babies
ambient
kanhai
##752
1927
koya
integrate
mpk
towns
induct
cgp
sidbi
telecomunications
axle
chawda
hsvp
1295
jasani
archae
mhada
syndrome
alienated
exploited
jalani
pinj
fortun
fortiori
sublease
duplication
##burden
reaffirms
watching
bharal
hansraj
sasken
chinna
refinanced
dicgc
##fkfr
jswjpl
sangli
individuals
renuka
scientists
hukam
aribam
coparcenary
khodpia
##bhalwal
franklin
concentrate
lwph
chhotu
gesture
monuments
drunken
dholpur
shivalik
uncommon
suburban
orthopaedic
murlidhar
cauvery
anguish
decipher
renukamat
astronomical
intravenous
moseen
sutaria
khosla
saktijit
ejusdem
kengeri
unworkable
unanswered
substratum
skimmings
baid
c3
cet
cuf
ement
eca
iod
jus
kent
lzam
nade
nerv
rum
ricksha
sgs
sfc
tik
uo
wance
yesh
##hals
##aul
##pen
##dis
##yn
##xh
thar
inlaw
##arious
##ington
beings
itp
suuti
whim
anation
cough
##rim
##rima
shots
perj
##estone
lav
ark
contex
amoun
##ums
dog
matte
boot
##ishma
capl
1633
lib
teg
distortion
postings
##oph
rov
loanee
cps
patnaik
bhow
projecting
apoor
equals
smell
appreciable
056
##geration
##haar
testator
3925
peen
45a
076
44b
4439
traumatic
chandro
1487
slur
6510
statesman
kaush
devcon
laliet
metali
bijan
khurd
shikshan
1427
sungrow
niel
85476
admittance
illicit
##205
##209
##2011
1337
cognisance
brajesh
mentio
##140
##raphic
samity
##947
multiplying
blush
hundi
brandy
tiwary
1566
1255
sandvik
sakthi
##niwas
vein
chitnis
thoughts
##rajog
induces
1195
glaringly
arcolab
polluted
2393
platel
pushkar
billets
affixation
arvindbhai
udcs
rrbs
whiskey
tdrs
armchair
4374
conversations
hector
bhandar
flagship
kinfra
asj04
abstain
bharani
siblings
nicu
sreeja
kundu
obstructing
assenting
ensued
hathway
bamboo
cibil
vibhag
compendium
encrypted
exoneration
chhotey
retrieval
purshottam
commander
stephens
syllabus
alarming
sarathi
corrugated
inviol
drastically
rickshaws
metaliks
bps
bcm
bounce
cz
dile
doses
eid
fkh
fsa
hrit
kll
lnd
lly
lign
lather
mpt
mint
rosh
sond
tf
vok
vadu
xa
yug
zila
##scc
##cour
##mull
##tree
##pz
##pra
##dk
##kz
##kadh
##zon
##xzr
thuk
##erji
##itt
##asu
tos
bez
##rea
bythat
orr
comnet
##riv
##etc
tajuddin
chut
chiri
##esta
##cifer
##oding
abduct
repor
vss
impetus
leh
interchange
purv
outcomes
##hija
scorp
cavity
supers
1032
1559
##utions
##iteering
1636
upreme
1832
1760
1737
1778
1759
poles
mrd
landowner
transac
profiteering
clp
overleaf
2561
powered
##teenth
varian
roz
extended
2416
spg
2355
2158
cpl
bucket
pattin
pattan
5039
artline
2905
mahari
misjoinder
3209
phased
ocr
substand
mandya
094
3800
081
4549
073
crlj
##issance
##world
chandu
candy
ka05
##grila
virmani
5204
versed
ssb
khwaja
eygsl
executors
##433
procures
2501
mortality
##184
1062
##fcpl
remitter
shipra
vishn
divorcee
akme
collision
1374
rigs
xxv
fronti
vocifer
dwarkadh
chamund
##named
widows
synops
chhat
scaled
nishar
alcohals
##kdj
ekl
kilogram
translator
decisio
prisons
hatti
inquiring
saree
sprink
conservatively
elucidate
gopik
##2004
defrauding
symbol
indigen
pushpendra
compartments
s153c
aftab
10457
ganie
magazines
postponement
stigma
misbehaviour
plastering
bosch
chattisgarh
morpheus
bhuvan
recreation
nortel
guglani
soyabean
williamson
encapsulated
ozone
suneja
laparoscopic
epigraphic
fazilka
ethyl
raichur
dushkal
olymp
acropetal
chiripal
scorpio
3cb
bakh
dx
eds
fant
gj
gull
hz
ipe
jade
kipl
kcm
lke
lcs
lunch
lamps
mull
mba
nble
naka
nellore
pate
pps
tne
yer
yudh
zn
zafar
##sing
##hard
##upp
##ique
##td
##tab
##zksa
##atile
##ann
##icked
##reen
appabhai
byrah
##idora
aster
sequent
2078
##seiaa
##iru
##iring
stains
hail
fahim
admon
parvat
atio
subse
##soci
hew
offense
alluded
1933
indent
##andal
##idevi
1460
1402
lee
legend
uner
unloaded
sova
enn
##ceeds
basude
1213
disproving
gradu
1120
1649
1623
1838
1879
##loat
##acts
1715
shrikant
posters
2725
##cipal
3058
2534
carc
exten
2308
newquest
2109
patterns
2986
##roduce
differing
037
posh
##ocol
saff
sahan
3901
4876
realcon
##plasia
hosmat
##pole
6087
flor
visavis
1324
6547
5799
kaash
statues
systematically
##moy
jaipal
editor
shipper
bindapur
swelled
bidadi
sunaina
sarup
wpct
##146
##unta
hydel
hook
##bhumi
##945
gloves
filer
nager
##175
humanly
betel
icra
mehboob
riot
storages
siddi
sevices
ritw
1344
izdkj
chaudhury
commanded
##irao
pratima
templeton
shakthi
shakarpur
pleasure
pinpoint
biocon
nalini
nazim
tactic
breathing
khurshid
shailja
befo
rods
budhwara
contributes
wont
gbp
discomfort
rockland
parmeshwari
dismantling
dqy
mlds
chouhanvs
aparna
tokio
umpteen
storeyed
screws
beneath
razak
tinkered
utensils
##ogawa
anthony
dhakeshwari
scuttle
shrouds
reciprocal
fountain
delineation
86404
dawoodi
denominated
khulbey
solicited
gantry
bhagirath
perjury
peenya
substandard
synopsis
byrahul
1x
1to
aat
awanti
epo
fmi
fficer
gid
gore
iex
ipa
jol
kld
kwat
nq
npc
ocl
qadri
rch
sast
ssue
tada
vidence
yok
##upur
##eter
##nama
##cum
##fyl
##rology
##pu
##kishan
##gst
##anpur
##omot
isd
pric
pruth
##elez
asks
sutle
##anter
wast
wasting
deora
##riad
##terday
inciner
##geon
atk
chor
chip
chrom
subin
argem
petrotech
amod
amma
##assi
lea
unicon
banwari
##iveedu
prepon
1358
cair
expense
lob
##efault
defied
##lang
upshot
sheph
sindhi
deducted
1729
revol
postdated
##ensed
2443
codeine
sparing
2153
##apati
thanks
columb
29b
apo
caller
notebandi
restated
##ocity
057
3980
ramniwas
42a
pegas
##ampers
hargo
childhood
performa
calib
4647
1380
1386
dhyani
flouting
roadlines
burial
rpfc
doma
khetan
yesterday
##coil
ombir
sarwar
sarika
##303
##ennial
krushi
8783
2348
intech
##158
choices
##601
masal
telecasting
hopper
samuel
waives
junag
##dhc
diagram
bharatpur
##ringly
1509
sakhuja
presidential
##362
supervening
nathan
forestry
glrk
jayanti
xxx
1262
1266
manifested
lucky
muh
kotbhalwal
##868
vestig
angad
sooner
3701
halder
halka
hyperplasia
jhaj
elderly
jamuna
unequal
khandwa
obstacles
fortuitous
muds
watson
caveats
mgf
bhupati
magnum
kadam
kamlakshi
obliterate
shoulders
darshil
lfkk
vuqlkj
hedging
gurdial
udhampur
hhc
espn
mondelez
wrapper
madhuban
renaissance
cinematographic
urea
dissemin
lubricants
numerical
screenshot
bicy
kourani
hoshiarpur
adroit
budgetary
caprice
caplin
lignite
bezbar
kaashvi
kwatra
sutlej
argemone
pegasus
bhik
bdo
cia
eu
ely
gast
hod
hull
kuma
lgh
lans
mse
mody
mgi
ncs
nie
odh
pits
rst
rds
rde
vog
xh
xks
ztl
##cus
##mies
##rishna
##bza
##kat
thers
##itting
##iciously
##elly
appending
bydhar
itan
suhail
suomot
##thig
ancient
deity
##rients
##amani
underway
##eready
adap
##osan
chew
coat
abil
abut
citib
afcons
imputing
neon
neesa
enq
1578
eveready
firoz
loy
loving
1216
salman
upc
1857
guha
##mine
1727
clay
clutch
##opane
##tec
moni
pubic
esch
trehan
80c
8045
signify
bunty
duke
2810
2853
bhor
bhure
##vali
pao
3285
farid
customization
3312
putforth
drip
forecast
hyp
srf
licenced
irrespons
5600
legislators
categorising
##hasis
kafl
devadiya
advocated
6789
solan
##ibur
psm
funs
penalize
7241
008
swr
##cox
untouched
##spector
optionally
karvy
##203
maliciously
ndz
compromising
braz
menthol
samvat
wagh
gloster
jkfk
impacting
##358
kannur
conveyor
1921
shivhare
patented
bhagwat
vagina
bss
400kv
chawl
nitrogen
totgar
extrad
dubbed
igjpl
expects
vedas
ninth
tnm
mamram
gauge
gauze
undersc
reimburs
wilcox
4393
lkp
broadcaster
kuber
sikri
uberrima
bolt
abovestated
fibres
mangilal
vfhkk
shubh
mediators
imagine
sodhi
quickly
graphic
year2019
bayan
rupak
augmentation
##vpnl
verticals
impeach
vivaad
movies
niyamit
tehbaz
hingad
lathis
bardez
celsa
tiger
infocom
irrefutable
benamidar
nijji
unquestionably
coterminous
xokg
leyland
yeshwant
nielit
inviolable
unerringly
nagercoil
awantipora
hargovind
bydharmender
suomotu
tehbazari
eip
fats
ili
kla
kick
l1
lcl
nane
pis
rse
ria
wig
##vani
##wind
##del
##kg
##onia
##eswara
##arak
toxic
beacon
asw
asce
##urated
semen
alfa
shunt
haque
habits
##ichal
##udhan
##veru
chord
sublic
##soft
amruth
rson
paytm
1405
unse
unviable
unnamed
depo
1315
1017
raje
racks
manners
secular
intr
1221
videography
setback
wrc
marvel
1646
upl
uplink
worry
teja
statedly
1812
1802
1803
erode
##aseen
financers
empor
##apet
premlata
medal
median
punit
22a
denoting
maul
maha
##hipadar
lakhani
ramkesh
1392
creamy
079
078
harima
myriad
##she
selma
gujar
subserve
breast
##aheb
6495
burns
ow1
dtac
khewat
univers
7260
flooring
fiber
##302
graves
multim
multif
multitude
##206
##been
maintainers
garhi
csb
crave
wazir
##944
bluster
shoot
memoranda
dishonouring
##163
##725
kanak
##392
talked
oasis
saheb
##birth
collar
1079
1379
budhipadar
greatest
blem
blend
1041
##apura
1667
clothe
residues
1231
thornt
micron
238a
dube
varieties
explored
##nett
chambal
vedvan
nutan
solemnity
3773
2167
choudhry
nayan
refrains
rohitbhai
tubewell
rbl
khara
3991
philip
chowkidars
fccd
fleeing
neuros
bhavesh
tcp
moulding
innum
programming
rvpn
uneth
disagreeing
discouraging
breadth
haircut
gqvk
iwoz
tulsyan
prominently
palladium
insect
woolen
abbreviation
##akshmi
kachha
ransom
impersonation
conjunctures
reetika
skeletal
rizwan
synchronized
subordinates
jivanlal
kozhik
archaeological
thukral
vociferously
bezbaruah
citibank
vfhkkstu
a11
cage
dfo
eed
fw
hig
hamm
lcr
mory
mbs
nso
rence
tere
tory
tala
vl
wto
yaseen
##tt
##wag
##ple
##atti
infor
insure
inexp
##eling
onset
ited
conceding
secl
20a
anay
hast
##owar
compile
witho
##ounty
##qui
##suk
therefo
trench
meja
unsp
boo
bove
depar
scl
prefers
1313
rack
basf
date17
insuring
insulated
manus
loos
1128
upseiaa
opium
worst
1839
1809
limestone
##pores
twisted
carve
varinder
extn
confusing
afflu
2403
satna
standpoint
pleural
##ftr
29ba
2988
3200
3253
generals
phe
saif
3910
071
harendra
childbirth
1478
4400
44ae
stead
4901
urd
undisput
ordpl
fullest
bury
##angan
##cais
lalitha
essment
70109
quantifiable
ctio
6693
edcl
72a
cwc
1423
ccb
implements
sargam
##hera
dw4
kaurani
secretarial
insureds
landlordship
pandian
travell
braham
hydroc
##609
madhur
simplex
##946
castle
anandilal
lucr
tprel
##502
##183
##452
ventilation
##726
##401
##407
1565
##753
ntr
naa
hitendra
chairmanship
##489
2691
##iniyam
inferential
##568
##ilax
unsound
png
shaunak
aesl
dl3
1595
combinations
raghuram
354a
poona
lpaow
igat
milind
wednes
gangren
adhiniyam
prashad
interviews
uttered
evidences
kilomet
silkina
bishnoi
##yarthi
suzlon
gadale
5891
seasons
dotted
guests
siva
pravesh
cdrf
radiation
gksrk
sajid
kurn
inventorised
##nhk
ancestors
mathews
pintu
scholars
megap
iwc
reassure
mondal
##ffkzksa
kangan
repugnancy
kilometer
dully
foreclose
25177
mokopane
fructify
ophthalmic
tumour
ingenuity
chattels
celsius
utensil
petiton
txnhk
telenor
vhffkzksa
crilj
envisioned
califor
shushre
gravelly
conciliator
yokogawa
pruthvi
bicycle
eschew
thornton
unethical
kozhikode
lucrative
2o
bf
banth
cultur
dess
dah
ez
fud
fancy
hn
hg
jor
jani
kallu
mous
nerve
nrs
oth
ovi
omani
pms
##uar
##mg
##mandir
##rt
##erus
##onkar
inrespect
##enal
##esar
##alt
no125
##idian
suders
sukesh
whist
##thur
2039
wassan
anek
ala
shim
casa
##iganj
exide
stiff
stilt
facs
incoming
adel
adpl
##laar
chab
chase
coleman
contamin
amman
abrid
trin
tren
hada
indones
unra
unrest
unblem
quad
intert
scru
banik
neem
caa
tribhu
poha
evam
evolve
date15
date16
##ileged
entailing
1275
1140
marla
1876
1855
##guj
1730
meridian
distillery
sumeria
roj
confed
pubs
3175
explanati
201213
patch
28aa
maf
pacl
3263
##taz
avowed
engr
adj2
##naz
appoints
3868
synt
sonic
harnam
harsha
tracom
avert
diw
infrat
chandak
chandras
commons
4735
2717
urinary
1486
facade
kej
##angarh
owever
lalchand
mute
6356
ssn
pfspl
edmond
buye
unexpired
biopsy
##anea
khush
drawers
banglad
ddi
dinner
untrace
villager
entitys
8429
mechanisms
palwal
sqm
functioned
latrine
concord
demonstration
leveling
vinita
gender
auctioning
2506
##199
1457
chemotherapy
babboo
sectoral
nawa
mukhiya
nandini
1503
texts
overrun
procedurally
absented
##473
ftl
##421
diseased
rejoinders
unpriv
renamed
thoughtfully
strip
mishap
42013
funder
undergoes
1599
optic
polymer
mirzapur
contradicts
3799
3797
bahiru
discovering
gulbar
adhes
jamna
sukhwinder
neighbor
26qb
41994
bolts
switchg
tutor
hansaben
nimesh
depositories
luxora
hlfcpl
sacrif
dirty
sewak
vaidh
dwellers
catheter
layered
gulabrao
navigant
ponderance
utpadan
scholarship
jivraj
42161
42163
42162
contemporanea
tpsr
##cargo
policyholder
culprits
unsettled
pujari
jubilee
adapt
kukreja
agniveer
pimpri
##lakhs
nimbus
reworked
singapores
slurry
subinspector
itanos
innumerable
anayo
unspent
igatpuri
california
banthia
indonesia
unblemished
bangladesh
unprivileged
gulbarga
3h
5c
a10
aats
dents
dny
fca
gent
gly
gates
gaba
iath
kals
lut
lash
nuch
pne
roses
sia
sgr
scipl
tad
titan
tkjh
uks
vg
vur
##hod
##1t
##math
##tra
##ril
##rating
##kok
##zed
thes
##eridge
ision
##rem
reactive
pral
prism
ition
##this
2056
ance
shale
##imo
##igram
resells
exceeds
acu
acel
stif
##uswamy
adam
##ponics
parshad
subreg
##rawal
disqu
##allur
arhar
contuma
amn
amarchand
aby
ldcit
indefault
ltcl
vijk
afs
2028
unbi
##ouring
##isher
ragi
15c
butter
basu
usages
defunct
chea
advics
1716
1726
polishing
twofold
sharers
totaliser
2446
spar
sprou
##ressing
emph
##apl
behari
genera
brill
refining
dengue
minors
3563
ahlaw
sengupta
testify
092
mss
mindtree
ansals
foreclosed
4258
pane
magrey
069
infront
iris
dhur
turf
borivali
5776
fuller
6447
ka52
6139
6186
ashit
khard
drawl
gajender
##cock
7970
sarad
foisted
iocl
cdrs
teleport
hoard
shoppers
silicon
cmwp
dyna
adoptive
antony
shivkumar
##428
nava
routes
routinely
collating
##hua
##53c
sdn
keyem
progressed
codal
angadia
##1100
mlcs
1698
snrk
1877
aijaz
shelly
implored
270aa
rmg
updating
outsource
steamship
slabs
perpetuity
militate
resuming
shutter
venkates
disapprove
asj03
indrapal
nimpal
##woods
excavators
ihg
mithila
khatauni
misconceptions
turbotech
dedhia
usurped
uninterruptedly
swapan
sevaks
vknsfkr
extrapolating
yellappa
scribed
divulge
fluctuating
aegon
pasteur
jotting
hudco
fractions
gruh
observer
reagents
pervasive
lahoti
misguided
fayaz
fauce
expositio
sondhi
junagadh
glrkkj
irresponsible
anekal
datt
fists
glow
gonda
jip
jmpl
koi
llo
mone
ntion
pish
rim
tpp
tional
tcil
tinku
vru
vocation
vvs
##nacle
##mere
##ochan
##lumber
##vor
##rut
##rudd
##pack
##year
##bia
##bring
##zq
##xk
no4
req
pride
byne
##idh
seating
seml
##ads
##irates
##amer
reselling
sti
stff
adity
chote
##mpur
arval
petties
amber
consular
recl
lds
canon
crushed
vikarma
afloat
vsvs
decoy
quin
pursis
scant
ifr
1526
evolution
##arean
manor
mansoor
##rock
11u
1105
marv
1837
lets
twist
cera
penury
centrica
30136
drx
singhad
2401
spos
legalise
2120
2131
mumtaz
brushing
3640
3632
collier
iihl
equating
criminally
4394
pave
shortest
##ysk
tenets
rajmandir
negates
housewife
belies
##009
calm
calidora
emami
buildmart
urther
breeding
prepares
dais
statuary
ratn
5120
rpos
edku
khati
volatile
##after
safeline
skid
chauk
prosecutors
tpd
##164
##197
ppf
compounds
1926
nandrajog
introducer
riico
30257
urbanized
kirmol
medicinal
##kshit
mpany
breakage
prepayment
bagla
monitory
sidhi
godhra
adviser
1293
##bcorp
reckless
kotla
ttl
angul
angio
kabir
menace
hemat
manipulative
pushpan
novated
2107
passe
fictional
268a
1682
cultivator
picks
updates
bbpl
docum
3990
bhupathi
iqik
hourly
nourishing
##kiu
astral
##provided
sedco
diagnostics
katyal
bcci
slightest
erecting
urgently
chavanod
chicko
cesarean
clt20
jnpt
lampmaster
gajendra
dhirajlal
ceramic
islamic
phosphates
scrapped
biscuit
compendious
morphine
organs
1tat
chadilal
chellaram
goverdhane
chequeexp1
recycling
enumeration
wolters
bhogilal
miniscule
orphan
advantage
rfctlaar
subtenancy
khazani
roznamcha
jhajjar
klaus
talaq
travellers
gangrene
kurnool
contaminated
nuchem
contumacious
unbiased
ahlawat
kirmoliya
aiding
a12
ece
gis
ghi
gtc
gami
hang
hora
hank
ices
lle
lla
nac
nrc
peh
pca
pasha
riv
sso
sdt
sosa
uro
ume
wos
zag
##oin
##och
##fed
##bas
##ball
##bone
##gic
##gbs
##erted
##itated
##asan
##isamy
isi
reip
onl
##leen
prose
sewer
anam
ananth
anchal
hasnt
deval
aligned
##igund
resus
stim
frid
##ulan
parvesh
atte
atlas
chairs
subrule
##quoted
appealing
##ifier
##ersonal
ldrk
1935
complains
honable
decorum
impost
recorde
lec
lek
ause
unchar
unifac
neb
1356
rag
rabo
1516
1558
manvender
bennett
##mee
##megowda
timeframe
lohar
corning
1232
1139
1103
valorem
1628
1606
1603
1687
1655
1822
deduce
polo
formwork
schlumber
moth
moha
27a
##opur
powerless
spelling
satwant
##ressor
2138
esjb
punes
mustard
2957
mailed
baljinder
4315
036
technik
##kswag
propelling
actuality
3384
nationality
3805
framers
failures
##008
emirates
dhaka
4959
53b
7127
investigators
derc
55429
exportation
khud
volkswag
switches
78b
1448
144ba
skil
##componics
karishma
##eposit
elcomponics
mallick
eygbs
nearer
##141
countrys
dilated
globus
alibi
shooting
llate
##380
elaborates
kanodia
##391
##insa
##756
epas
recommends
sandip
##arshi
##nsm
rdg
##cementi
jayshree
1281
shamsi
xxvii
ditch
gstin
photography
djrs
hostels
1290
ngpl
polluting
rittal
munir
misplacing
kapila
ipd
##elaw
pasrich
ksfl
psychi
sukhpal
khair
tourists
##oheb
bhanwari
lhkh
cvr
ollow
mysuru
##lrk
roman
motiwala
neelima
bifurcating
consecutively
rooplal
eqs
misdeed
grocery
alex
dabur
arraying
katihar
byanil
tailoring
inconclusive
reluctance
amravati
umbil
laser
tagore
acquiesce
nimawat
inaugurated
gogia
towing
respicit
lucidly
delhis
procee
##bodies
raebar
dhobi
allergic
nuziveedu
demerits
shenoy
neminath
surreptitious
parvez
trouser
mizoram
nterest
sadiq
contexts
dileep
orrisa
pattina
extenso
columbia
aswini
universally
kilometres
cheaper
emphatic
venkateswar
pushpanjali
resuscit
schlumberger
aus
bounty
czar
gond
gita
gera
gadh
hiding
hpse
hama
ipse
loni
oat
r7
rted
rred
rded
s80
tlc
wab
wps
zoheb
##hr
##holder
##eg
##iel
##nan
##awar
##mk
##ohi
##rint
##dor
##gur
thai
theapp
##erd
##arbha
##alify
isr
isp
bech
rets
byradha
sump
##urb
wasim
ane
anvar
alchem
algor
shun
shade
##elli
hak
incid
##gendra
chq
disks
##ordarshan
##otle
ambe
doordarshan
1920
triad
leuva
mech
unmat
quotes
depots
counseling
1303
raval
1560
1554
insane
##isti
secy
lop
grame
1147
salai
showcase
1626
upstream
upbring
accords
##acto
1746
1749
tween
##ashe
2742
2584
2469
2339
2304
##kheda
buff
collo
denim
3463
pape
pafm
misbrand
aggrieve
posing
explainable
avas
rajgarh
imfl
immedia
barra
ramrao
aircon
41a
harman
harkesh
crlr
##004
##002
##006
4433
infow
4769
dharti
56g
urn
urvi
1489
ordi
slating
netaji
devraj
viram
6187
fairfield
##angir
tarnished
systemic
6309
7078
pfms
6671
bibi
khor
khath
cwg
swab
swai
11504
deductio
##coms
probed
krush
##upro
scch14
palani
academics
##wanjee
hoff
humerus
shoaib
tpusa
equalization
##162
##ramma
##454
catal
kashmere
##728
cutoff
nawal
shivs
betnes
texas
midway
dissolving
tablet
sjsl
1086
2693
medico
dccl
glen
1070
1288
sidh
videsh
vidarbha
1091
gsfc
laxity
invented
immune
##rocare
##vinyl
jeen
jeewan
iea
ullah
sounds
izlr
govindbhai
padroo
dhanraj
deploying
muscles
baghpat
dishonesty
proximal
narrowly
ollo
nuance
rotary
gyna
fibula
disappeared
radhesh
bhavna
bhavik
magnetic
animesh
radiograph
sibv
btpl
ballarpur
alea
chuni
hkhrj
malpani
traditions
zuber
paliwal
hatchet
despatched
usurpation
tranquill
camouflaged
barrels
foikhx
narsingh
ideally
healed
descriptive
phalke
xkao
imperfect
pratham
hudson
ferozuddin
resonant
85361
85364
handicraft
sbcwp
interpolation
francais
inflammatory
gurbaksh
shapoorji
cameras
##cified
unmistakably
sheoraph
bureaucratic
annoyed
aristotle
lawsuit
mismanage
disobeyed
##court
ennore
siddique
muhammad
abutting
multimedia
megapode
untraceable
sacrifice
faucets
pasricha
algorith
unmatured
upbringing
betnesol
bile
dular
ffs
fkd
fiza
gfr
l0
nick
noun
oky
rises
rding
tly
tpl
wala
##hill
##qam
##nab
##number
##fair
##rati
##pact
##bana
##zk
##inks
##isud
##icultural
no5
##elu
bythe
suy
suction
suvid
suvar
##urgeon
progn
anik
alm
shouting
expe
acumen
hauling
##osited
tails
chines
chats
subhan
laudable
ardu
amala
amtek
recast
crying
indl
trif
1406
imperial
leena
##ptan
boat
interglo
ency
1360
1378
invocable
1048
1049
##duction
basket
##note
##achan
intub
##agpur
##uges
##ugar
himani
mar13
marcel
1640
##lanation
op3
herb
1814
##orship
singly
ears
merging
rupali
revolve
mohi
2479
##mangal
anne
demon
patni
pathik
refe
colours
##reciating
bhish
aggrawal
##kshana
##kethan
3543
phill
excused
excises
rajnish
electroc
ibps
bara
gainful
096
injuring
controllers
cocon
4158
065
diversity
buildh
2714
dhaba
1481
visakh
027
1320
naturals
5863
5862
7166
##maram
dtte
derric
59841
9265
vizag
mahade
deviates
##ipura
ddr
omni
strata
##ikal
1332
eyew
debars
debris
##157
huz
surendran
latent
##wait
unreported
##133
blrc
naga
luhar
##187
dsr
chemist
sanjaysinh
##451
1924
epider
1256
landscape
intimates
textur
texport
##nikethan
kalo
ftles
mtm
mtp
dharma
bagal
1198
shangrila
1044
1867
##apuram
subhe
element
jura
abdullah
##krh
retailer
visitors
izk
radical
1871
tnpcb
jewell
encroaching
jalna
ridhi
practicality
tendu
ropes
lrqr
robin
falsus
undervalue
dimple
mangla
maple
saga
infringes
transponders
cooler
bundles
anganwari
dedicated
dedication
aeros
arbitrage
russel
endeavours
stenographers
ayurnikethan
kcpl
##vikas
scribe
yahoo
sourabh
adjudging
25368
financiers
singularly
amrik
bbcpl
sukbhir
fallowing
obeyed
swapping
creek
##ifully
mangolpuri
subterfuge
vkjksi
clicked
##bamoorthy
pernicious
prejudices
lokayukta
seriatim
gopikishan
jadeja
sublicense
neurosurgeon
hydrocar
##gujrat
disqualify
##ruddhi
marvwanjee
2131to
volkswagen
catalogue
suvarna
arduous
interglobe
bpc
c4
cso
cspdcl
dchl
eku
fated
hms
hart
igt
jama
lith
lasting
mast
nlrk
oipl
olas
pitch
paik
rio
sions
tard
tones
wg
##actions
##aces
##try
##500
##rm
##bstantial
ofdr
##atia
##ndum
inve
##enic
##ories
rela
ashi
ores
foras
forgone
foramer
seminal
2037
##cepted
ango
shas
shring
shaik
##lacs
subedar
##estock
##cible
lafar
##mittal
contig
abw
doom
1918
prese
decore
lawn
uncomp
honblegujrat
passion
banerg
1319
1346
1354
1513
1551
manan
manned
1225
1223
grt
1108
1132
setoff
mario
examiners
erased
1739
1736
1709
2656
2654
merck
##avu
clot
sharmila
totalizer
3015
sumer
drishti
varsh
conditioned
cpil
brar
##khana
duhs
2859
##eholdings
certificated
balco
038
aggrievedby
##ksj
joh
endless
rateable
##ughter
rajdeep
33b
33ab
professed
3802
synam
disco
legis
motiram
hariram
ivps
##005
madc
inflict
moda
flora
natures
6172
jaw
ashray
practiced
66b
khy
consultations
physics
janki
emphasising
7380
deductable
lodgment
mohmed
watering
squad
##rda
malhan
malani
subsidized
##upal
deputing
rishikesh
paltry
teleholdings
siri
packard
doctr
bearings
srinath
characterizing
hcla
pendens
##bhc
responsive
##942
##ccable
login
nhbs
hinduism
icf
hiref
##469
ftp
akram
##567
mitral
sidcl
thakor
manifestation
dictates
motorcycles
jasram
1355
mlr
retails
clinics
dalpat
etuk
jyoth
satellites
chaudhri
chaudhry
1774
choudhari
##692
chains
mcder
110092
promisee
livestock
baghel
retires
##ediatric
bhaichand
pinnacle
2874
arifur
kharif
shrey
nupur
messaging
keshar
fcds
encroacher
coerced
rasathe
parihar
septice
dunlop
lpb
draftsman
pyare
sasan
tejinder
excavated
venkatesha
bykam
chunilal
uterine
##orrhag
40389
ofcourse
toilets
questio
impeccable
arcelormittal
adults
hydraulics
qazigund
tnsldc
vetting
fructified
haqani
##vijaya
lsok
lumina
pereira
reissued
ttsl
shanmugam
mahipal
pidalal
dairies
fathom
parvathi
jolly
shepherd
revolver
blemish
syntex
byneeraj
reclass
raebareli
swaika
tranquillity
chinese
angoori
lafarge
banergi
synamedia
1p
bact
cation
cial
c18
dbs
eri
figh
fop
ffi
kumb
lon
lang
mps
moses
nond
nived
oul
ocu
pct
p26
rfl
sated
tbu
ued
vdr
wpa
##sle
##hough
##hola
##iw
##nance
##nusamy
##cally
##mum
##taking
##fsl
##360
##vak
##rison
##dog
##bp
##kun
##gund
##guru
##zal
##ertion
##orph
##itles
##arms
isa
rewriting
prati
orif
##urkar
##uraman
20l
anip
alph
shib
shacks
compressed
##ambar
underwriting
resile
haven
adidas
parray
##unity
ard
facta
abduction
allay
##umati
trush
##ersion
1901
vibr
commending
ltds
repute
1403
lawr
uno
intersection
wherewith
goat
enam
caval
causa
inview
1020
exp4
exposing
exp10
##okgh
1570
tribune
date13
##jectory
loop
judgt
##msl
1102
marig
1659
herc
1818
1870
##berg
powai
rukh
overnight
2539
2315
2369
satra
escs
behave
plumb
mum2018
brad
punch
buck
3608
refri
artist
2804
balvinder
3494
##ufa
chargeman
farsh
##keya
getinsa
portrayed
sernab
levant
barges
sanjeet
sonipat
4210
4172
trappings
trajectory
infonet
emerson
commonality
irst
protections
6560
kaptan
devas
devolution
5850
6124
6123
investigations
ssing
7052
##karjun
6672
khans
removes
##gana
swadeshi
unto
deducts
##308
ella
##utech
##202
suspense
ranj
majorly
palanpur
surekha
##nalal
##untla
madhuri
diluting
dilshad
educate
wander
fifo
memorandums
##167
##456
##721
nhpc
raksh
##751
encashing
betrays
mortgages
kothi
conflicts
nullifying
sahyog
chandrapur
##479
1083
##425
2698
somvir
unpro
##789
contests
##ompanied
collided
1679
1076
sudan
destruct
axes
litigated
laxmichand
pukh
vigor
predicates
2741
1055
jaspreet
constructs
mdi
polyvinyl
abdulali
muniya
voest
voters
biswajit
sbp
ajesh
topography
interprets
retainer
174a
novel
allocations
shakuntla
##jku
dvk
##lett
spectacles
miy
reconfirmed
pretty
riddhi
neighbors
lalitpur
##674
madhukar
eurost
bishan
nrt
mansingh
raviraj
bhavani
ambience
tutored
radiological
##icorp
60978
cbwtfs
bmtc
aboven
compulsions
##ublicae
tolerate
coopers
repeatation
mortgagors
porwal
tekriwal
mitigated
swedish
brochures
eradicate
pigmy
martial
cyclist
movables
squatting
gymkhana
drunk
nachrani
sreenivasulu
izkfkhz
amalendu
akshar
##astya
eloquent
ramendra
snatching
uninor
canesugar
shardaben
dabhoi
baijnath
technopark
dewangan
alleviate
wazirpur
nadeem
indigenous
graduates
oclock
infratel
vaidhyan
reipublicae
gynaec
radheshyam
subheading
mcdermott
tbua
plumbing
sernabatim
ajaz
bds
b50
dma
dipal
dfc
ees
evers
gus
ggh
gai
ios
ioc
ikk
kis
mula
ncu
oed
pq
pme
rides
rink
sba
vama
yout
zg
##halli
##uza
##ament
##oever
##rans
##inator
##isol
andrit
##oment
##elum
suvikas
##antion
##urgi
comtrade
##state
deena
shred
shouted
##etti
acry
perse
perennial
actor
stal
stap
##ntled
faade
##ulence
atal
appella
anyhow
anymore
chola
chiman
lap
applicatio
##soo
##unagar
arte
consid
abro
dobhal
##usters
1906
##ghan
##ials
delinqu
##iappa
##ansha
vsr
impersonal
boq
authorship
scat
nepc
precip
1314
10ca
1053
mayfair
foll
##runtled
intricate
1220
theirs
materialised
suppor
maris
1614
1617
delhi1100
makhija
1748
grantor
kumaran
revel
##avad
clu
overre
overburden
##examin
3045
##opg
powerful
genpact
spared
purposefully
satnam
conditioners
##ablu
brd
##citur
punia
duct
patt
refram
##ogga
artef
artists
4051
maith
pahar
numb
amendatory
namdeo
##chari
3556
##pco
endlessly
058
undist
sane
3964
msc
042
046
0426
realisable
peth
haribhai
stems
promotes
0654
commonwealth
urbana
argumentative
borewell
idence
1003
devshi
devolve
keva
5859
6162
eventhough
jaz
ssment
70561
6675
voltas
volkart
shikshana
nihar
sarab
designations
##ushali
pmt
##2012
##beyan
ingress
foam
ranhola
autoc
unaccompanied
garware
##089
1206
##605
##1392
blb
blink
educationally
##190
ventured
1069
branding
##754
supertech
superiors
1588
duri
kalani
inflate
fttr
akm
akansha
##appan
1273
##593
cryogen
bagga
upholds
rcm
glitch
##itanjali
fert
photographer
photographic
1090
mwdpl
vigour
predicate
optimal
frontage
bandage
hariom
lifes
partiality
ulcer
bedrock
dowell
menstru
fiscally
archives
marys
bulky
3577
stretching
friendship
apprent
spectacle
yashoda
earnestly
nayar
probationary
hanum
middleman
picket
bachchan
pocm
nannusamy
massage
kuwait
sixthly
unclean
encroachers
evacuate
nalwa
kasim
repealing
##oxide
falsifies
trendz
watchdog
neurologist
pariwar
sanctuary
gowramma
mobilize
chris
venkateshwar
##words
fetus
counsell
forbidden
coordinating
kitty
bypassing
rifle
kfkhz
reaso
no243
yardsticks
christians
quintals
aabc
jnnsm
##mikant
sidhartha
chloride
disagrees
vetted
healing
phosphate
dkzokgh
dfia
undeniable
outgoings
blueridge
capex
commissio
pawnor
bwipl
vfhkqdr
bldg
cleverly
csez
kottayam
humiliated
disgruntled
pucca
mubarak
maneka
deluxe
##alpine
sastry
chewing
whistle
kejriwal
brilliant
angiography
friday
colloqu
prognosis
coconut
voestalpine
eurostudios
andritz
delinquency
8c
a2021
bits
ckj
dhi
eil
eiv
eived
eht
fms
fcd
fmc
felling
gola
gestation
ight
jos
kss
kashi
lating
lca
mcl
oci
ouster
pse
p24
poured
rbs
sos
sbh
tsl
wiring
zof
##emp
##nap
##aced
##maid
##oar
##fisher
##via
##dling
##bage
##kish
##zad
thota
invert
##itian
andra
ischa
rework
##letion
ascrib
iter
2030
2034
##ador
ananya
##lysis
shapp
##oles
##atex
##igra
exiting
incub
##ulators
adhaar
##udha
atom
ations
atmaram
chocol
subr
laim
disown
partisan
aryan
recor
recoded
tric
finch
indorse
furt
1418
decoration
unres
gokh
1305
1056
raza
##okes
##okar
buta
noticeably
folds
##ructions
1237
##ails
##efield
saloni
##ffed
1630
opj
##loom
##undry
1755
formations
formulations
2661
profound
meru
##avar
overha
pw20
3039
departing
extin
24in
2402
disallowanc
effaced
signe
brinda
##khuri
favourite
patri
2883
bhoop
wayb
3454
paisal
3213
restart
3517
smilax
052
sanap
091
putt
3963
1394
047
brihan
pankhuri
arranges
1470
averted
1385
badan
##puram
dhl
dhr
##goi
undiscl
fling
flash
ka40
softwares
5200
leaders
7047
gainsaid
condiments
115bb
unts
sarv
permanency
lanka
##ikrishna
karthi
majji
majumdar
8669
malak
helm
narcl
shaheen
latur
##micon
##wania
1187
cda
1204
##bhoy
vinit
vinyl
##faq
ppellant
cutter
shivpuri
flowers
jagt
jagd
sandh
##369
dura
riya
rioting
kalab
veg
somashe
firearms
acronym
shambh
hsd
hspcb
1099
1467
pulastya
1896
limbach
batulan
reconstructed
sachdev
ajanta
sabri
veda
bahrain
2096
halted
##giri
clothed
lectures
focuses
##frz
apprising
lko
miserable
htn
##undertaking
##lino
##adurai
mantra
kharab
4193
gynec
robbed
iqfyl
debarment
sethuraman
derogatory
sanghi
labeled
goslino
dunar
oxz
60975
rachit
dharambir
unsatisfied
bccl
kakda
surabhi
espoused
tulsiyan
bimalchand
belapur
chalet
fccbs
calamities
subraman
detecting
nadar
20487
championship
maidan
jotted
shabnam
chintamani
propagation
occasionally
vithaldas
zenith
##bicure
recreational
whosoever
vapour
prefix
unspecific
cygnus
jhabua
pacatolus
ophthalmologist
kartikeya
rewrite
frontier
vogel
sheoraphuli
mismanagement
electrocution
aerospace
septicemia
lawrence
destructive
gghl
youtube
scattered
cryogenics
colloquiums
paisalo
bage
cji
dance
dana
e3
f1
glax
harender
ible
jeh
kpm
lion
lgs
nah
nadi
peal
pup
pky
tug
uri
vfr
yom
yamin
##sq
##hree
##col
##oora
##lnd
##wandi
##pin
##df
##yed
##zh
##zada
thu
inh
##iton
begs
beams
reall
bydev
bygar
##idges
##idari
asis
orce
itio
sujeet
whi
2053
wasnt
##imile
##derma
##ett
##amount
##amchand
act2004
starch
##user
haf
atwal
chetty
##ods
hey
hex
##unction
##ungo
cox
amre
recession
allen
trays
dooma
finish
##ghu
##irender
reposed
##assa
impending
unapp
unbrid
interes
gove
1317
##ishek
exposited
pockets
personnels
beni
##agan
##agud
whopping
teres
charles
defacto
1616
1627
liens
1815
1817
gupt
cheuq
erd
##guard
1752
wellness
pens
ruqa
clim
25g
25106
didwania
carats
simon
2115
2149
2133
1432
surj
patti
refiled
bhura
40495
balwinder
equitably
3251
35b
##bersome
rajul
3315
openly
barge
097
3965
rami
ramling
msw
syal
0453
attire
0818
4228
harmeet
harped
briefed
trave
badli
claridge
claridges
##ltd
4700
irss
turner
##pute
legislated
sludge
5705
studios
##grove
dagha
burger
ceasing
rpg
jahan
6275
9270
mahato
unexplaine
encoun
ccpl
swabs
dealtrade
mohini
##company
karina
9488
pmopg
nagarik
squaring
##ariksh
1339
palika
##155
pcm
garud
gursh
gurmukh
besant
stricter
craw
##128
turnovers
##941
cumbersome
mortuary
##188
##389
risky
##729
##354
antariksh
baz
##759
heavier
1253
1504
158be
vishw
krishnappa
2692
akriti
savvy
p1w1
rtis
##329
rahat
contacting
religions
integrating
##068
mishka
mitre
consolidating
siddha
1269
kulbir
shanu
truthfully
saint
jeju
1052
jasjit
circumst
raghup
abdulla
supposedly
munger
##gaonkar
harshita
micr
menaka
bisakha
hemraj
explantion
##hikant
2485
nareshbhai
walfort
choubey
discovers
##ranet
incurium
2371
cloths
honorary
jamal
crystalized
franchisor
aforequoted
scaling
lkkh
maxi
kingfisher
nanu
lumps
shrink
jpm
shreya
evapor
anjum
inderpuri
rotated
3982
shirke
rohtagi
disentitles
##olex
sanghavi
flavouring
mulla
mangroves
uppu
homicidal
vittal
sasf
bottomline
##icorn
ballari
##brok
eleventh
panther
anganbari
katra
vadilal
pellets
fingerprint
haemorrhage
nipun
collabor
melting
evicting
asthana
workmanship
innocu
##miki
3dx
supplant
satyendra
bhabhua
krupa
refixation
dhirubhai
lahdc
ficer
handicap
40064
seismic
shetkari
kajla
thyrocare
ceedings
greem
enrollment
##jyot
roshni
dwarkadhish
##hardt
hewlett
basudeo
adapted
petitoner
diwakar
chaukidar
izlrqr
suvidha
mahadeo
luharuka
ftlesa
bykamlesh
alphab
cavalier
##miconduct
kalaburgi
bydevanshu
bygarima
unbridled
ramlingam
3g
6b
athar
bout
cft
dpo
dnk
elan
gama
ics
jms
k2
losed
lvii
osp
ovision
rseb
sode
trough
tore
uv
zarda
##eth
##epura
##cill
##wl
##wich
##rr
##dan
##kn
##ksu
##zs
##atale
##asth
nox
pror
byraj
suhas
##ilage
##ilmil
prosp
2036
2087
hase
hasbeen
debi
##ainst
alupro
##ithi
shera
shagun
exited
perks
actu
stalled
parv
parb
paris
parel
parsa
subveni
disro
disabling
##unless
aras
arro
consalt
abp
citdr
##ideen
afo
decry
decimal
##akoshi
unlad
boby
authorizations
purc
enue
cavil
supaul
invitation
expound
##istrar
mano
##achem
##agram
grill
marrow
1685
##lie
teesta
1825
##log
noscitur
1714
1786
##talion
penult
clare
sharmas
2708
monte
spc
2318
concerted
2150
2155
annesh
1435
1436
generations
brj
brindavan
punched
dupat
planners
40th
4040
establis
misad
3286
3731
ahl
sajan
3387
3311
3939
3923
negation
088
0858
0841
1479
pw18
##shots
1381
6067
modak
dhule
prejudicing
dama
damoh
##ools
devyani
kemp
[...]
