[PAD]
[UNK]
[CLS]
[SEP]
[MASK]
!
,
.
0
1
2
3
4
5
6
7
8
9
?
a
b
c
d
e
f
g
h
i
j
k
l
m
n
o
p
q
r
s
t
u
v
w
x
y
z
##l
##b
##a
##p
##c
##y
##h
##z
##r
##i
##w
##k
##d
##e
##u
##s
##q
##v
##g
##o
##j
##0
##2
##4
##5
##3
##8
##t
##6
##7
##9
##x
##n
##m
##1
##f
##.
##!
##,
##?
th
the
##er
##on
##ti
##ed
of
##en
##in
##at
##ar
##tion
##an
##es
##or
in
##is
##al
an
##as
##it
##ou
##ent
to
##ec
##ic
and
no
##ing
##re
be
##il
re
is
##pp
##ro
##ce
for
##der
##ation
that
##el
##eti
##th
##le
app
##etition
petition
##ad
or
##ate
##id
on
##ment
su
cou
20
as
##ur
by
co
##am
##us
##ir
con
##ri
##ers
st
wh
ac
res
##ant
##ay
##..
##ch
##ear
##ith
##ion
##rt
##ve
##st
it
pro
##mp
was
al
court
de
##ted
with
##ter
sh
##and
##ond
##ly
##la
resp
dis
un
not
##gh
##20
##ra
##ud
##im
ex
##ondent
##lic
##ge
respondent
petitioner
##ated
##iv
##os
##ut
##ab
##ow
##ul
has
##ned
201
this
order
##ver
ch
##ection
ad
pr
19
200
at
##ess
##ak
##tr
##for
##ther
cas
##un
under
state
##ain
##et
##ere
##ence
jud
there
##fic
##ac
##um
mr
sub
##ol
##oc
##ect
ha
case
##qu
##tin
par
go
comp
##end
##ich
lear
acc
learned
##igh
he
are
been
which
##ell
applic
per
##ity
##ary
##rom
##aid
##201
ag
##mm
##rit
##ee
##oun
cons
from
##ord
##ag
##iss
en
##ff
##od
dec
writ
ra
##all
##ision
##ld
##sel
any
##fore
coun
##ting
section
##ance
##ard
##se
rec
have
po
##me
dated
act
##ie
##erv
##uc
ab
##ip
##so
##....
reg
rep
fil
ar
respondents
##ial
##ure
##00
all
counsel
so
##di
comm
petitioners
##tric
application
##mit
##ot
mad
appell
also
##ame
##ass
ev
##tice
##able
##ail
his
##ould
10
##ue
##ig
##ish
##fer
cont
dir
tri
##ah
gr
##ts
pres
##ble
##av
##200
distric
were
11
had
district
##pos
high
offic
qu
##eal
##per
adv
said
am
appellant
##ill
gover
such
##ough
##nment
##miss
##lain
##est
civ
judg
civil
##ort
appeal
##aw
government
prov
##em
##tit
made
sec
##ties
199
fac
mat
judgment
##min
can
##fter
##ari
le
rs
jus
sing
##ution
##ty
##used
tr
##esh
##ach
##ap
filed
ass
12
##li
land
iss
##ai
pass
vs
year
before
##ous
##tic
##ider
##par
imp
##age
tak
same
##ervic
other
cla
consider
##mitted
##ide
cor
##ound
if
inter
shall
##tive
hon
inc
would
...
##pec
##duc
##anc
fin
ne
singh
##tment
up
##hi
justice
man
judge
again
bo
ro
present
sc
##to
##iew
li
may
##uth
##out
ob
advoc
##ist
##ected
##our
date
pers
cr
accord
its
##har
fur
person
14
who
def
##ber
##ount
##ath
##istr
ors
against
##ash
##umar
raj
after
##ang
##ll
appear
##ens
##op
##ust
##ree
##low
advocate
##uthor
##na
##ased
15
accused
##ans
pre
##ub
their
##lo
##ention
se
therefore
passed
##quir
record
##ove
evid
vers
13
rev
claim
servic
me
polic
law
##red
##ied
17
##tain
author
fir
view
they
mar
pay
do
si
kumar
out
indi
but
ben
issu
##rough
one
sch
##oin
versus
him
##ork
##ector
pur
further
officer
tim
##ret
##leg
evidence
##ug
##if
##sh
conc
honble
where
bh
only
##ight
##ely
years
##ward
refer
##ma
##res
ind
##dition
##ong
16
work
hear
ins
time
according
22
cri
above
##ii
##use
##ise
spec
ram
off
##pur
submitted
##ally
18
decision
##one
##ates
del
will
being
##eld
##ule
##irc
##ature
.,
##ding
##ants
inv
##estion
##partment
through
##2013
##ition
mo
##ments
sup
matter
pat
circ
giv
##cc
when
##ceed
police
##........
30
ext
whe
##not
##ax
department
we
question
##fication
##ory
tw
post
secret
##ati
##ving
##ex
whether
pos
##sec
##ession
##tt
##ission
cannot
##enc
##thers
proper
pub
##led
emp
dismiss
trib
sri
set
##up
amount
##kh
exp
ms
service
commission
suit
el
##99
##ank
198
2015
dev
india
first
##ies
others
fact
cop
appro
taken
##mission
her
shri
plain
##eral
##amin
complain
stated
within
##11
prosec
##ason
##wn
dispos
##ore
##iod
fol
proceed
parties
provision
two
trans
##ok
period
##ident
follow
25
##ult
allow
##ms
she
stand
##illa
issued
public
##minal
##loy
day
##ances
##ved
trial
held
##titution
##tiff
ter
##ief
reason
##iction
##ness
##ations
bail
pla
copy
cer
these
criminal
##pc
##arh
compan
vi
rul
see
##ks
##ever
appoin
##ct
##unal
authority
how
##ht
employ
op
##put
bas
cl
given
##de
..
villa
grant
##ced
mah
##quired
21
##ised
rules
doc
commit
secretary
sin
dismissed
tribunal
having
defend
notice
##ile
alleg
plaintiff
tax
2013
sal
##abad
circum
##han
##om
pri
judic
##por
##aj
##ular
##its
award
circumst
facts
char
##form
regard
te
24
examin
##ings
here
##ose
##ru
impug
min
....
report
##ite
impugned
##anch
leg
into
##ali
mis
23
even
##ided
##cep
should
rule
village
mon
pw
fi
##een
upon
rele
disc
part
000
2012
accordingly
however
aff
inst
2016
27
##oo
##ees
##itness
shar
about
2011
without
gu
poss
##ome
##ower
page
##eased
ap
orders
##ject
company
rem
##own
##ited
div
##ruc
##ef
heard
circumstances
them
repres
ground
gen
##10
nos
##ha
right
deceased
2010
##ast
pun
allowed
##ana
26
2009
bet
concer
supp
opp
rece
ca
direction
28
witness
applicant
##ended
bi
lim
since
ni
di
afor
rel
##td
2008
##ep
mem
##hal
represent
sur
ple
##inc
special
##esaid
##man
##hat
val
mak
month
2014
##ged
us
pray
aforesaid
##ister
offence
sm
disposed
appellants
##ipal
##ral
2007
coram
##ities
constitution
while
concerned
patna
31
ann
##ween
mand
##ior
##agar
registr
between
cle
bench
##ss
docu
provisions
##uris
##ical
directed
cases
##erc
addition
educ
##ine
artic
##iz
basis
juris
29
could
mag
exec
##eh
property
##ating
##rib
##tification
##bit
att
##lud
##diction
education
##war
division
occ
ltd
clear
jurisdiction
son
det
##air
##ender
av
office
princ
compens
chand
reco
commissioner
issue
let
certi
second
ano
ver
mer
bec
##reme
##tig
##tis
##uring
inj
des
##pri
both
##fied
##ending
##ph
found
supreme
new
##garh
another
cent
compensation
##of
proceedings
general
respect
##ffer
##equ
persons
sen
gov
main
dist
prosecution
##ecess
over
well
##uted
acqu
##ible
##ility
requ
considered
following
##lied
read
ear
submit
revision
some
##ouse
own
##ice
##kk
inform
ti
eff
repor
director
##les
2006
interest
magistr
##ya
entit
##after
##tal
assess
fr
##ta
reference
condition
##ack
32
hol
red
car
##half
purpos
##aya
##oci
ii
required
register
corpor
behalf
house
magistrate
statement
##ind
chief
power
code
##elop
##ase
bihar
thus
##iti
coll
##ily
additional
##ool
##app
##anj
more
bank
##erved
party
##lar
petitions
does
defendant
##tra
necess
obs
then
##hattis
##ive
show
eht
##cs
er
develop
comple
prad
terms
pl
vide
##unic
##hattisgarh
mark
##wp
##ural
assist
##uk
##ters
##te
consideration
granted
herein
article
chall
##12
##ani
nar
notification
fo
##ady
crl
appearing
stat
pra
2005
corporation
entitled
depos
##erial
board
##und
##lish
sp
197
appointment
33
##tee
alleged
##ual
01
##ious
2003
benef
sent
referred
nam
##ign
senior
##by
##enti
poin
road
chhattisgarh
const
inves
##2012
##than
sel
challen
contra
##ently
##med
panch
##mb
##gu
##ric
##emp
did
station
veh
produc
2004
.....
est
##idav
cost
exc
##ital
investig
school
smt
conn
injur
sharma
eng
place
##2010
accep
03
##igin
committee
hand
annex
file
development
contin
than
avail
##ipur
##oura
##ready
##vant
bu
during
already
50
three
##asthan
##2009
possession
each
disput
07
conv
##tim
col
sale
submission
##aa
action
regul
34
affidav
though
scc
origin
nor
##tiv
##................
rajasthan
##50
material
##ten
##2008
##isition
purpose
take
##ences
necessary
##ension
lo
exerc
##13
misc
declar
thereafter
registered
includ
due
##98
ec
04
abs
40
vehic
subject
##ourable
bal
##ferred
judicature
account
##jection
paid
##very
assistant
##ner
relevant
med
dr
effect
sati
##2015
08
##ave
partic
09
##wal
income
##kar
##self
##ervices
##ia
##ents
contention
il
appropri
sched
hearing
##ruction
delay
##osed
must
##cservices
##endra
02
central
honourable
00
non
kar
certific
##ody
##66
##ying
##nd
sit
good
lab
cand
##tur
dut
along
appellate
teach
candid
differ
##ative
##ained
##ither
original
##lier
appropriate
mention
complainant
add
came
2002
list
06
##22
those
supra
##mo
registrar
mahar
##enue
true
oi
payment
la
##ors
##ade
admitted
##fac
wpc
##ayat
##ons
##ke
considering
opin
fail
age
##ute
complaint
##ustri
down
ten
loc
##eme
##ress
proced
##lus
sr
courts
agree
##og
##crib
industri
37
affidavit
below
fav
lands
form
sim
##dy
tra
##wkh
conf
##199
int
reported
scheme
late
##ivers
05
pradesh
##lement
buil
sett
aside
##tire
##rie
satis
call
##2016
hence
43
aged
2001
provided
##urr
submits
##gn
legal
ref
##ashtra
et
dt
arbit
cour
soci
##way
argu
##bh
delhi
acquisition
##2014
raised
nature
months
apex
##68
##quiry
clause
conduc
dem
proc
##63
wp
maharashtra
appeals
kn
##day
##ived
##ability
quash
##14
oral
finding
favour
subst
witnesses
lal
##15
what
##anti
far
judicial
kh
thir
bus
panchayat
##ause
##tained
recorded
##king
duty
appears
##termin
##dra
find
objection
union
ir
bar
hy
##2011
##ale
manag
applications
letter
make
opinion
certificate
cro
anr
direct
consequ
collector
earlier
contract
fe
pras
ph
subs
resident
available
annexure
##23
##ency
punish
univers
procedure
##uly
sections
pen
##umb
deput
prosecut
munic
##raph
##ges
35
determin
##ablish
employees
##pura
##ild
arbitr
##ember
withdra
##pecial
enter
revenue
dispute
days
building
back
placed
because
insp
##hs
taking
fix
establish
2000
sah
now
continu
##rish
class
particular
deal
##ety
2017
##eep
##ilar
come
##apur
labour
costs
pending
plea
cause
services
tre
##ey
##ik
##oper
45
illeg
corr
sar
##ire
documents
process
##ified
##ific
similar
##wl
##su
municipal
##82
##ective
conditions
reasons
filing
##rq
##ater
##ises
##ft
##ateg
##ann
prev
rej
##char
##ately
deputy
##ides
medical
air
examination
##44
decided
##cribed
accordance
sikk
invol
goods
mentioned
##ib
prasad
way
course
##60
##ugh
##jud
charge
##atory
cooper
stands
##ock
##sc
till
categ
den
##no
princip
document
##ined
br
penal
##94
sikkim
##fici
fam
##try
##du
##ful
relief
##wh
vehicle
university
contended
mandal
exhi
##jar
mu
##2007
lic
##ction
join
vari
dh
ipc
##ather
execu
##iding
deed
##33
agreement
name
dra
##derabad
##17
##amp
examined
limited
authorities
##ising
west
##88
representation
decree
legis
##ara
##ecting
##ife
principal
##itation
##ricult
id
##jab
rspecial
##liance
oppos
insur
market
value
##55
situ
har
rao
##jj
prem
ah
cap
admin
##67
session
illegal
investigation
rela
family
##dd
bomb
##ought
##sp
final
indian
different
inf
##az
bombay
nand
sign
govt
##19
receip
1999
jun
##ane
matters
appointed
##ential
acquired
exercise
hyderabad
like
candidates
fa
sb
need
##ator
agricult
47
##taining
specific
##ized
##24
bel
sought
ur
##co
offences
common
promo
engine
result
##uv
contro
##vered
##go
prayer
four
received
very
vac
defendants
manner
reddy
##ala
38
44
1998
##gr
wee
inh
##lusion
entire
local
produced
##64
##aryana
nagar
priv
regular
initi
dep
iii
dri
lev
single
##25
##adh
certain
ful
prescribed
haryana
##000
either
committed
gujar
##val
get
working
head
##30
raipur
itself
39
awarded
transfer
opposite
##ng
cwp
etc
1996
yad
elec
devi
##agraph
##roi
punjab
gujarat
stage
##ages
##unity
##bt
oct
equ
tripura
##2005
prosecutor
##erala
liber
##inary
area
rate
including
kerala
##ba
##iver
schedule
sessions
death
##utory
selection
purch
bro
para
various
pension
hus
receipt
society
directions
octroi
sum
##ry
##sequ
side
paragraph
##ange
##thing
##umber
benefit
none
##69
observ
open
##21
##adu
##ning
##urang
##are
##bers
engineer
subsequ
admission
child
##af
mod
put
##iness
##band
indic
1997
policy
##rd
##ached
rejected
industrial
moh
##34
##dh
##nn
amend
madh
lak
sti
195
hos
my
##ested
sd
construction
observed
##77
1st
laid
##ves
electric
render
super
yadav
accepted
##port
enquiry
wife
##ourt
executive
note
propos
bl
jan
liberty
members
##61
plaintiffs
claimants
seeking
##unction
##ras
##nish
##wards
official
##ational
cooperative
written
compet
used
inspector
demand
cw
pursu
information
number
##65
##with
##jay
bear
wherein
##urangabad
point
##upta
relied
com
##wise
holding
retur
today
applicants
aurangabad
##ffici
##less
rent
extent
conclusion
represented
liable
valid
226
krish
ser
##hra
agg
disp
vic
accident
connection
##18
arr
fair
position
##mu
##the
##ttp
##ni
marks
mot
word
furnish
##uh
##amed
notic
excep
##tor
say
##62
##igarh
interim
based
regarding
##endent
support
##lq
end
http
oper
##jc
benefits
opport
appearance
rup
2nd
light
##ison
business
private
##ga
##hh
##90
making
mean
fixed
##ills
ans
posts
httpsh
gupta
##ship
six
agar
##ony
namely
plead
imm
##kash
##ging
##att
limitation
##27
weeks
owner
##oss
merit
our
short
##aram
statutory
##eng
##lege
insurance
100
follows
permission
##28
body
crime
promotion
tah
##tified
##aneous
##int
contr
##ulated
60
httpshcservices
##ys
dou
##edi
##nai
detail
husband
sanj
every
towards
incident
legisl
father
grounds
48
preferred
ash
##fe
##alification
##ourts
##rr
submissions
leave
total
##acc
##pt
gang
##uss
tam
ecourts
opportunity
##lig
##ulam
##adi
price
substanti
##aff
higher
tal
tit
##olution
prior
##ram
jam
##2003
##under
clearly
asp
college
proved
inhcservices
##vi
require
##wer
##08
prim
##35
contemp
remain
use
##2006
##37
dischar
satisfac
##umbai
near
subsection
give
sl
##anth
injuries
mumbai
##oh
merits
manager
##old
giving
elig
recovery
otherwise
1995
##95
therein
##fficient
fund
connected
motor
##men
##ification
##tak
pleader
ka
secretari
##resp
apply
allot
correct
##ines
done
oc
##ancell
took
##owers
thereof
called
##ats
##ience
punishable
amendment
55
competent
distt
##eting
proceeding
records
instant
##47
exhibit
released
constit
agricultural
##apers
prot
##ights
##pal
##igned
transport
institution
##rought
##accused
rendered
prepar
failed
qualification
1994
counter
joint
##38
claimed
less
brought
tq
##07
aspect
##rec
##judic
##32
##cell
##nagar
respective
##ousand
##ault
category
##ounts
recru
test
thousand
third
wo
1988
cwjc
##2000
july
excise
march
ul
settled
aug
termin
secretariat
hosp
##agement
##2004
##rieved
chen
sam
##oup
##ata
registration
##eed
chandra
##ven
scale
##04
left
es
know
aggrieved
##97
premises
da
##ference
##rong
##reed
sy
andhra
##ne
loss
stay
err
hospital
standing
ot
54
sanc
67
pal
reasonable
rights
served
sentence
sufficient
assessment
finance
applicable
##vey
discuss
review
powers
##05
deliver
force
##ril
pe
##ech
exper
##usal
##ces
secur
framed
viol
cm
impr
hold
undertak
challenge
##riev
ga
primary
teacher
pa
relating
cre
charges
doubt
serv
east
consequently
##cellaneous
event
papers
##pa
##tala
separ
miscellaneous
jain
election
temp
liqu
##mi
ahmed
chennai
iv
##09
permitted
contained
41
occurr
bearing
##nak
electricity
marri
challenged
vir
##uary
sanction
cond
griev
summ
august
employee
entry
##wan
sept
claims
##tively
reliance
alter
reply
group
approval
sust
deem
financ
resolution
cred
stud
maintain
##02
##ures
decisions
du
##ih
mant
ed
trust
##31
##arr
september
directing
december
sheet
nag
##vers
bond
divisional
57
nat
employment
ja
##state
teachers
##mber
states
##ruct
member
last
suffer
prayed
mone
fall
plot
##ada
neg
58
##awan
##duce
patel
discl
agartala
ps
##bi
interp
injury
##tober
,,
##reh
detention
65
october
superint
five
dhar
money
cal
af
seen
##lative
heal
satisfaction
occurrence
ali
complex
quashed
##ayan
accept
pand
absence
cust
##inder
kal
##isting
april
possible
conviction
bre
financial
activ
ko
##arily
tn
jag
##ka
health
principles
##aged
fal
fresh
objections
##29
##uri
##hu
prof
##oor
##uled
prakash
victim
##oj
recruit
contrary
whereas
75
sat
assessee
##eet
##ankar
belong
involved
vis
nanded
##imum
##irm
##fy
shown
mantral
fine
kam
mrs
das
bil
allegations
ven
sun
##16
cross
january
prove
##alaya
##ibility
##sa
##part
##bhai
decide
ernak
##da
ordered
keep
##ked
dam
acquit
##elf
reads
##45
advocates
conducted
maj
cha
pointed
ernakulam
##lv
##nam
addl
mal
md
unless
imprison
tender
ren
title
noted
##isted
##aily
68
sure
except
imprisonment
covered
##ring
pursuant
deposit
nothing
##wlrq
ded
##fa
##eshwar
##yan
##akh
signature
##bb
##ush
answer
permit
##lu
##rative
communic
payable
expl
national
aver
lod
##................................
##iii
got
daily
june
##ining
##orted
ce
long
##sement
executed
nex
withdrawn
treated
mind
adver
declaration
em
1993
adj
capital
perusal
recruitment
settlement
##48
occup
perman
megh
##ught
block
run
##als
ord
feb
default
##ood
full
shah
regulations
##uu
36
##ew
adop
mantralaya
##39
manu
caused
ci
situated
express
##fere
provides
companies
substantial
scheduled
wrong
obtained
ccc
##dq
##roduc
##ump
##uction
remed
madras
##reci
consent
##ila
##ders
observations
become
rai
principle
cros
passing
associ
tur
nove
relation
claimant
defence
##ruary
november
lower
once
sever
mur
administ
water
words
lar
chandigarh
##wk
management
absol
praying
immedi
##rs
himself
liability
february
conduct
3rd
##03
merely
##ably
##oll
custody
##amus
instruction
##ament
cancell
46
administrative
step
##ously
findings
##ita
memor
produce
mandamus
look
licence
pan
applied
perused
officers
convic
##cil
fee
bhar
kish
withdraw
##49
1992
region
explan
manufac
##action
por
##anced
sq
workmen
arri
49
complaints
request
prec
bri
credit
gh
sanjay
42
##reg
1991
sa
wom
met
lead
denied
sw
personal
bhag
project
##oid
##2017
hereby
issuance
condon
forest
csc
sca
arbitrary
sug
just
old
apart
tamil
csca
ri
bab
dur
jjj
##ancy
carri
500
allegation
enc
regulation
##ger
supply
disposal
##2002
owners
mun
meghalaya
##wari
cut
##apuram
susp
##aiah
##ordin
investigating
pi
lease
dna
bey
rupees
incre
gur
shop
mish
specified
means
##xamin
memorand
mohan
fl
om
pin
judgement
declared
whereby
shiv
##eee
bir
##stand
daugh
superintendent
beyond
taluk
##atch
control
exemp
arrest
seeks
venk
informant
explanation
permanent
arising
driver
khan
##athi
established
##ets
##til
mother
flo
##tia
perform
##ula
##xx
informed
##ran
##01
extra
prepared
industries
##lined
recomm
utt
issues
exh
subsequent
##uation
kum
62
eligible
cogn
qual
iden
aa
##ren
##ake
managing
##cer
administr
chair
neither
guil
next
##aka
function
statements
particularly
life
##cwp
120
import
liquid
##gether
natural
##ually
deposited
mishra
##ob
reporters
gran
duly
crosse
delivered
##yam
properties
approach
##36
##enced
execution
##ji
fit
object
crossexamin
star
##ps
##aji
interpret
incor
offer
##yal
similarly
59
##06
verma
##ercial
home
vijay
chequ
saw
much
intention
judgments
completed
tes
council
antic
grievance
survey
gone
meas
##echn
os
address
##onom
##ectively
entered
thak
##oi
penalty
##ov
lord
later
questions
dead
rajesh
articles
pet
adjudic
bound
##missible
inquiry
marriage
##comp
anticip
away
##nu
appeared
instit
##law
1989
commercial
return
died
argument
calc
enh
##issa
lay
categor
minor
determined
krishna
grade
serious
##alli
going
##dv
simp
welf
certified
discre
posted
##urai
thereby
closed
instance
tenant
##osh
prohi
subsequently
welfare
78
##irmed
minimum
memo
ought
imposed
appreci
##achal
##gan
branch
deg
shows
finally
chou
salary
approved
##asion
god
##udd
##78
1990
disputed
##ars
press
argued
uttar
educational
violation
##tri
cc
64
bor
noticed
noit
mi
coming
yes
cogniz
dar
meaning
##ja
lac
workman
##ppa
contentions
tel
separate
remedy
##pe
bhawan
narayan
hills
sk
admittedly
presence
city
##vt
materials
continue
meeting
sou
punishment
anticipatory
interpretation
p1
din
##uman
##respondent
##ivid
##uous
satisfied
##ena
situation
share
##qw
sustained
plaint
deemed
tir
nadu
##has
##ipl
##eties
##ends
gn
tempor
mul
##aul
##ott
##ead
##gal
followed
portion
vehicles
##endency
went
##noc
stip
steps
wa
gir
kan
never
previous
recovered
several
resid
##oli
rail
brother
agreed
circular
provide
##ept
letters
##aspur
instructions
ret
##petition
thereunder
jha
remo
workers
daughter
##79
administration
forth
rightly
error
women
##ival
prac
1987
forward
##eer
##act
transaction
techn
ashok
##khand
together
##ically
interfere
gun
##aster
##ick
##tenance
kept
##amb
##cr
wages
furnishing
publish
,,,
85
52
defin
##appell
exhib
gram
##ariz
surr
arguments
adverti
acco
madurai
##hip
ss
works
bur
keeping
ess
##amm
##earch
immediately
orissa
release
known
legislature
80
contempt
status
phys
##tical
dismissal
##itt
still
bad
signed
maintenance
##42
cav
##div
deposed
granting
##anga
##rutin
##lying
env
sbcwp
##pr
ultim
brief
cham
##ava
56
exist
scrutin
explain
4th
pati
rice
##enu
##elines
transferred
dig
seniority
##vv
##view
jaipur
##ling
vin
77
1986
want
##52
unc
pleased
##jit
specifically
a1
##ways
ahmedabad
##elling
jhar
##fi
lordship
##uses
drawn
issuing
quar
hous
aut
interference
thiruv
##using
yet
tahs
approached
himachal
injunction
98
societies
od
appar
##apat
viz
##attt
challenging
neglig
false
disputes
treat
whose
##tok
pvt
97
##ww
floor
compliance
bin
purposes
fra
##luded
gopal
##hik
ey
##rig
##udh
##2001
chairman
candidate
nath
rural
appreh
activities
extended
51
jharkhand
##ards
ty
70
requir
comprom
breach
discipl
##ili
resul
cognizance
##ression
##ooo
warr
##reat
##ext
many
##57
##odh
##amy
##ayana
urged
pleaded
##urs
individ
item
1985
##opp
482
experience
##raj
desp
##lal
complete
##ength
econom
training
town
##iving
prohib
named
gra
sales
##akk
##istry
dispose
sureties
indicated
level
asked
choudh
bilaspur
vid
lordships
gar
expir
gangtok
anil
parti
recogn
security
assam
litig
pw1
determination
marked
regional
asst
##avan
termination
##oy
temporary
##ix
##nal
existing
respectively
##40
##wa
residing
##acy
inclined
sinha
##41
##standing
requirement
reti
ramesh
##umption
##bor
ens
food
notices
gave
hard
president
##erated
##olog
major
seized
partner
carried
loan
advertisement
fees
##ists
und
##angal
retire
discussion
kumari
##nan
regulariz
cad
##pective
crossexamination
reve
staff
field
schools
##gs
accounts
stating
exped
seek
##ery
53
##fff
path
san
rak
published
##ledge
justified
##hta
hereinafter
protection
##hai
statute
##division
ooo
lat
amended
bring
##ope
details
succ
undergo
##aik
oblig
sold
identi
soc
##rix
tt
##ordinate
bid
students
deep
88
##ian
##fh
proposed
1984
purchase
incorpor
purchased
lodged
despite
##akar
69
##ca
##roduced
fut
quashing
##lord
subdivision
excess
##yy
##urred
vol
##asi
87
ai
examine
convicted
discretion
##ancies
infruct
individual
whom
future
##enses
mp
book
chap
ei
reserv
174
memorandum
nal
arrived
##arant
why
##lies
infructuous
discharge
p2
95
tl
beh
bah
mill
room
arres
shankar
amb
##he
guilty
##charge
guarant
adopted
##titep
jammu
junior
##aries
injured
secondary
karn
refund
##uct
appl
##aded
arbitration
consum
173
term
free
institutions
option
advers
302
clari
jay
##erve
ds
##oshi
mere
##ini
##ban
surrender
balance
##azar
confirmed
##ense
##ened
continued
amounts
ajay
##dar
arise
##utes
implic
ge
distrib
##46
sol
provis
revised
selected
90
invok
spot
##ilities
compromise
supplied
##author
remand
##riting
##over
production
contain
completion
mor
kun
quo
scrutiny
alterna
economic
hal
south
exemption
children
##hg
lakhs
##96
legislative
thakur
restric
227
servant
prob
##mal
cs
real
led
attemp
allotment
maintainable
prima
guid
outs
##anda
initiated
pad
##aliz
##ources
implement
wish
restor
most
107
ma
employer
suresh
##arpur
contempl
##rah
##isation
human
pendency
abd
claiming
##uj
substance
ultimately
##rimin
sand
cpc
change
ooofff
hel
indep
validity
63
multi
108
annum
##row
##mar
deb
respons
constituted
alone
returned
muk
##kumar
setting
##gaon
ib
virt
##lim
##avari
instead
bon
recommend
tu
##ora
exercised
##ulation
alth
reh
ill
detenu
plan
judges
66
enac
scope
dil
buildings
aj
facie
proof
railway
knowledge
der
landlord
undertaking
liquidator
mehta
rav
##58
copies
proviso
##illed
thiruvan
expression
aud
##thy
although
constitutional
engaged
unit
establishment
conferred
##uz
exch
cheque
assessed
north
ign
sunil
duties
74
reserved
pertaining
retirement
declaring
##kn
acre
expenses
bhatt
communication
dif
tribe
anal
##anthapuram
##26
5th
chit
300
stock
tried
gp
ministry
##1997
regards
absolute
ranj
exhibits
diffic
able
##ading
##lt
godavari
##acity
whole
disciplinary
search
saf
verification
##eev
fore
discharged
61
caste
names
jose
str
reading
mc
prom
propri
##wr
emphas
manufact
social
##nel
##91
attention
arbitrator
equal
ordinary
na
recording
remained
reporter
thiruvananthapuram
##thi
bhu
gaya
lax
allotted
summons
uph
cum
face
bhand
##hc
thin
degree
fast
trade
acquittal
enfor
context
supported
prosecutrix
r1
p3
prohibition
138
##plain
##ours
dealing
rakesh
providing
legislation
math
physical
joshi
kaur
squ
sad
arises
particip
##ured
involves
ensure
expediti
##nt
too
cadre
stipulated
##was
treatment
##respond
jj
147
possess
association
##uting
##fr
##esting
testim
##tio
observation
comes
ll
notes
partys
warrant
imple
##ift
preced
hands
##eg
quite
alternative
1950
detailed
vacancies
paper
gand
##adem
dw
##92
draw
rein
##sha
##con
agp
##den
rof
##va
correspond
##wd
##irs
##imla
definition
andor
mineral
doctor
nd
simple
actual
ravi
105
##...
##aria
arrested
assail
##orn
##onda
sole
cg
##usto
##rao
reached
##gg
deserv
##fk
failure
limits
vice
existence
##unt
##ifying
115
patent
##iri
dates
nil
occasion
##akrish
rates
jail
ia
ant
operation
parli
##thod
interview
##93
arun
##ira
raigarh
prefer
tehs
retired
mit
##thhh
moved
estate
kad
##iting
sas
thr
##chand
appointments
batch
dealt
belonging
vish
spe
pradhan
needs
pleadings
indeed
sides
notified
getting
desai
agriculture
##ption
cler
small
dinesh
##43
##ify
222000
cancelled
lpa
irrig
custo
presently
personnel
requires
1973
madhya
##vent
forthwith
##ict
organ
litigation
areas
parliament
##osing
bene
method
compar
ragh
colony
technical
400
lik
points
kur
among
peop
##pl
##rying
apparent
##any
shill
birth
guidelines
468
vill
##ataka
tribal
purchas
ward
requested
taht
##esp
##appellant
##ury
exceed
joseph
##cted
148
fire
site
vik
rajendra
##pected
##eful
1956
agency
urban
##vious
abdul
arre
##applic
version
smti
cited
##era
deserves
departmental
averments
##rop
##elled
gan
shillong
consequential
adjudication
##atu
carrying
##adhy
started
##ck
##achand
chapter
basic
##wara
##ructed
bag
##rtc
cement
large
durg
rest
obvious
driving
dhan
srin
##ology
72
condonation
##vh
coaccused
##ung
##stem
vio
holder
##ode
ak
monthly
##ildar
##rued
sentenced
beg
dy
cccoo
##ene
controvers
mut
relying
circle
307
incorporated
help
extend
defined
adh
thereto
bhandari
##lementary
choudhary
permissible
##vel
##jected
##ude
motion
##tity
makes
included
##much
karnataka
xxx
##tha
impro
levy
kash
evident
vad
##enting
shimla
line
licens
independent
propriet
mort
lot
hc
laws
housing
##ivas
system
partition
##lood
222000000
parents
capacity
110
entertain
##iic
111
worked
stre
##eck
roy
kishore
essential
advanced
assessing
careful
firm
adverse
ignor
99
rath
##ina
testimony
tar
##ami
indus
remaining
proceeded
sanctioned
73
p4
opposed
virtue
kul
pw2
reservation
##airs
phot
documentary
304
academ
ddd
##be
ach
exception
323
##azet
ld
writing
hari
1983
eligibility
people
nnn
blood
suffered
6th
pandey
bes
kann
bengal
##encies
ef
pc
##alpur
taxes
##ests
kot
hind
employed
initially
inas
deciding
##order
ban
seiz
babu
311
ow
##selves
limit
##judice
##jee
##ross
nonp
##iram
reduc
##ls
expeditiously
##iya
##liminary
##rict
controversy
##ns
rig
samp
ts
chaudh
##bar
modified
inasmuch
##onment
71
anand
assum
speak
##rep
resources
disability
handed
dharm
multip
sss
##inlaw
uns
600
yb
##ops
##ectur
##plaintiff
alia
barred
420
##vast
##fully
seal
##799
1981
until
##gesh
requisition
##cla
alongwith
vas
var
##rev
anything
##dw
referring
aspects
charged
centre
sant
added
##anchi
##cement
preliminary
complied
##uck
prejudice
irreg
ol
##dqg
##above
##62013
maintained
instru
discussed
offered
##lqj
industry
##mon
sons
rfa
##atures
afr
threat
##adur
sil
performance
govind
bazar
124
##onnn
inte
104
you
determining
contemplated
happ
##omes
ws
wid
acts
attend
pm
lang
1982
cover
rat
admit
identified
##51
##una
##iar
##ama
deduction
move
sab
directly
sell
dues
##72
prevention
##oda
pip
occu
ta
patil
82
sid
upto
##tries
vinod
gazet
adjour
83
anj
##ental
seven
extension
detaining
occupation
##zaff
subordinate
gradu
ppp
yl
furnished
cul
chang
##robor
##vention
##aaattt
factual
##qj
arrears
um
told
looking
circulated
##gent
advance
inher
va
##ieved
ran
suspension
wag
mahesh
##akhand
nav
118
##petitioner
refused
kor
gratu
success
clauses
doing
lok
export
acquitted
##ects
commence
manoj
im
##uti
##vastava
units
requis
##ives
related
438
84
##po
eviction
recover
murder
mist
unable
unauthor
fraud
explained
##ores
always
92
##54
least
oil
feel
##iture
uttarakhand
disclosed
##cri
ascer
114
quoted
89
collected
categories
##hy
compass
guntur
a2
##qr
proprietor
amit
corrobor
manufactur
tahsil
ay
chargesh
controll
##ds
themselves
##ros
##ote
pursuance
heirs
emer
mach
sav
##urb
violative
##gc
##alities
vested
obtaining
thereon
##0000
gener
##uel
##esday
superv
strict
bhutia
fully
lectur
contrib
assaul
94
registry
contents
##eel
eye
moreover
relax
##1999
102
ba
stamp
enj
sudh
unre
municipality
arrange
96
db
mid
indicate
mac
##rii
149
dc
created
continuing
##itiz
p5
miss
##tiii
hereinabove
bis
max
acting
mil
##asw
##ware
jal
length
##uls
enhanced
subdivisional
##74
##zaffarpur
##lusive
carry
subh
surv
peti
##riter
country
,.
som
pin799
shik
sahu
!!
##atives
##ont
jjjuu
filled
rash
nomin
partly
eh
cancellation
difference
##ograph
expressed
##vs
entries
128
seizure
bind
rather
allowing
##iy
executing
##raa
burden
academic
ordin
##def
conven
2021
discrimin
pas
allowance
license
##ayam
criter
kr
eight
86
shares
sugg
colleg
ranchi
##ource
illegality
##orr
bish
mandatory
likely
reit
include
confirm
odt
tehsil
properly
transit
week
.........
rajiv
receive
affected
langu
498
kind
nair
assets
##ull
regularization
##uru
##riwkh
cash
##ajan
remains
instituted
besides
##010
intim
depri
rang
raise
ic
##pir
##ela
entr
roht
##hon
##mir
deduc
##yc
venkat
##cing
##53
##enty
distin
comply
contend
compassion
ft
inspection
upadhy
territ
##khar
respondentstate
chak
79
applying
hem
refl
gratuity
prevent
genu
##198
showing
exercising
listed
reveal
activity
adduc
bill
chem
engineering
debt
##osure
progr
chh
mahan
secured
##ners
140
##istent
deeds
pune
##pat
negligence
lakh
bahadur
fundament
qualifications
meena
requisite
actually
rr
asser
nagpur
emphasis
rival
outside
certificates
running
##yas
valuation
muzaffarpur
##mmod
assigned
institute
##acter
wor
##ace
tot
errone
lacs
twenty
audit
shyam
compassionate
truck
circumstance
calling
sang
chet
goa
rah
hours
enable
##ooonnn
war
##shan
##anning
promoted
accommod
chaudhary
##bo
439
##licit
cutt
bills
restra
justi
vacant
##ganj
leading
important
chargesheet
constable
valu
cuttack
fails
##whg
residential
hra
##vw
stood
classification
lying
##chi
reproduced
brok
addressed
ton
##ement
concluded
terminated
amar
##bir
##tory
proposal
corresponding
##56
##innn
dismissing
cit
sustain
##eb
##fd
rc
##iiccc
character
correction
affairs
##cent
##yer
##ota
madan
unf
##uthen
install
##onst
##ishad
care
##urance
enlar
obtain
30th
became
blow
##indra
aid
attempt
1980
##urrent
##asing
76
##mention
##ished
ing
joined
jagd
vii
ratio
laksh
##ins
lap
upheld
irrigation
naya
fulf
petro
##rup
##atap
initial
enhance
##fl
gre
##bs
govern
vacated
intended
##utely
expiry
##ulu
substan
reach
accomp
paying
fundamental
reporting
qua
distribution
##phqw
particulars
subba
interfer
raman
##oititep
clerk
##ura
colleges
tari
pw3
eg
jai
##12013
##anker
reduced
##isc
diss
attached
##ayak
##portion
benefici
weap
damages
##ua
presumption
81
##orari
##imal
bod
##que
occurred
suc
##ieve
aw
bigh
##iday
wound
##32013
whol
citiz
ct
##asti
reliefs
increase
7th
best
313
determine
envir
play
binding
avoid
mou
ramachand
sn
##ization
funds
##ancellor
fsa
##defend
appoint
panel
.................
##oti
91
fif
##alia
mukh
##au
environment
ks
chow
##athy
teaching
disb
##soever
advs
##wala
geor
affor
obj
##uram
mode
##tile
plant
##za
##75
substit
##mentioned
men
ready
##92013
##equate
notifications
bharat
seats
##wad
tc
behind
hot
1961
constructed
auto
##nath
absor
r2
paragraphs
ut
veer
identification
ho
removed
officials
##itable
absolutely
pp
##ux
a3
deposition
around
nnnooo
##wlwlrq
cp
entertained
mohd
dow
pack
community
##ema
encro
##usted
113
commencement
might
pron
effected
##tiiiooonnn
suits
pertain
##judicial
jaintia
##................................................................
211
practice
93
deepak
rigor
mahanadi
assaulted
##ze
recall
desh
rp
##apa
dal
assistance
1978
##apatnam
attra
becomes
withdrawal
leav
classes
##work
185
1972
##yanar
causing
george
reinstate
parishad
language
##kr
sham
......
confession
past
obligation
gl
allegedly
authorized
##iliation
310
##iary
##mat
subhash
31st
##uddin
##oms
##mer
standard
wps
##ground
chau
##ening
effective
##pper
intern
factory
relationship
hab
##orting
difficult
distance
constitute
##arai
attest
##while
##ev
##mr
contractor
##mes
marg
tenancy
dowry
ud
2022
324
##87
respon
interested
15th
identical
forum
certiorari
authorised
ara
guarantee
##cum
##uch
##gi
rank
siv
thana
volunt
exchange
##rog
##imb
expend
diary
##ators
param
examining
remanded
##tically
mtr
afresh
expert
succeed
relates
##osition
fao
chauhan
void
##appa
pin799010
220
falls
p6
turn
103
trip
112
tnem
rigorous
minister
compound
##pet
dealer
##ci
guard
lost
slp
dl
integr
##fying
manj
##lude
half
##ki
substantive
##fort
reports
cho
willing
married
srinivas
##pped
invest
expected
bai
##withstanding
##ium
wpa
##going
adduced
##bhanga
criteria
mus
kashmir
tariff
append
fourth
expenditure
##xw
##shwlwlrq
registrars
##nar
sund
aware
##br
##si
attorn
##71
few
125
##iling
cast
##espondent
depend
functions
wagers
dip
##ourse
attorney
naw
requirements
kol
responsible
109
villages
totally
notwithstanding
10th
240
retros
##ashi
##idhar
answered
##mad
plots
visakh
##body
##vl
harass
lie
##epura
lecturer
##uthentic
sister
eb
sector
##quiring
1979
whatsoever
vig
modification
counsels
empower
164
partners
gandhi
master
prescrib
crores
##eated
##ett
convey
##most
flat
gazette
##wani
annual
bangal
governed
publication
deh
oo
##ench
contends
##akrishnan
##lah
disturb
declare
concession
##avi
csca1
8th
prabh
fixation
certainly
living
##ammm
##ables
##dev
contrad
sai
pradeep
visakhapatnam
authentic
nain
appendix
affect
analys
##kha
removal
##mc
condoned
188
khar
##70
unn
pervers
##ovable
naresh
kap
##52013
iiinnn
qualified
korba
1947
101
manufacture
##goti
measuring
mistake
##shi
##abhai
##athan
street
planning
struc
20th
prays
restoration
##uoc
backward
products
times
##yl
proposition
##aon
agra
darbhanga
raising
presented
##respondents
rw
##ayment
##isha
pronoun
auction
struct
accur
161
rejecting
forwarded
revers
jagdish
tick
percent
##company
abh
liquor
bhavan
envis
##diiiccc
passeng
##fw
weight
prevail
rohtas
afore
rejection
negoti
close
desir
self
##qg
dham
han
questioned
continuation
hindu
includes
insurer
bangalore
##lw
lotter
wed
fell
jk
xx
innoc
representations
obviously
##ycle
hotel
18th
representatives
takes
25th
early
##cious
1977
151
001
appreciation
##uzha
paras
roll
mala
ofthe
radh
##echan
1963
##utta
##ignment
##do
##tiw
##alid
serving
##anta
immovable
sud
##ported
23rd
equival
##ika
1966
itr
14th
hit
##inn
##achment
raja
##sb
##nedn
##ahhc
##rew
meet
response
##tingu
##sof
contravention
fer
net
clo
mir
rama
##hani
implicated
##toor
nct
exs
pari
##hv
##amma
##udi
##encing
kir
##ices
indicates
spite
cess
acted
marketing
##uda
1974
normal
jodh
##eswar
##reee
##rated
##odara
##uq
wrongly
##1996
bbb
##ek
suitable
attrib
etats
appearances
sugges
##loc
pw4
pac
##paran
science
##73
viti
corrup
vyas
tiwari
directorate
ttthhh
##ffic
hereunder
undertaken
aaapp
miscond
arrangement
##42013
##inter
provident
finds
##pppp
mechan
resulted
rsrtc
revisional
madhepura
acceptance
##md
demanded
art
vikas
##cture
jodhpur
hi
annexed
hu
receiving
##cription
##sr
##cept
sans
##eness
inherent
roads
raw
1976
restriction
enhancement
kand
strictly
##22013
##alla
158
1971
mining
##olved
krishan
measure
##ses
##tar
card
cbi
ng
##fc
subr
16th
heav
naras
standards
deals
vadodara
kuri
22nd
unreason
##hari
consequence
hrags
representative
involve
evasion
bhan
satish
##onsider
ever
job
items
invalid
jy
yog
##pd
background
fide
##rad
##vat
memoranda
erroneous
9th
hund
jit
larger
##sely
check
accommodation
accuracy
cheques
uncons
raju
profession
kat
rani
design
negligent
strength
##gonda
excluded
##ola
factors
agarwal
##anger
separately
fort
28th
##verted
121
##kl
tahsildar
role
construed
010
kas
##pad
compr
owned
aforementioned
ttthhheee
mam
pred
bans
sir
offender
factor
contractual
fairly
##erce
##rav
khas
##bed
##59
##aming
gross
sus
##alll
serial
17th
advant
customs
##vind
##ouch
##atever
corp
cj
##76
unj
endor
piec
132
13th
program
hundred
whatever
mas
viii
##kj
imported
21st
better
lt
relaxation
source
1962
user
##gy
##anna
awards
continuous
nt
falsely
##itan
described
earning
zila
##lam
respond
mills
steel
##let
##ortem
digest
misconduct
koll
123
sex
ownership
taluka
##ewal
##xe
##anty
##tives
11th
ends
sangh
structure
titled
106
ofch
##thes
serve
live
csos
##angi
##upon
complet
aro
##ales
conducting
##82013
temple
##eta
enjoy
yi
fixing
champaran
nalgonda
directors
signatures
wholly
sasaram
mortg
camp
fri
jh
##eced
##ellore
##aaaa
406
##ingh
acres
adequate
##vedi
alleging
##nand
satisfy
nirm
truoc
ultra
enactment
licensee
##opser
reiterated
infirm
recommended
chemical
12th
mob
clarified
cli
mmm
##sain
##leum
communicated
pertains
night
compuls
appointing
absent
arms
roh
legally
irregular
dtd
498a
petroleum
esc
##tili
##umbers
29th
ht
qualifying
carefully
pot
residence
rt
##uce
##from
##ims
stayed
matri
think
pec
disclose
##ammad
pu
awarding
vires
agrawal
aaapppppp
accepting
##gir
150
renoititep
nainital
dave
mahto
guilt
ela
##bal
facilities
magadh
verified
kamal
expired
santosh
data
sush
27th
##know
upper
coal
##issur
decreed
quan
necessarily
139
##haa
ranga
accompan
##rel
door
karim
nir
##hq
invited
recommendations
##yanarayana
recommendation
bodh
assign
summon
aag
##72013
armed
uni
assisted
graduate
##arely
sak
##orp
commerce
##omet
##astern
lack
2018
168
type
remove
##uter
1975
placing
506
dilip
mond
ku
cruel
minutes
##12015
introduced
24th
thom
##cha
suffering
chittoor
vigil
invoking
vend
##land
135
surety
equivalent
pertin
cil
##atha
##raaammm
naik
arm
pressed
foregoing
sain
interrog
levied
bigha
reinstatement
1894
##onent
19th
##pecially
involving
##opal
especially
emb
##lab
purchaser
band
mm
##dle
stopp
representing
calcutta
squarely
##her
failing
##ittahhc
##cts
##ocation
vacancy
hs
pain
##hii
222
denial
categorically
almost
trav
143
##jjjj
programme
p7
163
rape
mukesh
127
assault
multiplier
endorsement
444
ls
zone
haz
meant
##atis
alias
##roduction
##monial
maximum
##nednopser
kollam
push
##zh
##wadi
formal
conciliation
kail
minerals
ganesh
bonds
hh
presum
taxation
##idence
thrissur
##oba
ahmad
sandeep
surendra
frame
profess
kishan
r3
dharam
subjected
##incharge
confer
##antum
postm
speaking
low
input
continues
matrimonial
elementary
##ammed
highl
##vity
incurred
nan
saran
says
##tari
116
crp
sense
##inh
acquiring
##1998
##ahar
vehement
473
numbers
##veen
pertinent
poli
prash
genuine
containing
analysis
##frq
inad
sanjeev
completely
quantum
fig
nas
##abil
hussain
amongst
145
eastern
##chief
##999
transactions
send
typ
damage
##elaw
instrument
ugc
##ient
pratap
soon
weapon
subrule
restored
impleaded
automa
girl
empowered
contending
##tii
forms
possibility
reb
##adha
5a
corruption
pw5
implementation
casual
vehemently
##86
154
ignored
##ander
noi
demol
##appellants
je
##lay
bhat
places
mumbai32
cin
electrical
unreasonable
thomas
postmortem
reveals
##eless
dele
regularly
upadhyay
##deo
traders
arose
kant
wide
131
bhad
firstly
2023
sample
ordinarily
leaving
strong
141
.......
residents
khat
coordin
interven
134
6263
gain
##olid
120b
##abai
mohammad
immediate
##applicant
##mmmb
bhav
quarter
hragsittahhc
cur
##gment
##itim
subsid
##mmmbbb
alok
draft
mohanty
telep
foreign
advantage
##eration
##forms
eval
erred
quantity
cant
lists
irres
signific
delivery
recognized
vaish
kott
sem
122
pacs
ep
341
falling
##zl
gold
##ohar
##ases
command
doctr
##ometax
prison
convers
labor
influ
sevent
##appro
##liable
bhagalpur
consolid
fault
##vd
##89
deli
376
brothers
servants
extracted
rout
meter
lin
##araj
##antly
mahab
garo
##akumar
##defendant
stri
averred
rd
129
parts
baj
rise
##abilities
chancellor
madhub
##hol
of2005
deserve
houses
indul
secondly
probation
incometax
inside
superann
framing
##eded
assurance
##annn
##555
suspic
##fs
##666
cccooorr
controller
ve
2024
concept
26th
hostile
beneficiaries
##cl
1959
widow
simply
dhamtari
vot
dispens
asse
##awat
##ulating
cccooorrraaammm
incons
interpre
gi
gop
goes
##une
##unch
insured
liquidation
##claim
your
admissible
latur
middle
create
venkata
dishon
ranjan
nong
range
##wers
##anam
##anand
##ounting
##portionate
##usion
koz
calculated
gs
##complain
wanted
khasra
akh
##gra
osman
exts
advised
ix
shuk
swar
##hw
enum
##illl
manufacturing
mith
agent
clearance
##vx
tenants
retrospective
detenue
necessity
enacted
pank
##naa
suggestion
##ehol
020
##kd
inference
legitim
front
tendered
pipelines
paswan
shif
universities
norm
tlie
consumer
mittal
naka
##truct
privile
percentage
cab
gift
##rl
##gone
chat
398
153
operate
##itive
incharge
opined
pt
117
##ape
patt
137
newsp
vag
##ku
sher
stater
##akkad
dro
mahendra
changed
366
##ism
surat
missing
dda
##oth
##ouu
##oses
needless
##dr
amic
heavy
saying
##ropol
##gam
##ori
equity
else
##888
exceeding
cher
bona
conspir
attack
##wkdw
chettri
cruelty
assemb
lines
repeal
dying
##62008
doctrine
dn
justification
passes
157
demonst
##ramani
envisaged
dub
##84
##isory
equally
##mukh
##alized
##ropolitan
danger
##ayyy
using
select
rcr
hemant
perverse
pd
##alle
deliber
exclusive
pankaj
omission
rsa
ita
abuse
redro
kesh
agencies
##halla
wedn
##ulty
shiksha
prashant
ero
##80
##xq
##tered
##etic
distingu
regulatory
kak
##idge
conce
144
profit
lakshmi
save
norms
belongs
##irt
metropolitan
sadar
lan
##111
unauthorised
repeated
integrity
venkates
drug
ist
##utor
deptt
apprehension
##92015
anant
pros
relig
execute
resulting
hp
##tern
kozhik
great
##uf
kailash
iz
sra
story
##rect
##gd
narasim
##81
manish
##ande
judgmentorder
unnecess
discoms
entitlement
enforcement
staterespondent
dash
##kari
infirmity
poll
##ui
thing
##askar
cogent
##alization
a4
nee
ped
##itary
##rttt
dhule
kanker
supplementary
narayana
convenience
##erted
##isp
retr
##rab
improve
##ole
##gl
provisional
disclosure
adjourned
bach
##nama
territor
kozhikode
undergone
motive
acknow
english
sitting
conflic
incorrect
laxmi
bhus
redress
hers
##isters
pw7
2007om
longer
ker
liv
wi
reasoning
##that
pram
huge
oa
##waj
##jk
disposing
320
stra
##igg
trading
rit
vo
imposing
bhup
adhoc
impose
##oke
sharehol
menon
vigilance
incumb
fs
affidavits
preceding
bindal
enlarged
lit
##laced
banks
chin
394
bure
jas
##83
##idential
meanti
earn
distinction
ingred
things
##hd
knife
pure
srivastava
peace
vij
laying
books
noititep
meantime
square
interrogation
fhe
##employ
renewal
tripathi
jitendra
taxable
amp
##eas
##ively
divor
bij
inflic
permitting
bhattach
1000
ml
##onn
##ustr
associates
##tiliz
revealed
consult
##anchal
##1994
##pers
byelaw
nonpayment
til
##arsa
safe
kadapa
cooperation
##itin
pil
##pro
##tsid
references
elected
creditors
bodies
ent
soni
karimnagar
##tors
worker
janpad
##ubhai
satyanarayana
contribution
ofchhattisgarh
irrespective
sno
seems
courses
##tics
dddaaattt
##complainant
sxw
##wah
consequences
sexual
##vert
moti
cents
##andi
scales
##hara
holders
##abh
biloli
tuesday
drawing
machin
lottery
##sofar
sath
lapse
##ilal
deprived
voluntary
350
##yap
enough
gives
confined
profits
hardly
discrimination
appended
chain
amal
dealers
shukla
##zz
##85
##eri
##utation
jamul
preferably
1908
siht
bhil
uma
##arrr
round
##elt
political
p8
insofar
##rees
rednu
ij
wall
##rx
prin
collection
retrench
parb
##chandra
nirmal
annexures
accountant
467
##eeer
397
bla
##orts
reconsider
quota
email
herself
##xim
##alat
posting
sake
##ustice
narain
praveen
correctness
##ics
chance
##ouuurr
cat
##mn
payments
instal
medic
samiti
##eem
##avati
ghosh
monday
wage
trivedi
162
lawyer
devoid
##hana
rehabil
cott
##inqu
##icide
ele
##hab
150000
shrivastava
narendra
##777
pathak
judgements
irhs
##apatra
greater
##aaayyy
superannuation
secure
latter
bureau
dat
kod
substantiate
deducted
madhubani
normally
wednesday
##aging
pg
arvind
expar
foundation
elections
requiring
tf
shr
located
411
cmp
##cor
laboratory
kv
##radun
363
gos
accusedappellant
##alik
originally
grievances
ascertain
sach
panchay
borne
cccooouuurr
##ded
mohalla
beed
##ades
##uven
##02013
reserve
treating
turned
enumerated
eas
sequ
##bagh
happened
chowk
##tees
##tium
canal
citizens
piece
exparte
forged
whenever
friday
port
##gers
chhat
availability
broad
##gress
##jun
inqu
mandi
clarification
##das
##gency
renew
obst
schem
supplies
student
fat
kil
interloc
166
colum
corroborated
182
discharging
null
win
shops
offending
colour
levelled
mental
mandate
333
turno
juven
nine
computer
##titutional
measures
garg
##jh
sukh
club
reflected
##rat
##io
thurs
illegally
competence
dass
consistent
##oinder
mainly
weightage
conscious
##ensive
substituted
purported
doctors
##oob
murthy
transferor
bric
dag
affirmed
##522008
unauthorized
299
##jan
reliable
##adhar
##1199
denying
quality
dehradun
assembly
thursday
sustainable
194
##aksh
commod
whereof
constitu
bud
formed
transform
250
affidavitin
koth
assuming
bs
ray
filling
sci
asstt
implemented
##etary
considerable
corrections
unjust
##oul
elb
paul
partnership
1949
consumption
1123
294
##wkhuh
##isen
commenced
try
protected
142
committing
appreciate
invoked
restricted
interests
driven
bringing
accompanied
##ering
1964
thereupon
##bl
reforms
##rol
##apalli
infras
interfered
interlocutory
attained
ang
narrated
jyoti
unconstitutional
research
discrep
majority
mobile
dk
uj
##eddd
access
ener
accorded
transmission
remar
photograph
dah
rot
##anagar
recognition
instruments
csca120
cccooouuurrrttt
schemes
flow
sree
understand
##isss
202
##rap
##appropri
remitted
highway
irre
##ron
lrs
purview
tribes
estopp
encl
identity
##stood
transfere
tirw
passengers
potential
xv
departments
pawan
##600
box
fd
##bank
##ier
receipts
kuld
bbbooo
vitiated
##secution
description
balaji
##adhav
projects
csca120522008
##wati
manufacturer
##nool
##fo
1955
worth
tenure
##fortun
800
wal
collect
grave
divorce
stop
vive
objects
sealed
compulsory
amm
165
deleg
osmanabad
conspiracy
##veri
pw6
developed
##1995
assailed
fff
ip
mv
nurs
unfortun
turnover
399
##jaban
1957
mathur
pul
##thal
##ghhh
manif
domin
receiver
##more
settle
joh
##meas
133
international
privilege
##endran
amen
tank
vital
##qn
shail
grand
track
nonpro
##466
##arities
##illai
karma
violated
apprehending
sebi
177
prab
ru
##omp
coup
kaus
current
##erry
inviting
responsibility
sound
##atore
anteced
##veli
mess
##moc
225
travel
##where
##aling
someti
united
manohar
enterpr
cra
cance
##puram
presiding
concern
meanwhile
##ients
arisen
noncomp
former
opened
adjournment
##inagar
##els
##ulw
##imbatore
vivek
htiw
che
conserv
306
diplo
dess
gas
1965
##ibly
##uuurr
ln
wai
coimbatore
subcla
weigh
expect
instances
feet
##ida
119
expressing
##luding
results
infrastruct
fill
requisitions
lady
patta
##atia
thought
tickets
hoc
##chal
prop
prejudicial
lalit
##arc
shel
rl
proble
facto
superior
contradiction
tune
##bted
count
unfair
jadhav
yesno
suggested
column
selling
##loor
monetary
clean
##iiilll
243
equip
kunjaban
wang
dutta
prevailing
##want
availed
promise
hhhii
##zam
##pping
disqu
condone
highly
legality
governor
uniform
##mers
##erjee
##roc
asking
167
##aja
earned
consequent
successful
ff
##line
##itally
ambit
detained
admeas
bhim
263
spl
##iggghhh
speed
chamber
##awar
initiate
gaur
##corpor
www
moder
248
acquire
##tition
##resent
325
khasi
##duj
cinema
##eeerrr
hat
ooor
vel
really
##iru
309
231
471
regularized
paddy
kurnool
deshmukh
machinery
rf
##avaram
mines
precedent
umesh
ham
##elih
shak
thirty
outset
mang
continuity
hhhiiiggghhh
contested
##para
quarrel
mortem
mt
##come
top
alam
##ttt
iron
mortgage
legitimate
thro
durga
enforce
highligh
automatically
##elihood
tribunals
cell
##ficial
extending
kk
deo
1967
importance
ramachandran
struck
transferee
prosp
175
appln
accrued
187
appreciated
brah
lach
##aching
neigh
rajeev
location
returning
##mmmbbbaaayyy
bbbooommmbbbaaayyy
lor
swp
applies
bhagat
nayak
##pre
##eeeddd
pws
trees
##nuoc
understood
155
paysc
justify
##rugh
chandr
dispro
exact
submitting
narasimha
ccs
##shc
700
##aman
sarangi
joining
survive
aaa
##fwlrq
bhaskar
##ulate
##ervice
130
fracture
gad
asi
coop
sho
193
truth
elabor
nonprosecution
dks
key
pillai
ecn
ranjit
territorial
bat
ion
bhushan
rehabilitation
accus
appellantaccused
##uuurrreee
ris
##gar
##asam
ori
##get
##ahc
160
digitally
fifty
##inal
lies
causes
ramachandra
absorption
investment
sj
##iled
concurrent
504
csca466
jjjuuudd
bhilai
bed
events
compared
kurian
apartment
kati
##anjan
procedural
aaattt
##isputed
governing
imper
##hold
##ssr
ingredients
csca46612015
purs
conclude
##kara
ble
##itate
228
participate
cultiv
##aaatttuuurrreee
insist
indicating
vil
1968
park
via
palakkad
##hikari
safety
negotiable
byelaws
hir
table
suraj
##lik
entrusted
##hot
##anpur
parmar
admeasuring
1a
lc
preference
break
functioning
energy
jjjuuudddiiiccc
wants
2019
subj
recent
uttaranchal
##indi
##orty
jais
##ammam
muth
##owners
confidence
relatives
mohammed
##shwlwlrqh
religious
##assed
##entive
forfe
192
salem
1970
bare
##qd
##001
arbitral
##dden
jjjuuudddiiicccaaatttuuurrreee
##pally
##ularities
undertake
gurung
antony
r4
inder
correctly
territory
##ination
##uli
##igible
##nea
ji
##osite
concurr
tamper
coordination
##aha
governments
observing
##innnaa
khammam
pensionary
hom
##igam
156
##ize
formula
acceptable
performed
laxman
deleted
##wali
126
401
convict
shree
##ordinary
history
mutation
ie
ras
##fted
comb
##1993
belated
##eppa
protect
undisputed
##ghqw
answers
mitra
hect
##ingly
##adia
##ulla
compreh
##emn
views
locality
operative
neck
1960
##aidu
registering
##444
amendments
juvenile
ns
##upp
##............
##petitioners
irregularities
generally
guardian
##corporation
era
kapur
##eli
##etch
questioning
calculation
threatened
chandran
engagement
mud
##ectly
briefly
##arak
bhagwan
fed
##itha
##oining
180
cooperate
clothes
ncte
vacate
conflict
##ima
bonaf
warangal
dubey
##mik
1969
assistants
exclusion
379
woman
harassment
attributed
##kot
191
##rrrii
consumers
zilla
##onents
##adar
##tron
##unel
jhaveri
apparently
sudhir
arora
outstanding
parbhani
428
fish
##dir
##jd
factum
believe
preparation
wood
extraordinary
sraey
youn
##roh
##aben
1948
recourse
##ips
allied
136
intent
average
les
veed
##ped
##alam
##arya
constra
regularisation
##onal
##uni
contesting
jointly
seventh
ish
##bu
sudden
##ressed
##qrw
something
refusal
##unelveli
##juna
examp
##ports
anjana
util
rely
##sttt
shai
passage
conceded
gap
gaj
yards
sola
attending
assessees
participated
suggest
suspicion
diploma
##eat
insol
bridge
stopped
hall
##hone
thor
declined
harid
innocent
##urd
understanding
facility
nars
agreements
fifth
##amar
goyal
moment
##nes
earli
asserted
saini
lp
mih
##irtsid
ravindra
gork
##van
##nddd
refers
confirming
sushil
modern
sankar
##iah
allowances
putting
retail
##raborty
wr
##zdv
##utam
reduction
client
##ustment
##lll
##entially
excessive
eyew
410
bul
surya
spent
morning
earliest
##aran
##112
ank
suicide
##osen
##assess
returnable
recognised
citizen
attracted
telephone
ae
ek
##ost
counted
corrected
killed
shin
170
ansari
distinguish
830
hr
##bc
banking
intimation
respondentplaintiff
reasonably
model
digital
begin
neighb
gate
therefrom
##vsrq
5000
ration
##js
##athil
entirely
##antha
choudhury
rathore
jt
jog
pant
ved
186
reasoned
##aaarrr
professional
incumbent
transformer
##hhaa
files
seat
##oked
increased
emailed
manifest
327
2025
passport
corpus
staterespondents
map
##rant
##ones
##iman
contest
siwan
admissions
motorc
professor
kottayam
.................................................................
chander
counting
rameshwar
308
corporations
depositing
contractors
heads
looked
authenticity
fatal
enterprises
io
rab
##qh
##ppp
maintainability
kath
##sar
205
##awa
##appuzha
degloor
inquest
ki
##roduce
purnea
elector
parte
panchayats
vinay
fem
##writ
##unities
##mmm
districts
phase
remedies
conversion
inflicted
eyewitness
##abric
product
chakraborty
##kan
exists
misappropri
tract
belonged
involvement
xi
chosen
entering
vidhy
utiliz
petitioneraccused
scene
restraining
broker
vk
##wat
compl
provinc
bhoj
conclusions
summary
tirunelveli
vrs
##panch
villagers
committees
pandit
distinct
encroachment
sahoo
deny
expressly
##registr
exhibited
equality
travelling
p10
ros
##db
reject
##som
184
series
##habasti
gorkhabasti
##ampa
urgent
gul
##uja
persu
visited
stnednopser
##110
##wanath
enjoyment
mund
neel
lodging
start
hg
uday
##rate
stor
challan
pleading
794
jind
178
326
interfering
infrastructure
bak
nellore
##vk
skilled
vikram
irregularity
shaikh
finality
176
sunder
hardship
##wrwkh
kannan
retrenchment
infer
152
##222
bharuch
giri
technology
army
presumed
purely
fre
##yani
##dhar
exter
highest
##arrest
2a
maz
##insp
incrimin
sik
increments
conform
allah
continuously
##akrishna
sequel
subclause
##itch
beat
caught
mathew
466
km
kid
2020
gail
##yar
nod
assignment
##iiiv
krishnan
highlighted
touch
146
maruti
saharsa
##comm
holds
jr
kund
ej
kut
naidu
##arm
##ittt
amounting
354
depot
tenders
cd
curr
vat
##oon
##andon
##ondition
miscon
introduction
jaiswal
pw8
##ssrlq
kanch
udh
##aii
##sss
guaranteed
##rem
##laa
lawful
log
contains
valuable
##zlwk
##jr
##lusively
##ifteen
amalgam
##lesh
##cd
##wami
##asa
chest
applicability
proving
##retary
260
superintending
tort
##dated
##nap
##uliar
scr
251
relative
wangdi
gautam
warranted
##fers
scre
nizam
allahabad
phar
rif
vvv
##aper
mangal
##tttiiiooonnn
adjoining
achieved
inconsistent
361
##asan
nobody
coerc
##thern
trying
impression
414
ail
onwards
imposition
ramana
practic
rpsc
pramod
nit
overall
shinde
obc
maintaining
estim
bott
##onance
##antial
condoning
fate
##eries
##ese
remit
prices
imag
lieu
veedu
tap
sunita
peculiar
##ecu
swamy
daughters
occasions
influence
##time
induc
termed
phil
pressure
##allow
15wp
223
surinder
encash
ultimate
tan
171
size
##tures
payscale
##iiivvv
nut
sv
##amal
acknowled
11237
fifteen
##iff
arjun
tests
licensing
confirmation
##astipur
050
offices
indra
25f
mahila
overr
calls
incidental
ccciiivvv
##a1
alappuzha
179
indir
##anki
statutes
katihar
laa
##plus
victi
esac
ceiling
tcirtsid
yield
spar
##onam
207
##noi
invoke
organization
##licitor
enlarge
castes
ccciiivvviiilll
n0
pali
##ella
unlaw
avo
premature
lr
##lrq
placement
intell
objective
unnecessary
##inspector
hor
kill
p9
##lr
##ader
associated
extract
shifted
example
completing
364
##itated
noti
forc
impact
301
refusing
vaishali
##inet
319
downlo
inspite
visit
cancel
fabric
##ray
suffic
##ocop
##695
##represent
naz
##ceived
##iraj
perusing
farad
endow
rafi
##ittle
rahul
a5
bone
deputation
demanding
implication
exha
defect
##grad
depending
##course
##alib
....................
winding
provincial
##ffers
pursue
lad
##bey
##kata
coordinate
##imur
##istant
foot
contracts
route
voters
accusation
##sob
nexus
restrictions
427
nigam
sih
##shad
inserted
217
surplus
electoral
##ealth
rajan
ruled
218
##appuram
rupiar
primarily
ahmednagar
photocop
##rohit
incriminating
ned
sard
##jeet
##ney
##ichand
prearrest
positive
dangerous
lis
sesh
sending
cry
1958
brokers
bonafide
##vsrqghqw
750
##agiri
index
4382
fulfilled
neeb
6000
die
triv
shivaji
ignoring
hes
##eek
khand
quarters
consonance
base
##arao
##affidav
negative
tej
baloda
dept
fulfill
injustice
534
abhi
##105
arrive
mcd
conveyed
lorry
victims
ih
##uniary
circumstantial
choice
bansal
keros
##off
##arwal
204
whereunder
madhav
kalyan
affording
ao
kha
##ker
##erp
##asamy
190
##eeell
presidential
gaon
interpreted
sources
##nl
##ley
resolved
##ounded
delinqu
254
relate
##aaalll
phone
array
satisfactory
undue
element
mh
rana
lep
crpc
esa
apprehended
supervision
kiran
##gen
159
thinlay
environmental
##person
kerosene
jo
kl
##ared
angan
examinations
simult
operations
useful
##ris
##anged
##333
capable
refunded
adversely
difficulty
instalments
cudd
shanti
whichever
meh
entrance
nursing
pn
pop
215
##oming
producing
##ihc
upadhyaya
pak
##nos
##ainable
outcome
punished
adoption
appreciating
shareholders
motorcycle
##eni
progress
dise
enab
discriminatory
gard
adalat
##forts
opening
##conn
tion
##lon
##writing
retained
##rael
210
##lqwkh
identify
fc
452
lastly
suffice
203
viewed
overlo
wpcno
arriving
undou
##gha
183
supporting
shi
meen
majum
adjudicated
lesnuoc
undoubted
##xv
parce
manip
235
kaimur
saty
unsust
habit
rebut
cotton
##kun
informing
##riiisss
1cc
##yn
##dis
##tine
1111
##tom
redressal
##here
##zing
converted
video
cycle
dega
##agan
rajnand
mohapatra
ajmer
415
ye
reapp
##lap
subinspector
##urrriiisss
continuance
engineers
jjjuuurrriiisss
sle
##hap
##elve
##eters
poor
holiday
spir
rups
survives
cno
little
##art
342
train
layer
##lc
208
##titude
altern
nomination
prabhakar
##diiiccctttiiiooonnn
susrev
dispensed
##62010
prayers
constructions
malappuram
jjjuuurrriiisssdd
450
tas
##iate
lean
autonom
discretionary
analy
unsustainable
jjjuuurrriiisssdddiiiccctttiiiooonnn
rational
##inchief
##assistant
disposs
attachment
harm
vendor
##gp
invo
sugar
##02007
##ny
##ghat
adil
337
brij
gravity
feeling
##ona
subb
subregistr
exempted
solvent
noncompliance
az
ajit
##umal
requesting
##iversity
conductor
transportation
tnalle
circulars
restore
efforts
evaluation
commodities
ee
rm
yrs
##yed
##igaon
desom
chennai600
genuin
jm
jaw
van
##ued
##qhg
inaction
##rote
facil
##istered
confisc
samastipur
fake
puri
subjects
operating
figure
eli
gather
tex
##ern
##earing
169
headm
railways
goswami
jeep
pol
##ikh
##ams
traffic
dominic
d1
tsh
##alp
196
arch
seriously
born
pollution
undoubtedly
bash
asha
promiss
canv
observe
ashish
solely
anti
closure
rod
##bad
##,,
anchal
dayal
409
creamy
dharmabad
store
defines
telec
simultaneous
412
chann
panchnama
dutt
ganga
comprised
acj
considerations
........
harish
gets
possessed
attendance
##ecutive
417
##agi
245
bhojpur
413
##wife
twelve
288
##izing
likewise
rendering
assailing
verify
substantially
creating
odisha
360
dj
##ume
dependency
equitable
increment
kolkata
unlawful
promissory
across
amrit
##ugn
clpa
mahade
relations
actions
custod
possessing
kannur
parameters
amenities
dd
mass
transfers
taxap
study
advertis
hazari
rajnandgaon
consist
don
##ju
##ites
defaul
supers
aps
prav
deposits
##ushed
essentially
female
dear
##uated
entertaining
absorbed
vague
xii
formulated
1952
bonus
coupled
##roll
suffers
##usarai
##known
milk
estoppel
risk
felt
saj
209
##member
uncle
ordinance
##sbcwp
ea
kg
alto
pwd
279
delayed
admitting
grow
hire
therewith
##awada
transpir
##field
srinivasa
remarks
disproportionate
kond
kav
oj
##edar
##ica
##university
furtherance
space
baldev
hyd
permits
adjustment
biswas
mush
##cond
goel
contraband
##attu
staying
meters
definite
discipline
discussions
695
##vely
212
rejoinder
vidya
stic
##rum
##vir
postal
232
##ribe
sarpanch
lessee
waiver
pond
ww
##erate
##eswara
##allur
aggarwal
delinquent
male
intercourse
dom
salaries
regarded
concerning
darshan
reinst
movement
radhakrishnan
currency
tea
234
adduce
##wklv
fraudul
mithila
hans
##vr
communicate
srinagar
drugs
black
waiting
##affidavit
3a
##ln
##tc
##ournal
domes
approxim
403
##fficiency
lla
##tins
parade
grants
305
challenges
panchayati
wit
##aside
sentences
447
gnid
moulik
prescribes
spirit
domestic
uoi
liabilities
locus
kameshwar
haridwar
##bha
##ansh
pw9
nagarjuna
alien
kochi
yna
founded
illicit
tuoba
disbel
alternate
janj
kin
##andan
##abl
##ooting
saroj
oriental
anim
##aco
prepare
creation
satya
##kal
##ontin
##arthi
##icted
conting
##apati
##ooter
##234
395
suspended
##eline
##ipat
nr
existed
chartered
nearly
grievous
averment
fun
##mt
##ilesh
islam
mani
##ttthhh
265
earth
samples
##sobjection
dv
river
##203
##egraph
bb
nc
##ulal
perf
##itya
##ots
##ahi
##oured
caution
centres
demarc
telegraph
obligations
habeas
ganj
##ulations
agents
##igence
268
bux
dddaaattteeeddd
freed
##ango
321
##dwlrq
##iguri
quasi
twice
##982010
denrael
adopt
manufactured
subregistrar
gro
lam
malik
##32012
##ark
fired
shekhar
crop
1954
samb
debts
voluntarily
equipment
nodal
nave
repugn
furthermore
##aaa
peon
deducting
assertion
beneficiary
##32008
sev
preventive
needed
nearby
munsi
bhattachar
john
##ton
alive
dey
facing
opmd
khati
nalanda
raghun
rohini
enclosed
846
love
##astic
##itor
247
electron
##torily
tamang
##042013
prevented
yogesh
##ered
##urp
believed
drive
strike
conceal
682
gud
iw
scooter
basant
affir
mechanical
dishonest
oza
##essed
trich
indira
239
pw10
experts
lays
improper
dissatis
dan
bhub
evening
succession
##jjjjjjjj
improvement
genuineness
sla
vip
##had
shal
disallow
webs
seema
chart
244
corporate
occupied
boundary
adilabad
kes
nak
internal
demands
physically
implead
consolidated
ly
naf
##itra
##etty
bhard
246
consisting
##rasad
newspaper
dict
##yak
##ky
shashi
216
230
##ihw
vidy
lepcha
555
ew
rn
##wphqw
##eding
parkash
competi
##1991
vicech
jagan
omp
resign
chir
224
cabinet
dg
##alled
prosecute
##astri
##judge
##fiable
prospective
799
kanti
##omm
intervention
setaside
discard
faith
promotions
##akshmi
jindal
dor
lane
pod
##enth
##ulates
adopting
derived
gandh
culp
munsiff
##isor
##iem
solicitor
janjgir
bif
tour
yam
noitces
ratan
deshp
altogether
419
nah
chec
lesser
##dn
quanti
bhopal
##indran
doubtful
morf
safegu
vicechancellor
wealth
often
notion
##akshi
significant
vellore
##ality
animal
##olding
##ounder
11199
b1
pist
##oni
##theless
##hiya
revisionist
infring
naveen
##read
reop
individuals
debtor
reaching
disbur
sanstha
nad
rj
tresp
throughout
eluru
boards
illustr
560
sagar
unknown
evah
172
commissioners
274
disclosing
rawat
expectation
amalgamation
##connected
##lag
##apal
wherever
213
trustees
assumed
365
resc
evidences
sets
baroda
sheets
rangan
##defendants
deshpande
##dec
##nr
##eraj
181
usual
attacked
simultaneously
##ham
##itely
257
##atched
attempted
304b
relies
##udu
discontin
establishing
groups
creditor
##crc
encroach
pronounced
##aaaaaaaa
concurrently
kab
##lex
##veer
respondentcorporation
242
abscond
proposals
recruited
subjective
disease
##rass
##rac
sood
premium
syed
afford
lowest
.................................
tata
complainants
proceeds
bhardwaj
465
625
ere
##anshu
transpar
pointing
crossobjection
begusarai
passenger
bc
footing
rish
yash
##sif
##umari
##ancing
devendra
2662008
opponent
personally
##227
opportunities
symp
ticket
innocence
autonomous
freedom
rud
anna
dew
commencing
##pecting
harsh
psy
##gery
performing
bagh
##12012
##acent
229
##secretary
misuse
satisfactorily
sf
rekha
##adhikari
##ete
332
crossexamined
##reply
misconceived
##fields
aided
fard
radi
sre
##isable
noting
writpetition
amending
335
problem
enabling
accidents
convicting
50000
irrigated
hcihw
offenders
dissatisfied
mari
##wada
##32016
petitionercompany
leases
incised
##porting
##1992
vacation
summoned
canteen
rafiq
##inath
respondentaccused
couns
weapons
jab
sor
##levant
##eshi
muh
adjacent
bhanu
367
bhi
##ero
defici
liqn
limb
318
hesitation
rou
raid
1733
charan
loans
affirma
website
anita
##ounted
009
pages
sank
##cause
##winder
282
cleared
exceptional
neighbour
499
gni
radha
nois
ramchandra
233
surpr
motherinlaw
js
shift
##appeal
juncture
nizamabad
lud
##112013
prosecuted
##naik
malaf
512
jang
ui
personincharge
occupier
mn
rain
##iable
##wor
ship
jurisdictional
##iginal
balod
discloses
tura
cutting
suman
##quar
##ucca
apsrtc
daco
##7kh
parent
##ieving
implied
33c
338
altered
siliguri
leaned
##ariness
annexure1
admits
shikshan
structures
##urt
resource
asset
##shaw
guwah
exclusively
sarma
independ
internet
competitive
490
hgu
sick
complying
##soor
##trict
##pectively
##hia
clin
certify
carriage
##ambar
##ammal
installments
coalfields
tractor
##ofthe
excluding
slum
corroboration
photographs
conservator
sleep
418
tli
##ao
ende
team
##ception
saha
reversed
dlu
fath
wkh
##bac
##62016
theft
forced
##udence
subramani
ramulu
erst
drin
##1536
ke
##paid
##original
##alal
##chin
incomp
249
##guja
constituting
birendra
supervisory
unfortunately
koh
##oud
##ahb
##apathy
##iiinnnaa
238
269
gangapur
##brid
photocopy
tnalleppa
423
##fts
reht
respondentcomplainant
1930
315
317
promot
preferring
exceptions
substitute
pecuniary
fn
iby
##ooth
showcause
participation
pistol
bang
##eno
##urthy
##ubnagar
bhab
pleas
household
increasing
aaappppppeee
endeav
##idar
compelled
##ishing
praj
refuse
heading
##asiv
oner
stone
caption
##ursed
gc
##uw
##itta
##andas
##utable
araria
219
attended
##kkk
##aaannn
##ryyy
kalan
##reciation
##wdwh
anantapur
consultation
irrelevant
##iiinnnaaalll
ment
##hf
##uit
beating
pattern
vikash
seeing
214
krishn
counteraffidavit
kamlesh
vijayawada
ascertaining
kandhar
erstwhile
ari
dpc
hing
wil
stab
relev
munsif
purohit
kuldeep
reinstated
geet
##tl
##aga
repair
singhs
##khan
attested
levying
guwahati
fuel
mjc
stn
##ainted
264
472
headquar
predecess
friend
bhuban
622
##1r
##ght
incon
indore
sonam
lock
nowhere
approaching
##wkdwwkh
antecedent
kidna
prer
objected
172008
##9999
391
##pu
##oop
##trans
255
##106
chapra
correspondence
assignee
900
tp
cos
##ions
shastri
##anges
ramuk
affecting
sites
bishnoi
amicably
dearness
cult
##thang
##ched
promp
parking
situate
##angalam
varma
controlling
bra
anc
remember
suo
reproduce
collecting
undertakings
blows
cfa
wak
forests
##leppa
advisory
258
engage
totality
khanna
administrator
calculating
bhadra
hgih
rupsalib
1in
368
maw
##del
mater
##bhu
modify
emergency
comprising
angle
469
realization
##lating
manik
expedi
##tenant
##440
nanda
mohinder
ascertained
.............
csca164
mahaboob
2c
##tx
defects
##angarh
surround
fields
intimated
##matters
santh
##bus
##tie
charitable
campus
ooorrr
comprehensive
511
777
##lg
ups
bhatap
empowers
elango
##annnddd
alteration
##arrryyy
affirmative
563
mes
##afar
terminate
attract
nanavati
csca16492015
##fdv
retain
computing
highways
balas
trustee
multiple
gazetted
630
mcrc
##ration
appe
resorted
chop
##122013
330
bidder
venkateswara
8302007
tshering
cma
ry
sumit
salai
server
analog
vishnu
confessional
usha
##ulative
conj
itat
buxar
aaappppppeeeaaalll
shanker
gok
anyone
misra
267
nonapplicant
tehsildar
##idharan
bhatapara
bali
gy
iq
##walia
throw
##ried
proportionate
securing
189
pw11
##ructing
##agaram
329
praful
340
##wlq
##laws
cognizable
cb
jasw
sreh
secun
295
severe
dharmadhikari
beginning
indirectly
##ae
##fies
##aki
removing
upholding
##representation
taxap1536
taxap15362005
cen
stc
sanjiv
restrained
contradictions
secunderabad
inters
agri
##hiana
municip
##bbb
tirup
382
ell
nh
pump
##pati
casc
boy
recalled
bhattacharjee
tne
stret
237
prak
bharti
saur
holidays
lathi
nid
##bel
##32009
tola
ones
13rd
312
dependent
propose
preparing
adjusted
borrow
comparable
newspapers
##kat
##mnt
##etal
appellan
##estated
##adevi
arbitrariness
waives
cadres
link
ling
##zd
##gupta
##jx
defer
##forma
arb
##aheb
trained
crops
nandan
lakhan
knowing
jagann
patient
solemn
canvassed
gangapurwala
fing
fru
jat
mw
pith
##62012
inel
##ksa
affix
mandir
33982010
adjudicate
screening
lah
nn
##sements
sover
neh
managed
runs
vishal
potentiality
forcibly
##bacco
##bari
##trib
##xic
25b
bala
##149
licences
ashwani
panda
repealed
##haps
bhubaneswar
erew
sap
thc
##orious
##acto
abide
292
showed
forming
1951
mdno
222000000555
##matter
renewed
bricks
677
pic
##educ
tobacco
depart
perhaps
triable
perspective
nonb
45b
lodge
prohibited
ndps
vijaya
##terior
##utty
computed
reconst
career
##www
##plaintiffs
livelihood
mihir
sis
##dt
##tam
##orter
##aba
sethi
terminal
prag
retiral
tarun
kvss
vidhyarthi
gam
kus
pj
vaid
anup
##utosh
##acil
expans
prosecuting
pw12
##karan
khag
securities
rathod
laches
mig
oath
p11
tk
toll
##agricult
indu
##appan
hypo
457
numbered
comparison
effort
happens
consolidation
##vable
specify
280
differenti
terminating
telang
changes
mukherjee
sivag
designated
conformity
exhaus
fes
##vency
proportion
inclusion
314
##equer
380
dasti
returns
achieve
scienti
##shc8
bv
jew
overs
##eign
##vhu
##okar
investigate
exchequer
contributory
sometimes
nur
pb
##eda
##isarai
##echa
253
desire
fallen
enforced
endowments
##wak
onus
shot
##209
heir
##agarh
intermed
boot
##ensic
##ustan
pradip
features
exchanges
egduj
arrayed
##ayil
shock
abol
002
mukhed
hanum
gor
##vol
defacto
ashutosh
222000000666
bisht
ishwar
external
confiscation
approximately
watch
##held
##kant
##var
##32010
##iiii
2011shc8
resultantly
##fficiently
conveyance
disturbed
meenakshi
vr
forensic
champa
weak
##hanabad
formalities
##634
processing
initiation
osla
searched
affidavitinreply
solatium
municipalities
460
jani
kms
mall
nin
solution
vak
wire
##vis
##100
##ortium
transferring
vizian
##akaran
thrown
##nadu
##owai
sharp
##109
backd
promotional
##cerid
covering
curt
task
tad
##pw
theat
##arri
sult
##unta
arg
sheikh
sharan
385
navin
constrained
388
lf
rh
##net
narm
334
construct
353
prohibit
stipulation
rifles
resignation
ratt
##unci
computation
consortium
opted
karol
##154
situations
prescribe
peaceful
##tinsurance
524
562
nu
##102013
handic
operator
##attle
protest
kotwali
##fdwlrq
rohit
escape
nafr
sovereign
hindi
noc
##ocks
depends
##menting
tamilnadu
ludhiana
550
##xoh
chavan
##dig
1738
newly
balak
studies
layout
eyes
dw1
intervening
advertised
vizianagaram
666
kach
khal
aditya
impar
accepts
##wlqj
disqualification
py
tashi
##62009
consecutive
1112
faced
seed
273
298
karan
girls
xxxxx
dab
sange
##kon
##fdq
##alakshmi
1734
##onsor
definitely
binod
contemplates
mutual
kasar
crpf
subsidiary
imagination
##cation
ananth
##ulted
assent
elder
tiw
exclude
janard
##ottai
kunwar
manju
565
haj
abras
284
news
lotteries
encashment
dest
gav
##bil
##iation
amsom
assured
judgemnt
##asha
nambi
munger
prospects
shan
therefor
replied
##uthu
chargeable
opposes
blank
ravindran
nem
##uously
##aly
##eto
essence
##ological
discrepancies
##amarhi
mic
sports
tul
##addd
##ster
enunci
mahazar
297
sponsor
classified
signing
rahman
dealership
constituency
delegated
##beyan
geeta
rated
##arn
##amani
##udar
##ffff
petitionersaccused
bog
rob
divided
##warrant
322
convin
leviable
green
venkateswar
young
495
oll
poly
appellantdefendant
imposs
272
266
ahlu
##uuu
uncondition
##oil
workm
relieved
brevity
kanwar
utter
425
tet
vent
##akara
262
wagh
bighas
##preet
expansion
dav
##esi
##rower
##uma
disco
mentioning
##ibilities
aggreg
protective
chamba
hindustan
##interim
fardbeyan
festiv
narmada
999
nay
##las
##iam
##upuzha
339
auditor
thal
projected
shed
ago
consignment
recently
##ucc
royal
##examin
leaves
510
bn
##anganj
##ercum
handwriting
##aaatt
substitution
sixth
##opposition
authenticated
ineligible
theory
##003
conclusive
##988
392
warrants
obliged
lakhisarai
sansk
thorough
psych
##warranted
phal
r5
xiv
##we
##dc
##42012
##orht
standi
investigated
378
collectorate
inspectors
dissolution
straight
anganwadi
cenvat
destro
fitness
kala
rv
##anting
##idend
##eeett
##apah
scst
1860
252
encoura
boundaries
reflect
##claimants
dropped
bhupendra
##llllaa
ice
kkk
wes
##arajan
resisted
parity
##eeee
2563
opponents
hybrid
sarla
##ocket
##noh
deems
starting
badar
objector
##ho
##wo
##32006
sta
1944
##ariya
reduce
regulate
##642013
sunday
au
vine
##wages
##mak
anx
disob
##aiya
rooms
1735
fatherinlaw
consumed
attendant
sachin
domain
1s
fu
1934
##uka
374
intend
##trial
silent
aaappppppeeell
sherpa
912
dp
kall
##ben
##tas
##92016
anth
1737
##aswamy
jehanabad
headmaster
566
rk
wines
conference
##akose
##113
balakrishnan
nonc
##apuri
premise
choose
rattan
yt
##itude
##idc
##assery
subjectmatter
nonapplic
##ampalli
bags
##shwlwlrqhu
mamta
dessap
hectare
gathered
nambiar
ahluwalia
913
##civ
##dg
##mug
unwarranted
perpet
##dii
manual
attesting
balram
##wkr
kuriakose
sankaran
749
fh
vit
##krish
##omin
##ede
##atti
contact
seva
elc
guest
surcharge
##facie
initiating
gopalganj
##titioner
aaappppppeeellllllaa
617
##lad
##sin
shir
##andrum
ramnagar
anoop
entitle
swami
maheshwari
erroneously
medicine
federation
trichy
##uwkh
##irrr
##meet
sitaram
437
##gradu
operated
doub
##itttiiiooonnn
##attteee
kon
klt
nj
##lat
inferred
##ici
adinterim
##eeper
enquired
287
panchal
testator
vilas
kc
lli
##idal
suk
labourers
pathanam
cumulative
nominated
stretch
tin
wind
##hri
##ares
insisting
prati
448
desirable
inadvert
kaushal
##shwlwlrqhuv
##areddy
srehto
tnednopser
##pic
##ij
moving
complained
bihari
sita
##ddd
crossobjections
568
siri
forb
##ullah
repla
transl
basing
intentionally
712
bunch
tub
chur
neeraj
availing
meritorious
military
coercive
##iffo
kali
lj
tv
##uff
disab
scw
versusstate
bhati
##ociety
votes
udham
sic
uda
##thitta
##sop
221
259
affili
270
##sssttt
##mohan
sahayak
duration
ravinder
funeral
festival
aaappppppeeellllllaaattteee
##ailable
275
##phq
narco
occupants
csca13
pppeeett
prescribing
##tiiitttiiiooonnn
##alingam
trivandrum
ball
lav
##yh
##thala
attaining
##oint
drain
entirety
avoided
jmfc
ranganathan
464
cy
lall
psc
uk
alarm
ability
1744
##ugg
inspected
suitability
##1111
##503
sarkar
discrepancy
apartments
hguorht
scientific
760
zonal
##yapur
withheld
chun
##tres
offici
##lok
selv
arbitrarily
sketch
quarry
sudhakar
abhay
commandant
pppeeetttiiitttiiiooonnn
1933
##anka
##judgment
##akkal
latest
lecturers
corpn
downloaded
channel
564
nl
sts
##208
maya
annexurea
answering
arresting
##gradation
cuddapah
fear
fled
pk
tang
##tn
##mag
forces
resort
##tral
##olu
##oty
crm
1745
ramkumar
278
remun
desa
plus
371
##nalleppa
guarantees
##ylfh
pronounce
parcel
##isely
##ambi
##rip
respondentauthor
hisher
1113
appellantplaintiff
##fact
trace
directs
##304
kadam
##book
bootleg
ses
##62015
##iced
##ilkar
##imed
##eeth
amr
intends
madhava
operators
mung
##ottam
installed
compounding
interpreting
nehru
backdrop
610
jowai
ub
##sur
parv
1102
##ruing
aforestated
detad
candidature
implementing
kohli
vary
##court
##jal
##ishek
wells
##ania
negi
gurd
godown
petiti
..........
sanskrit
463
517
bari
pf
##cm
##zulw
assumption
408
sitamarhi
differential
panwar
kindly
deliberately
424
650
hl
##ecl
reimb
stained
##eshwari
backwages
violence
##before
effic
insolvency
roshan
endeavour
cms
##udem
respondentsstate
presentation
vihar
buyer
belief
virtually
western
2b
a6
##bai
whims
complic
effectively
ecned
knew
guru
exempt
valued
pronouncement
misappropriation
##arriage
pathanamthitta
white
##ayal
##anded
dias
medically
##603
xxxx
gandhinagar
malafide
inlaws
1935
interalia
271
sren
##eyance
seriousness
chatur
wooden
trespass
ceased
##lining
##kur
##52016
##outs
##lets
##seb
supposed
saheb
drag
##jjj
edn
licensees
c1
shape
chaw
gove
arti
##116
instructed
277
##asekhar
buch
muni
chairperson
speaks
played
desired
cloth
prabhat
dies
esp
##edkar
stol
respondentbank
mahajan
##ipuram
brotherinlaw
glr
jn
##mity
##ato
##ortion
cochin
proforma
##ulties
##ulia
cruc
miscarriage
officiating
viv
##rakash
abeyance
inservice
treas
##282004
successfully
##board
kapoor
expedient
cf
##ekar
sty
decre
insu
plans
constitutes
##lvlrq
beneficial
369
613
627
##isa
##agn
matric
landowners
affects
336
farmers
agricultur
begum
##workman
##je
##tiah
ongc
attitude
##ahan
whoever
pret
##ugal
affection
##owner
261
avin
conditional
invested
laloo
portions
reverse
clients
repeatedly
crucial
523
567
xiii
roof
##101
retfa
landlords
combined
dim
gm
##dl
##arp
##mani
##wkd
customers
disbursed
surrounding
cattle
dwar
udy
##rid
##dwhg
dogra
##1990
examinationinchief
##hhhaa
paise
borrower
petit
recalling
pravin
wakf
488
datt
tree
##22008
##72009
##urally
##anshi
290
drivers
dddaaattteee
flowing
##graduate
##ket
unex
exig
subassistant
##olve
##endar
recon
abla
defeat
seth
331
karam
emerges
datta
prakasam
kaz
sip
##singh
##mah
pareek
accusedpetitioner
bhatia
load
402
##rrr
cancelling
precisely
grama
##contra
raghav
succeeds
pushpa
independently
len
##klv
##32015
##roht
advice
##quiries
dix
##karni
irr
minority
163a
keshav
494
diction
ide
rb
rad
pran
##112015
periods
nitin
chandan
karth
establishments
generation
.........................
demolition
affidavitinopposition
impossible
stolen
kud
##oa
##nac
atroc
leased
manage
pandya
thinks
sabha
afforded
hydro
mesne
disabled
pill
tca
vest
##iw
surjit
##offic
407
##jibhai
previously
##adhyay
manufacturers
unjus
mushhar
111999999
fathers
mact
p12
##mudar
##usband
##early
##apped
laeppa
arguing
behera
programm
kaushik
sometime
prafulla
688
ber
bip
edition
tha
disable
##202
##akulam
ramakrishna
effecting
##feb
wrongful
nashik
significance
##ableness
quasijudicial
mahaboobnagar
remuneration
4000
aay
##teen
##12010
stren
shant
agni
##102
trap
wpmp
##education
362
papp
atp
contemn
##angan
bhos
##incing
annexure2
options
shriram
enforceable
relevance
telangana
515
527
loo
pud
unten
mann
pw14
confers
syiem
cease
dhanbad
##workmen
glh
integrated
bhavani
mahabubnagar
sciences
custodial
bogus
633
##alified
##thh
alt
reckon
1012
supports
293
328
##ulya
famil
##212013
489
testified
halfy
##claimant
impermissible
workmens
0f
sisters
##rof
##adas
unequ
unpaid
repayment
outlet
303
ahuja
urgency
384
nonex
dindig
yogendra
bulk
519
##cting
##dur
thumb
forthe
##2024
mansoor
##haran
prejudic
241
examiner
##dyh
exhibitp
damod
##tility
raghunath
dindigul
pawar
rong
rushed
wing
sten
##ules
1937
abov
sohan
348
undertakes
jayant
custom
graduation
commanding
utilized
counselling
esu
nim
rub
uit
wash
upgradation
marak
405
nonagricult
preval
kalp
stream
unfit
certiorarified
growth
##connectedmatters
ju
##dol
leamed
389
pursuing
lessor
acquitting
##opsy
1242013
attributable
khatoon
kuldip
majumder
textile
tiwary
enunciated
497
537
drew
fiction
##killed
##ird
shoul
##cca
wheel
charging
frustr
344
categorical
motihari
facilitate
affiliated
udyog
untenable
##ians
##anama
##orin
##istic
##tsnoc
defective
276
witnessed
autopsy
solan
sangma
telephon
chopra
handicapped
711
##jp
##6wdwh
##xs
##ceee
madrass
bik
##kka
namchi
##gnis
sarva
fairness
double
##ohdu
naturally
majmudar
mix
solanki
inconsist
##uccess
families
aic
bath
##tir
##inity
covers
##unte
alloc
283
farid
680
flats
patiala
bids
mtrs
contradict
chemicals
akhilesh
pondich
dol
mary
mfa
##isput
##lee
##lav
enmity
##appear
karun
muj
meetings
mathema
kapil
2p
2j
mural
##92012
##mas
thott
stages
competition
specially
dhem
sabina
perversity
unconscious
ruk
##thec
ste
adding
##avur
316
detected
347
regularised
pandurang
gains
halfyearly
cable
gag
leasing
sahkari
sao
apprehends
clerks
reducing
installation
brick
##acilppa
pondicherry
bp
tro
wrote
##ues
##82016
tower
##arda
##avu
1117
##posed
amin
impedi
officerincharge
##oooo
##682
summarily
adjudicating
distributor
promote
organisation
wholes
willingness
poddar
argue
569
dm
##52012
##xuh
rea
suj
1010
##apally
bhola
medium
443
testament
grantin
lacerated
summoning
bachel
srenoititep
wad
##placed
##yers
1929
rajinder
misrepresentation
divers
dividend
surge
##kki
##68282004
certainty
sca68282004
cognate
exceeds
succeeded
hanuman
factories
niranjan
fabricated
stick
##worthy
dixit
805
garh
##pon
##12008
waste
deve
##ulqj
2102
constables
##urring
##782005
waived
fsl
##tribunal
dictionary
dhemaji
513
7a
pree
qr
tech
##rath
##12016
ther
##ulq
1936
arya
##avathi
cran
##607
compromised
enjo
glass
##aviour
demonstrate
bleeding
ik
##win
inordinate
##idas
chal
##ahs
446
khanw
##plained
mouth
package
parikh
professors
##hotra
ath
##san
##gence
##isal
resta
1938
##009
##pose
srik
elect
442
schedulei
bears
ambedkar
advancement
inadequate
message
##aaatttiiiooonnn
khanwilkar
axe
fight
##sit
##72016
ananda
stnalleppa
consists
pool
firing
1953
withdrawing
southern
expedite
222000000777
church
533
tab
yard
##dj
##gyal
##rey
applicantaccused
404
674
metre
adhini
seller
retrospectively
prabhu
measurement
eleven
stenograph
restaur
hum
kush
sg
vimal
##will
##52010
##ertion
##anim
##riment
shee
##orde
##990
confine
prasanna
sahai
cutoff
practical
forwarding
unfortunate
intermediate
desaeced
bhosale
vaz
##ws
##ghese
##istence
patra
transporting
##989
annexure3
thakkar
narayanan
##alize
sidd
mechanism
escap
bajaj
disablement
##zr
##atec
##ateral
prath
abro
prescription
authorization
benami
##shhh
monitor
panchanama
markets
urge
murug
purchasers
##post
amaravati
adhiniyam
637
glar
pit
resorting
chron
##acious
1412
##puri
needful
387
antecedents
torture
##amalai
repugnancy
514
dad
p13
vith
ys
##vri
##22012
sha
provider
priy
plastic
375
thousands
hospitals
discussing
qualify
gnit
kanwal
world
obstruction
cheating
737
gow
gill
tor
##tify
##204
##uddd
enqu
affirm
colon
##506
residuary
succumb
kannada
erode
gaurav
prospect
##ssrlqwphqw
population
nonagricultural
prevalent
722
dlt
xihc
##year
stain
abated
roop
indef
detriment
efflu
##annur
infra
renting
sca12
debar
sleeping
finger
611
?.
las
pah
ttt
##bon
##dom
##nc
##gewkh
##abu
composition
##2018
##ipet
ghansh
bidders
pmd
##hotri
aggregate
grantinaid
522
561
jiv
oka
##lh
##long
##palli
##rue
##vii
##72012
##mod
##isi
anybody
##985
##98782005
differences
440
##fkd
culmin
influenced
snoit
overlooked
curtail
tandon
pooj
replaced
1100
season
variation
##araman
errors
gauh
pius
responden
animals
lump
##usa
extingu
##ulously
quote
##athu
##iiirrr
ramgarh
shekh
##dda
associate
expressions
difficulties
broken
abhishek
concealed
530
big
hf
##oit
##etime
##urer
petitionermr
##verting
##aib
considers
extrem
dhyani
673
offering
expeditious
frequ
telecom
ablapl
nages
##villa
##opadhyay
seeth
20022003
introduc
annexurep
processed
liberal
sca98782005
degrees
likelihood
typed
nullity
venkateswarlu
strenuously
612
911
bund
##nep
##iser
exon
1932
alli
##oken
misplaced
##092013
##rajog
geology
strang
banerjee
figures
joy
mast
rider
##lj
##ei
ask
##aved
trus
manipur
##shak
insisted
1872
bettiah
mandates
magistrates
procedures
harb
madhu
mys
temporarily
earnest
eyewitnesses
jawahar
reconstruction
kosh
vai
remin
adequ
underlying
abused
abund
regulating
rajkot
clos
##987
449
304a
suspicious
pharma
ecnedive
gauhati
nab
##uah
##erating
anom
defic
##ulr
ordering
repay
##eshe
rajya
launch
sahib
edam
kishor
warranting
elaborate
narcotic
##22016
##father
finished
##107
balbir
##239
purchases
demolished
kakin
shailesh
inconven
cards
lose
owp
rrr
tested
##door
##least
commissionercum
##htx
plaintiffrespondent
announ
##iae
454
validly
damaged
volume
clarify
sasidharan
##gdwh
kem
puth
##rp
##ils
##udent
attain
##unagar
sez
approve
##kkal
##iously
sarasw
junction
470
390
rental
burnt
unnecessarily
##11997
spare
vineet
udaipur
705
##rang
infact
206
##akant
compelling
##uces
##igu
##iguous
##1117
##984
occupying
surrendered
assume
##vlrq
strongly
##employed
budget
prejudiced
1200
618
bun
hour
jore
tj
##nag
##itating
decrees
1115
revise
bailey
requests
gangadhar
tnes
dark
pieces
614
gained
heshe
lk
mission
nation
puj
vess
##ique
##entit
string
proxim
atleast
narrow
handing
convincing
noticing
##lvw
piy
emphasized
purchasing
friends
abrasion
atrocities
kakinada
462
bedi
tned
##arma
grad
indisput
ramam
291
345
karwar
depth
depreciation
losses
supplying
illness
machine
entail
jagannath
irrational
glaring
deficit
990
##mg
reexamin
##agod
appellantpetitioner
inclusive
closing
releasing
351
visvis
occupy
permanently
litigant
jayas
vasant
indulge
reconsideration
easily
impediment
811
860
iu
pocket
##vil
##arsh
##ired
##right
##umer
soft
1114
1563
exports
overt
collusion
343
383
sixty
incidents
slip
metal
leads
ooorr
notional
bot
dup
sax
##esan
##this
resist
extr
mrid
##purkar
invocation
extreme
formation
##gover
sudhanshu
aicte
547
904
pach
##journal
##icidal
##advant
prodd
1931
##oped
tenable
drafted
kamla
border
accompanying
deliberate
jasbir
headquarters
422
577
590
634
ect
yti
bye
enables
poonam
##apet
apt
medak
##auli
rehto
unsuccess
neelam
bottles
consistently
hingoli
525
bribe
kang
tay
##atta
##raud
##avoor
##arif
1411
crimes
##hanj
namgyal
stipulates
attempts
aidni
##klfk
succumbed
cmm
gks
jeev
isol
adul
raval
recital
abkari
##awati
score
suitably
airport
##190
##group
##hhq
occurring
girish
mistak
##xqgh
storage
mel
##nor
respondentsaccused
##eman
236
##986
crossexamine
probate
##achandran
kota
supervisor
rrreee
deletion
elbnoh
hectares
prajapati
convinced
fides
jila
kanj
##zi
##22010
##ert
##atri
inev
mehra
insec
nandrajog
display
dharwad
tarlok
acharya
arrangements
sanghi
gopala
2662008connectedmatters
##erox
appellantinsurance
6a
745
bk
bol
lai
##tate
##fhu
byam
disadvant
##eepuram
incap
rajendran
1500
affiliation
##ampet
396
rupee
communications
varghese
sundar
assigning
subsidy
cryst
888
d2
ring
##hil
##kish
##rocca
asif
boys
##secured
##upra
bailors
charity
apeal
##686
nevertheless
##792009
sandh
methods
wager
kancheepuram
abhiyan
transpires
text
noise
##forth
hema
1408
phul
##rqwkh
opposing
445
priority
eventually
afz
bhagwati
kulkarni
margin
fraudulent
rudra
##jxod
doubts
tb
tuls
##hood
##oe
##32011
##isnoc
appa
grid
##athetic
purush
regulated
resolutions
ensuring
siddhar
acknowledge
jaswant
kasaragod
byamulya
orna
##aided
agrah
raf
poison
##emen
gulab
cave
289
##mbus
arranged
virendra
##787
juniors
parihar
shailendra
kanwaljit
agrahayana
poc
sone
##kam
##dwh
##erla
reeng
forty
sufficiently
##akari
versus1
bikan
##management
349
dress
##664
confron
built
holdings
volunte
agriculturist
jor
nb
##illy
##adra
registers
##avis
aman
jurispr
northern
irshad
faulted
motu
##lqwh
##022013
rolls
elsewhere
drinking
thottathil
surgeon
saxena
apar
cst
nadi
rough
rathi
##lf
##gx
##tible
rectified
1023
hereafter
suppressed
respects
spoken
##huq
flood
##ickshaw
chitambar
##utitsnoc
restrain
mortgaged
imperative
agnihotri
cere
tent
##met
##itri
appren
##lice
##utt
component
##avir
##llli
256
basically
verifying
accountants
##naiah
eswar
automatic
safeguard
bikaner
a8
efficiency
lata
##wakar
##son
##fir
##atur
##ppl
metres
refra
sanctioning
jayanti
depriving
pharm
gol
gian
kumb
##lock
ances
exbt
respondente
height
##avar
##apara
##aiy
##parkar
sep
bhaw
patnaik
chandel
##983
venug
##faesi
width
nawada
amicus
cultivation
beaten
jewell
venture
royalty
##magistr
3000
jac
mali
unamb
unsecured
##ishment
finalized
firs
023
kara
vicinity
reviewed
sworn
wishes
justifiable
suggests
forfeited
testamentary
429
645
lives
tara
##aur
##kulam
##doh
##ouri
stores
##eeen
upendra
patwari
tewari
##102012
281
358
cooperatives
uncont
controlled
chitambaresh
4a
##joinder
##icate
##205
honour
##ubramani
lawfully
judiciary
saraf
uttam
advertisements
ravik
##vhoh
...........
cpf
siva
##pdgh
sardar
kgs
##how
bee
shad
##endum
rampur
pw13
##haar
477
janak
##edience
negl
mukund
audited
entertainment
types
demarcation
dacoity
phalg
contradictory
mysore
budh
jena
pus
sight
thi
##eru
##atable
##anad
asw
earmar
sentencing
##key
##wlw
undergoing
alternatively
successor
ayur
disturbance
kothari
insolvent
ereht
exhaustive
667
gamb
ponn
##cen
##rc
##82012
acp
acs
reside
##andhar
wheat
mini
cartr
satisfying
substances
deviation
appointees
256300
unjustified
##mant
sewer
##ccl
##certain
propriety
##rupted
earnings
rasto
jorethang
voc
wis
zi
##dha
##eesh
vs1
approving
opd
membership
emerging
livest
archana
730
nk
tant
vy
##fx
##iton
disag
defraud
rule12
excav
differently
creates
malla
kishanganj
apprehend
uphold
##government
adulter
!.
fourt
idu
xerox
##otion
##72015
##idges
##agam
crore
builders
democ
palak
tilak
##iruwkh
kankar
nond
pow
active
alco
##etti
##rite
sew
regularize
222000000888
##rupees
##ettled
problems
ghanshyam
livestock
2s
421
fax
ovat
ted
inability
ons
1407
##ksj
##104
sonia
erut
convention
352
##gole
##uhvsrqghqw
implicate
safely
aksh
inferior
shoulder
madrassa
707
mav
##irrig
rests
##etra
agrl
##esty
##like
obl
1400
##angai
suppression
cart
talk
689
rehtona
coshar
prompt
khagaria
rastogi
omitted
pai
##bas
##ken
##dov
##fting
reform
appra
evit
##illary
##ccc
..,
merch
spouse
phr
modifying
##face
envelop
socalled
vishwanath
##lqjwkh
criterion
rohtak
erofeb
nonbailable
sangeeta
inconvenience
535
639
##a2
##inous
unt
parole
importer
accusedappellants
##ulture
##unication
brand
dhir
##iscl
highlight
##mmmbbbeeerrr
dishonoured
pedd
younger
practices
##irrigated
eq
luc
tell
##hz
##ej
##xwkr
##ming
##five
##tib
##ayya
contusion
authorisation
supaul
balc
##687
endors
awadh
host
suspected
frivol
transparency
##erman
abandon
specifying
##entives
headed
selections
blunt
jalgaon
indrawati
33c2
jurisprudence
595
867
dign
fkk
naj
##oz
##ppy
##mpur
##athur
veracity
sarfaesi
drafts
visavis
malhotra
##regard
nageswara
623
812
drop
gout
##rv
##ea
##ires
##chh
inspecting
william
30234
surguja
seriling
##uhf
samar
explaining
distributed
padman
hcus
distinguishable
##district
mahadev
differentia
ananthapur
fetch
ghat
rin
saik
##jl
##207
chose
atul
enroll
rectification
1212
balu
burn
kunj
mukhiya
ranjeet
laxm
pasa
ramanuj
dependents
prede
dictum
sympathetic
##iiirrrsssttt
717
jc
merc
vesting
wider
##cceee
respondentdefendant
arra
query
uphaar
postgraduate
desucca
381
##092012
karnail
feels
curiae
cantonment
garden
fruit
idukki
461
655
p14
##uo
##400
##92009
##12009
anur
shra
chi
1939
##tress
##acted
subash
faculty
saled
##omen
##kkara
spread
prasarak
##072013
miyapur
##rahim
muster
wwwrrrii
cultural
sultan
glo
vora
xray
##pass
##htiw
##rk
##nav
##fn
##ilt
##atived
##997
##ruh
guj
451
##duh
deponent
##690
credited
1881
nirmaljit
231a
electronic
efficacious
treasury
aii
sli
##vlv
noiss
uncertain
mischief
285
jamnagar
tenderer
petrol
chinna
fffiiirrrsssttt
ganja
phrase
wwwrrriiittt
727
aad
lh
sne
##adan
compel
soil
##awalla
bhel
exported
##ukar
##aaall
establishes
lightly
esi
kumawat
practically
##zhuh
distinguished
invoice
whimsical
##ucesorp
ornaments
529
bose
baz
vand
##coming
##thas
appr
apposite
1928
sury
##134
format
feas
sdo
226227
jamui
calendar
recoverable
petitio
evalu
instalment
persuaded
frivolous
.!
518
624
hut
thru
##tioner
##utors
enact
evicted
taxed
sonu
assessments
##hua
absolve
bora
investments
exservic
demolish
enquire
confronted
635
gj
jya
ner
##22009
##mv
##mony
##etent
heat
##mmoc
##shell
pw15
296
refix
etac
##judges
realisation
logical
.?
734
huk
pir
palli
noor
##ppan
cheng
##truf
haji
##minar
heart
judicata
karkun
453
compete
slight
##registered
##gaonkar
assumes
vendors
semi
chandrash
basheer
restaurant
chronic
saledeed
hurt
ore
##eeec
writs
10a
ruling
employers
theni
busty
penalties
dhulia
##goi
gurjar
assailants
sivagangai
unconditional
chaturvedi
##llliiiccc
ancestral
gambling
bse
dum
kale
ott
##lp
##ksh
disentit
arc
##iiitt
1882
commits
##103
##691
panaji
jjjjjj
siddi
saving
reflects
csosno
shelat
nutshell
trusts
balcony
1b
mg
##aar
##tu
##72014
tho
shram
##olla
abo
##996
revisions
##traped
probable
##raham
analogous
hajipur
anthony
##rohtua
ayurved
715
##bur
##huv
##ching
aba
abst
1104
bailable
sengupta
franc
##which
ended
technic
behaviour
##1988
dluow
reimbur
pretext
shrawan
ig
sed
sro
sail
##yard
##zed
##techn
##tiy
##iler
##awade
proves
##tooo
25792009
alleges
##eena
merger
syn
photo
##1987
absconding
departure
7kh
muri
1940
hav
##iggg
##ishta
gramin
1405
bhow
##atish
##108
surender
##appally
rented
##082015
diligence
academy
saved
arts
##holding
yeht
discarded
balrampur
extremely
bard
eigh
fy
mk
slow
##lie
##bah
##sed
aga
##odu
decides
matrix
manz
bho
##oking
subsistence
tempo
gradeii
wait
enacting
thresh
##revog
disturbing
invoices
infringement
enjoying
wisdom
714
lll
pict
##62014
##itrap
shou
decades
##apu
root
##opur
puran
##102015
##ssol
compensatory
precedents
dharmendra
aaappppppllliiiccc
exactly
pocso
nadiad
phalguna
iti
yll
respondentcompany
adarsh
evolved
khurd
455
##172013
481
mantralya
crossed
##akkam
thiruvananthapuram695
umadevi
deprive
dissolved
estimated
maternal
style
serilingampalli
764
dnu
gounder
hgnis
kok
mos
og
tatia
##nib
##tise
##ries
parm
abraham
sharad
administered
baba
bina
weighed
lq
##ror
##guda
thang
##organ
##202013
chan
repeat
##atio
sheth
##tivity
confusion
##ivedi
superintend
rehtruf
##landlord
bhaduri
printed
joginder
reappreci
inducement
eswaraiah
ira
##dp
##erof
online
unaided
parting
1044
##ugu
nampally
contraven
ecil
nandyal
ignore
homicidal
.................................................................................................
acknowledged
528
538
632
864
cables
ease
srav
##west
##vo
##non
##mment
##thep
##etri
abet
core
uplo
sahakari
brings
synd
lodha
responsibilities
##iraman
threatening
maxi
illustration
discovery
dragged
ooorrrii
tbe
##bz
##iro
##ester
1912
##parable
concluding
bhokar
##mother
shortage
bharg
panchayath
##assessee
contingencies
ancillary
karthika
mujafar
520
588
baw
eil
gaik
mbc
##production
##vation
bela
##iruh
debb
##immm
##media
##dddii
441
indication
##07440
carries
enhancing
bodily
packaging
##srvw
44407440
chatter
disqualified
intelligence
aayakar
763
ihe
ujj
wearing
##rwkh
##made
##fin
##tial
towers
##ocial
##ighting
tril
roster
usage
describ
##teaching
karm
##682013
thiru
preventing
defaulters
##032015
incorporating
unskilled
unexplained
koshy
unsuccessful
dignity
628
638
a9
tendency
trite
xe
##cp
##iaries
##sl
##anu
##lete
##ulg
prit
##esss
reciffo
policies
abovementioned
##axe
##airy
##132013
harmon
mohite
##niaga
mohanan
##arized
debnath
guardians
network
catena
easy
forfeiture
clpa11
insufficient
sewerage
##igggiiinnnaaalll
picture
ooorrriiigggiiinnnaaalll
648
766
ax
banj
mf
uo
thapa
##usamy
##ract
##lication
##ager
1110
lifted
1415
seg
bha
daya
certification
procure
turning
##divided
individually
testimon
parliamentary
nominee
##nart
negotiations
printing
speedy
aaappppppllliiicccaaatttiiiooonnn
iy
jeet
pard
##agaon
1033
1122
marry
possibly
##hata
chandi
krishnam
tahas
credibility
##032012
bhuyan
parija
disbelieve
vipin
gaikwad
0cc
fro
##cience
##oted
##fkh
unil
##ulli
adult
content
empty
baster
ministers
507
nonteaching
370
435
etad
ashadha
subsections
ibrahim
violating
vasude
changing
auditors
hotels
bachelor
srikakulam
clpa11042013
694
hill
vouch
##vdqg
##glv
##62011
tool
##ghar
##2023
##akir
components
appealable
000rupees
memos
acquainted
developers
thane
equated
virudh
ambik
exceeded
ignorance
fulfil
##fdvh
pronouncements
idea
braj
pann
##upuram
##madh
##amad
convert
exit
gogoi
learnt
1045
##ansingh
pw16
##erces
separated
shambhu
nawab
##onsideration
purportedly
undisputedly
perfectly
encourage
kankarbagh
690
borde
kj
oh
ok
yd
zones
##5xoh
inapplic
##irp
unlike
##posit
marlas
remote
niwas
constructing
balwinder
nagendra
munna
##psed
##ovda
.................................................
jabalpur
muhammed
francis
debbarma
rents
wise
yell
##rus
ree
stones
repatri
soh
evoba
##illi
bhak
elim
reasonableness
000ten
absurd
357
afrc
deductions
shelter
bottle
surprising
bore
##82009
##alore
##iganj
1105
neph
evidenced
ramp
transmitted
seem
taxing
declarations
##ogy
433
##wlv
##biting
tenanted
snos
##thesis
commodity
##wkhuhvsrqghqw
##...............
goutam
733
kaw
pick
rie
upp
##12014
##ariy
revoked
##ifies
3012
marking
intending
##umbered
bread
sca1117
reservations
organized
kinds
cottage
ojha
bikram
vocational
jyaishta
sca111702007
nish
pon
rg
rti
##ekhar
##mund
##ivoc
haque
obli
##994
##112012
gula
bibi
developments
##508
confidential
resultant
shiva
dwivedi
llahs
bifur
gond
tthh
##lang
##ensus
meht
##mati
indemn
limine
processes
##uhg
adverted
##etset
magha
tsniaga
shifting
demonstrated
##ahcnap
724
901
baid
yrat
##pali
challa
##qui
##position
importing
##nace
evidently
surface
subsisting
sayed
emas
##dqw
pipe
generating
intimid
encroached
manjhi
##innnaaarrryyy
grover
ooorrrdddii
threshold
ooorrrdddiiinnnaaarrryyy
jaya
omit
tip
##hqw
##vhg
##laimed
unregistered
##005
##shr
usually
##ogn
##bhag
##192
##022014
assaulting
swaroop
apprehensions
acknowledgment
##below
bootlegger
ggg
hira
kom
ohw
tac
wat
##zar
##sing
##oral
##leee
##dia
1029
##pcl
charas
286
sarangarh
motors
552
##dqfh
precious
sweep
##married
limitations
##revenue
ehf
embar
cherthala
conservation
vidyalaya
nonapplication
xihc22
jewellery
a7
efficient
ral
##kala
##uro
##alur
ongole
shaff
adap
crr
##shed
##khana
engaging
##mula
##471
autom
routine
affixed
programmes
efflux
earmarked
shramik
1i
594
##amangalam
##ithra
shirt
disregard
1910
##elli
rawal
libr
1505
##114
opt
##ruw
mandated
center
##980
intact
secretaries
impleading
arrear
sisterinlaw
nirmala
##employment
ipso
brahm
khair
theatre
wellsettled
harbans
??
nm
pala
wif
##qfh
releg
reader
##ivance
chris
##olp
##odi
madarsa
1027
1135
##arian
incentives
ramdas
priya
##phere
##asekaran
hereinbefore
##conv
villupuram
udgment
##ravati
bifr
##kad
##gup
##fed
##ayi
##rai
subpar
arp
ard
1038
rajni
##anging
marga
ramakrishnan
device
instruct
##tigating
annexure4
receiptproduction
koch
aaannnddd
gradeiii
##arshi
gnira
##dqgl
maca
##narayan
ammal
.................................................................................................................................
dvb
##yakumari
prospectus
jacob
629
bani
dhal
tutor
##dict
##sdu
##titi
intra
antis
##ilation
##licate
chel
evict
##aht
benches
dry
appropriately
##680
##307
aggrav
691
mukhopadhyay
heavily
pushp
grandfather
suddenly
seshas
dispossess
tantam
shaffique
850
kis
mistry
sac
##zklfk
##ukh
##atural
ism
conscience
presenting
furnace
musta
##ikesh
571
sundaram
sudesh
stoppage
ample
##qrweh
interstate
disobedience
unambiguous
544
gk
td
##inst
##adasan
##amk
composite
abate
sea
whereupon
tek
connect
tenali
##ryhuq
displaced
augus
calic
##lvvlrq
guideline
promised
biswanath
fertiliz
responded
indulging
indulgence
lano
drainage
##ohduqhg
venugopal
sravana
gd
ias
kanta
mbb
wl
##500
##may
##eswari
reassess
##ids
1022
grud
corrig
##aliya
laapp
khem
##552013
noitac
probability
lakshm
chowdh
anxious
oe
rib
sag
raut
lien
pream
##102009
oppose
please
##entiw
connivance
khur
sarv
ocular
##091
##tilal
dw2
##uxlw
ritu
##jjjjjjjjjjjjjjjj
quantified
insectic
,..
011
dqg
ehs
pv
apportion
##rtt
##ondents
champ
repairs
1512
bhalla
invari
teest
maharshi
##602013
modi
mian
pipeline
sangam
tnemtraped
bhanwar
estimate
overruled
mathematics
escaped
saikia
664
ya
##riya
resigned
sharda
##asss
1433
commissions
##998
taxi
##anji
006
458
separation
##orrh
reiterating
adducing
miryal
kantilal
contemnor
abroad
stringent
##iiittthhh
gyal
hq
sens
inn
##ches
##matic
willful
devel
mahb
convened
##suh
kaul
virender
carrier
partial
obligatory
solitary
justifying
mamlat
striking
dashed
fateh
deficiency
faridabad
ambikapur
tthhee
c4
kai
kast
tm
##kdv
##section
##ql
realized
##cej
undivided
##aband
##eshiya
##achi
bom
##haram
1413
ramji
concerns
letting
##tigation
estates
003
eventual
##062013
garb
probably
clerical
broadly
equipments
majumdar
nephew
antisocial
corrigendum
dere
journal
ous
##sid
##92014
##oram
noon
withholding
##2019
upgr
##102016
collectors
##uva
kanals
kanyakumari
leveled
remanding
promulg
##urao
##vlgh
harassed
modifications
envisages
fernand
lacking
subsidiaries
liter
##ostat
fraudulently
solemnized
bit
bapat
meal
outer
uh
vests
##ppil
uninter
allocation
##ttam
explo
mahindra
spelt
produces
##072012
##cerned
##793
photostat
masih
disallowed
##vhuylfh
...........................
##tribunals
extraneous
virudhunagar
647
eject
jah
udd
wild
##vriwkh
##92010
##thar
deter
regd
##bery
timber
508
372
##012013
smaller
avoiding
checked
wilful
pappu
pmdno
ati
kedar
ug
##vision
##nis
##night
thod
anir
##chure
##andeep
commons
positi
##tttee
##inda
nonirrigated
ahead
recruits
forthcoming
helper
incumbents
##general
destroyed
muralidhar
gradation
kangra
713
dairy
npa
##col
##qq
orally
##idih
deferred
unmarried
##rahi
manor
bijay
handle
##683
annexure5
mohunta
##ussi
experi
##092015
baby
lacks
chemistry
tnemn
desires
enactments
##persons
irreparable
persuade
transpired
ravikumar
725
935
kitch
vl
##lod
##zkh
##6h
##till
stations
rajash
revocation
##991
2542
guise
dire
##hatt
destr
##502013
inspect
##612013
branches
moral
preferential
muslim
desirous
fertility
##interest
designation
freight
habitual
culpable
kidnapped
##krishna
shekhawat
proddatur
723
rar
##rin
##0u
##ppo
##usud
connot
##ivorp
accounting
ensu
##estate
manch
defeated
377
##142
##332010
##678
babulal
chouhan
gratification
##ologist
jalandhar
nominees
kandpal
khata
federal
utilised
impleadment
afzul
bt
fla
gil
nic
sod
##qgh
##52008
##orem
##adam
restitution
detain
##ulous
##there
##ffi
decline
raz
##harpur
salim
misle
unions
proposes
proposing
switch
guntas
##ropic
murdered
conferring
lanim
gajendra
checking
deferral
window
calicut
2d
drt
##tian
##edu
##ananda
orig
shut
agony
1213
honest
pregn
1612
movable
dhur
streets
inputs
inadmissible
omissions
fdk
misappropriated
coercion
amritsar
disbelieved
electronics
vaidya
jeevan
disagree
uninterrupted
bist
cid
lw
nw
vision
yer
##bing
##hapur
##zk
##iyan
##union
##occ
exporting
##196
controverted
386
##dham
noitar
hardas
sanad
incorporation
egmore
##lamation
telecomm
##apalem
##magistrates
akshay
mol
panj
rare
ugha
##head
##nats
##flu
##ectives
##adv
coi
shetty
subodh
##ocate
enquiries
recurring
whereafter
offers
1805
salun
##ooh
wpcrl
##9432006
##909
everything
reviewing
sawh
##ographical
veget
bhikh
avinash
unequivoc
aswina
tahasildar
902
etal
gum
tis
##lgh
##mila
##fall
##atr
##iles
shaji
prere
abduc
soma
##otropic
judgejudges
tribunaltribunals
##yaz
magistratemagistrates
farm
##232013
355
mohit
bearers
678
kalla
adverting
emolu
occasioned
warning
##yanarayan
grossly
sca129432006
piyush
inevitable
##eeennn
etacovda
833
817
bakh
cita
##eenth
##gduj
atm
##aks
##trr
repetition
1011
1118
##ashish
preeti
excisable
nonloc
preclude
tiruv
enjoin
kathawalla
touching
download
psychotropic
bhowmik
seshasayana
mamlatdar
afzulpurkar
825
hd
##jn
##tf
##763
##tiar
forgery
ald
shab
agitated
1108
1611
smoke
karve
inspire
deputed
393
1002
thirdly
physics
pathan
mci
utilization
intelligible
hazaribagh
rescue
##kkkaaarrr
introducing
765
gif
goud
metic
##jam
subsec
haem
singhal
manipal
depose
legislate
grams
vidh
##frx
aruna
contributed
presume
elements
inconsistency
##nibus
cn
flee
gup
ket
lu
mrt
pasha
##wud
##eth
##mor
##ontal
singhvi
entity
##507
##982013
baruah
##609
signatory
480
surely
##012015
retention
##yyy
padm
mutually
wwwiiittthhh
##roteaching
microteaching
##officer
allocated
tayahcnap
preamble
977
bere
elic
ksh
mb
oac
##tod
##isar
rear
prolong
diseng
disabilities
##race
chell
1120
mool
sheo
plaintiffappellant
guided
##epa
##632007
harness
capric
ansal
kalu
licencee
widening
digestjournal
mondal
disbursement
borrowed
bipin
##udddgg
trilok
tnemnrevog
sawhney
620
dental
won
##coun
respondentuniversity
parked
arrow
1133
##apathi
interesting
##purpose
2411
miser
khaj
359
satapathy
##032014
surveyor
padma
bharatpur
suggestions
tampering
abolition
damodar
disadvantage
acknowledgement
powder
kitchen
934
eo
np
##anbhai
##rage
##ivi
##mita
1237
revive
shared
relinqu
relatable
licenses
##atories
chaithra
explos
##fereht
litigations
##frpp
lokesh
concessions
tourism
tirupathi
reckoned
##appearance
539
615
644
665
728
hak
mum
wah
cot
dissu
adhikari
1923
raises
##iger
rom
deleting
seepat
##of74
501
346
loaded
dhol
##218
##216
##lqhh
ghil
starts
noitutitsnoc
aiid
jjjuuudddgg
estopped
nazir
iqbal
prohibitory
perpetual
pooja
708
868
hk
##42016
##nem
##ano
courtyard
##imm
petitionerappellant
compilation
arwal
1063
1077
##achan
pursh
##sheet
rams
ramaling
transported
legs
discern
becoming
##kku
436
classiv
furnishes
ashram
pressing
prohibits
ambica
optional
compounded
escal
pragatish
pragatisheel
815
lived
pouch
##lata
##rug
1394
purn
circuit
##issioner
25h
intoxic
betting
someone
harip
##673
anjani
naval
reversing
amicable
demonstr
utility
##gradable
tneserp
williamnagar
positively
663
795
##sd
##tima
##orily
##loo
##shing
ramakant
weiv
##ceps
annul
##irep
promoting
legislatures
##032013
measured
interviews
happen
maxim
.....................
crystal
865
bull
jash
lil
##iil
##service
thanj
##iterate
paresh
declining
mehs
##atiya
opium
additionally
##adhari
##1989
subramanian
hypothesis
vakalat
robbery
nonconsideration
kazi
cartridges
ecilop
738
bac
bair
german
tuk
xk
##rw
##kesh
##52015
chok
1130
specification
bastar
minors
##632013
##uvrq
chandraiah
practitioner
##enues
partii
emerged
convening
kolhapur
cultivating
safeguards
promoters
endorsed
chandrashekhar
yraterces
subparagraph
thanjavur
ssa
##bro
##husband
##wf
##adri
##adhan
##rik
##004
##avat
##llll
ramu
mahender
200809
smooth
carbon
dengup
##622013
malay
suspect
593
participating
improb
shikshak
convenient
depositions
prabha
analyst
predecessor
kidnapping
mixed
closely
2k
597
914
##cot
##fit
##chhh
##rating
designed
narela
delays
##197
altercation
gniv
kanhai
dwelling
##applicants
sidhu
adjournments
cuddalore
transparent
upset
janardan
matriculation
8052017
aboven
awas
gsa
vem
##det
##oos
##rez
##ceu
cousin
bypass
##udgh
##abar
##missibility
##apar
##ubai
##iode
##981
##supp
##672013
nandakumar
pensionable
chandrach
gnik
quarre
abdomen
##frxq
icici
indulged
battal
wholesale
##uxlwphqw
hope
maid
oth
##c1
##jm
##tish
resolve
##true
##alliv
1025
1144
##mini
manindra
##ashram
motiv
basav
herewith
narinder
blind
##072015
gauri
570
deduct
scrutinized
222000000444
prisoner
##rrriiimmm
notify
stabbed
abovesaid
rieht
invariably
dengupmi
747
748
nivas
sreed
##set
##giri
##jo
##188
counseling
##iiittt
plants
agreeing
muff
##afe
knows
cccrrriiimmm
levels
naigaon
chhot
faoos
exonerated
mridula
##dqglgdwh
augustine
lanimirc
##iodegradable
810
828
aar
sort
vell
venti
##yil
##gral
##tan
##alkar
anuj
exfacie
ade
secy
primula
##cepted
appellantsaccused
sahni
##082016
gurgaon
##arsinh
badli
llj
bachan
kundan
dishonestly
incomplete
710
nisha
##arch
##isamy
copar
##rif
notary
##ulat
##eremp
1145
1823
momin
3011
extensive
##aju
2404
##ocieties
##509
exercises
balg
balwant
label
introduce
431
privy
mumbai20
##393
swap
vasanth
installment
dependant
kapadia
vitiate
delegation
culprit
conjoint
##situation
ejectment
emoluments
dissuade
cccrrriiimmmiiinnnaaalll
rq
rand
##gt
##52009
1812
parttime
005
##142013
##882013
##692013
comment
violate
##bbing
precise
exportation
radhey
ultravir
rounded
blapl
announced
##convict
teesta
developer
eventuality
thodupuzha
735
lst
rid
xli
##pan
##rn
##12011
##asive
bever
##roz
##raid
respondentworkman
rajkumar
##ublic
revn
##shu
prime
##ukur
bars
##442013
1008
negatived
visiting
flour
##vhqw
venkatesh
##kleshwar
voice
amply
ramamo
fourteen
837
huz
##42010
##labh
print
##untala
1057
##avail
tradem
##angad
accusedrespondent
worksh
supplement
diet
collectively
##662013
blue
pursued
chennai9
ganpat
inherited
enjoyed
bhatnagar
inducted
parcels
volunteers
##olpme
mbbs
mehsana
1r
ame
dug
jar
lig
tainted
wake
##pmoc
##ctive
##vinder
##etitioner
counts
respondentsdefendants
amounted
leas
##apl
##loh
##995
baseless
factssituation
occur
karmi
##222013
favourable
build
##309
##652013
ranbir
ctc
##ylhz
##vdlg
##asamund
rubber
abandoned
padmanab
mustaque
933
ahs
i1
pend
##yong
##22015
##iter
withd
shaf
dece
##ardhan
##ario
indisc
disconn
acquies
##ukuri
subscrib
sarita
decreeing
nonetheless
670
sweet
tyagi
behest
customer
raghu
kashyap
##fdwh
coordinator
garhwal
monitoring
alcohol
863
catch
nec
ou
##bd
##iang
##ories
##alu
dean
shob
##ratic
manisha
pays
22a
misused
nikh
##umbr
##676
indicative
attestation
manjula
elapsed
defaulter
bazaar
bapatla
chandrachud
coparcen
1c
995
dcr
gt
pmp
sgp
tum
##iurp
##sub
##72010
##92011
appel
sums
11a
##paramb
impers
1605
transmit
detti
compensate
classii
infl
accidental
##gaum
testing
vinayak
##irao
##barred
occueducation
lapsed
erofereht
reimbursement
##orrhage
pouches
649
982
bccl
dani
##hk
##42008
##ele
unch
##etats
1168
trad
##uthi
seb
revival
handover
##982
labourer
ways
brochure
playing
corrupt
##miki
raina
pharmaceu
indisputably
duplicate
syndicate
automob
790
915
923
917
ith
kjk
pav
sanch
tated
##py
##nic
##lyh
petitionerplaintiff
agro
ending
soparkar
1095
mans
lift
ramaiah
opuc
salt
prosecutions
carved
developing
##124
demise
quashment
##182013
piara
chairm
rehim
printers
weighing
notifying
sponsored
elimin
snosrep
ghar
hrs
qur
s1
uhas
##och
##12007
##eneg
##isance
ankleshwar
##asar
wher
alignment
##igha
poch
##diyal
1028
##igar
1109
##ledged
certifying
erected
traced
administer
##raman
protecting
samaj
studying
##162013
686
addresses
##mark
chaudhari
savant
relaxed
##iyar
##labour
xvii
bhimavaram
manipulations
lyng
disburse
dwarka
isolation
lucknow
924
rpc
wt
##bet
##6c
##xj
##alo
##lak
##vera
##shri
plaus
##deva
committal
##eplw
valley
004
##252013
stimbus
counterclaim
chairmanpic
definitions
integra
intervene
##vdph
##neser
mungeshwar
pritam
testimonies
elicited
3d
755
793
iyer
wards
##yat
##32014
##elan
##ayath
prudent
##ipalli
1250
neet
##istress
1747
timebarred
2711
##ukta
dispense
disputing
bhagir
##796
chakr
utmost
packaged
##imsid
golden
clubbed
ninety
2oo
718
905
btc
gali
sadh
vote
##what
##ald
nooty
shas
##ocking
scan
rajah
1732
complaining
##ludes
430
proclamation
classi
##charan
549
fals
fract
karnik
graduates
compulsorily
conversation
kiln
subbro
##asivam
imparting
##civnoc
resistance
957
kendra
kanth
kuj
lag
mst
tie
##dary
##jt
rever
##ampur
abadi
1034
##iguda
1138
##tite
scanning
explicit
##anjay
banka
##wkhd
builder
varied
renders
##042015
afraid
sca763
tiruch
##alizing
comparative
anjali
##uxoh
mlj
trivial
fulfillment
elcitra
lenient
##timating
ramamohana
huzur
sca76302007
697
720
cel
pall
r6
rich
tat
##case
##ohs
##aney
##accept
##tina
1024
defam
reval
puram
##khol
##have
attender
avtar
##157
urdu
ports
omnibus
probabilities
recovering
musc
kinwat
kabir
palakol
obliv
capricious
3b
744
719
dent
eru
jump
king
tds
##imp
##kers
##oir
##82011
##mx
of74
##ths
##ithe
##akal
meera
firms
defending
guide
verdict
plen
##605
variations
##govind
##372013
572
##xamination
integral
##qjlqhh
paramount
seventy
##ipatnam
danapur
gokani
abundantly
mistakes
866
jey
numer
rettam
##eard
##uded
enshr
anywhere
counse
counten
abusing
##2002013
1155
amer
##tices
accusedapplicant
mahasamund
suryanarayana
surgery
additions
merged
procured
madhyam
485
chitra
wounds
cjm
infirmities
religion
practicable
encroachments
lockout
gavade
vitthal
manzil
ultravires
834
916
rickshaw
t1
##coll
##jon
##42009
##tik
##urity
shaik
hasan
1088
manmohan
crmm
1414
1409
devasw
##department
karur
maharaj
jagat
functional
nnnoo
owing
sudha
amenable
discontinued
bhabhua
seeds
govemment
exigencies
bereft
tukaram
plausible
barh
cater
fic
##uhs
##japur
##ince
##rim
respondentwife
incomes
accusedrespondents
.,.
publicity
instruc
compensated
doubted
peer
vidyal
nalawade
guidance
valuer
veera
unnatural
akhil
messrs
##titioners
##mmmttt
santhosh
miserably
768
caw
hur
ipr
##zes
##kir
##eff
##ohan
##xa
##120
##asil
reverted
chil
##ections
##odia
##ievable
roork
1404
1818
mohta
appellantsplaintiffs
overwh
somebody
##158
feihc
356
kamrup
skin
consuming
intimate
hrag
vaishnav
dispensing
##vxfk
1531999
##ullai
horiz
respondentauthorities
appraisal
enrolled
exservicemen
##mundry
ghildiyal
battalion
##availability
workshop
withdrew
955
930
aim
gulam
sess
##pm
##wai
##vic
##nh
##asund
stocks
##ime
eno
1127
##achar
incentive
specim
##atively
necessitated
hereinbelow
##tured
settling
dt2
harendra
madhusud
substantiated
551
683
encumbr
noitc
multipurpose
evaluated
294b
proximity
caveat
sgpg
rajahmundry
oblivious
overwhel
814
jir
kuk
puthen
##ez
inquiring
##alc
##rod
##iruj
1134
advise
1248
seh
revoke
insign
basude
28a
prah
##aaarr
materially
locked
478
##rasinh
556
575
##032016
bidding
reserving
bahri
reality
jalna
restraint
##ettlement
mechanically
travelled
waive
custodian
repugnant
gokul
waghela
objectors
superintendence
instructors
gyalshing
roorkee
813
cord
d3
jour
listing
pale
row
##mous
##ecum
sue
resume
##udqg
petitioneruniversity
##quis
accum
##tof
##athapuram
rajasekhar
##992013
generals
collective
##122012
##822013
##1812
##042012
##293
##012014
vijayan
gradei
partially
fastened
raghuram
dharmapuri
chhetri
predomin
##frqvlgh
utterly
##zulwshwlwlrq
dimension
launched
vandana
countenanced
3t
862
835
bamb
##oce
##fu
##irup
stall
disorder
chint
adm
##tray
accruing
##ipe
booth
##load
1395
avenue
sriram
buses
feed
arbitrators
husbandry
incidentally
daulat
675
summer
##022016
584
systems
govindaraj
stamps
dashrath
mvc
elaborately
belatedly
manifestly
pakyong
subbaiah
ceremony
abatement
582
dong
eld
gajan
lv
vksj
xvi
##pai
##sx
##othi
##fld
retd
##iddd
##stt
##ghf
heinous
1244
##ticulture
nehu
officercum
##sher
00000
medi
nonjoinder
##670
##242013
syl
540
renu
occupant
sssmmmttt
recoveries
savita
snatched
semester
solapur
defaulted
balasubramani
software
global
ramalingeswara
938
kantha
ttsid
##each
##ink
gob
##ello
respondentsclaimants
##ialc
1125
##hika
devinder
2312
destin
holambi
annexur
##adeo
##192013
belgaum
chandrakar
floated
grab
pathway
primafacie
sssuuu
kottarak
##etical
##director
telecommunication
807
ation
a11
eman
pap
ttie
##pi
##hcs
##four
thank
##usting
chances
##ereht
##ieb
1060
##ahd
matt
bhuj
delete
terror
narender
##aveer
satisfies
##152013
allotting
trustworthy
swain
##achalam
expedited
incorporate
108332010
##dqgwkh
##krx
saif
conflicting
retrenched
azad
dgm
indefin
vessel
##wakarma
envelope
731
845
950
945
nulli
ox
ply
p16
roc
rag
tail
tied
teeth
vast
##aution
##adda
prl
1047
contacted
quot
mane
circulation
mandap
detats
##lars
construc
505
nonf
##688
lalita
modes
##dhari
natarajan
institutes
chetan
ntpc
territories
bhattacharya
bhabua
saurabh
shanmug
respondentauthority
stenographer
fernandes
revaluation
619
732
bimal
oust
s0
stig
##lady
##aer
##car
##irud
admn
##endu
1035
1097
##khhhaa
mentions
sarguja
##889
agarwala
institutional
psi
kamble
bilal
convicts
bhagwat
sawant
licensed
sealing
emerge
4440
cleaning
dispossessed
rishi
deficiencies
mentally
managements
reappreciate
tantamount
chakradhari
devaswom
818
960
908
aks
awar
akash
awa
bg
fci
jad
kw
ojc
##ler
##yr
##ture
##inathan
##icting
stress
unemployed
##ivable
##uty
##oward
adjud
prudence
##undi
1137
##opa
##retal
fold
##izh
formulate
clause3
feature
##946
deploy
pleads
aspir
553
satpal
munshi
illiterate
kurud
adhered
rangpo
dalip
wedlock
formality
fisheries
sparingly
thalassery
rongon
pharmac
gulati
margao
prahlad
1e
3c
769
937
907
aai
cis
qf
##dhan
##jid
##72011
anu
##idi
shash
chav
1946
##olving
decis
##soh
1107
1132
nepal
rajput
bhal
tribunalcum
careless
##ukottai
knee
phool
##679
##258
deaths
krishi
##972013
durrez
gurpreet
##012016
dsou
ratna
savitri
chhab
pattas
homicide
neighbours
manipulation
maritime
muhamed
##books
artificial
commissionercumsecretary
tradition
specimen
insignific
eac
rush
##lps
##kt
##oot
fores
deen
learn
##ardi
##ticorin
posed
somewhat
434
##354
nagaon
precluded
precaution
bounds
restrict
tuticorin
dipak
dehors
bhavadasan
##..............
superseded
siddharth
tentative
uncontro
dt2642013
910
javed
nse
tii
##wana
##kia
##vwkh
##1a
##,.
##ecer
##irman
stete
ate
##force
##aryya
##agudem
##002
bob
1607
factually
25g
circumsp
##omach
200910
##kkad
503
509
373
refuses
kheda
##942013
##attupuzha
kalam
murali
csca11
biraja
ambigu
realised
venkataram
shareholding
##india
reopened
weaker
traceable
danda
egs
lama
p15
ssc
##wreh
threw
anish
shub
exhs
parl
decretal
write
poon
rajpur
##oph
patently
2500
appointee
clar
desu
rede
pljr
barin
sahay
##azh
##240
initio
ganganagar
543
gavera
realm
##liciter
marginal
tnemgduj
sachdeva
##ynj
sticks
aparesh
##isclosed
predeposit
##ryhuqphqw
beverages
enshrined
dsouza
521
808
832
katha
pag
vul
wadh
##him
##wi
##org
##ority
resides
##ante
petitionerdefendant
##aking
arul
1015
##ticals
scrip
##hare
rajaram
sine
companys
##izations
narration
span
##bhav
annexure6
##rishnan
##whe
##whu
##valuation
dump
##316
##312013
##arrying
emana
1208
dwell
cgc
kadri
savings
udgir
reversion
vendee
epf
pattan
ingredient
utilisation
tirupati
tadong
complicity
reconcil
vithal
recitals
untoward
hhh
janki
pani
pendent
##rh
##iers
##were
bell
20xv
excell
##geh
repaid
##avel
12a
scen
2212
##225
trail
barg
annexureb
##332013
mumbai400
ediv
calla
severally
simpliciter
##uddeshiya
noitat
raghuv
succeeding
pushed
jangid
kemal
miryalguda
destruction
escalation
855
mudd
sks
##ml
thekk
ofric
##aland
cool
raped
##ucks
##002013
1050
1058
grades
1410
sekhar
##rete
guards
##eps
vehicular
effects
demer
##whup
finalised
##0001
sixteen
548
##022012
tenderers
##062012
economy
economically
##cont
thrust
3112
deprivation
lapses
bhattacharyya
harmony
##aaaaaaaaaaaaaaaa
brain
ukai
sssuuuiiittt
944
dle
gund
ura
##power
##can
##arayana
remission
reemployment
coma
whis
alum
##lapal
##ghora
##rak
impair
##uben
doors
represents
##902013
##attar
##978
palp
palani
770
uncon
undisclosed
##wdlq
govinda
##00001
masala
fulfilling
satyendra
germane
##neserper
1t
b2
gist
hse
kaj
ov
tag
tem
##bag
##zp
##vident
##42015
##eria
##tiles
##itative
ongoing
congress
stomach
prith
underw
##allel
respondentsrespondents
preserv
1150
singtam
basu
geneal
nonavailability
##grant
comments
##lqvw
chandrakant
679
credible
##392013
skill
kanade
strange
socially
............
##patna
stopping
constituent
traveling
propounded
overseas
chawla
ambiguity
2t
660
keeper
lux
pous
ragan
##yog
##zhu
nominal
##adc
statis
##earned
##2022
poppy
replies
implies
coroll
rajender
invite
mine
spell
wpss
##annamalai
draeh
signal
vacating
cwppil
deeming
585
shahid
swelling
fitting
prohibiting
exhibition
deepa
attempting
harijan
biswa
dependants
506ii
medico
amma
nuisance
janardhan
ramanujganj
siddiqui
guardianship
omitting
838
emit
jl
lair
tition
##plq
##enna
##orbit
ante
##room
##iduj
shat
##ivel
##owed
rap
reputation
##achari
intercepted
##ashiv
1511
##ubb
1811
applicantappellant
##rala
respectfully
informants
redund
construing
##wlf
muv
dhak
##gram
484
##miya
580
jagir
reno
metro
dinakaran
chaman
accommodated
accompany
veter
dessimsid
kusum
##contract
pillion
stains
bottom
democratic
syllab
uncontroverted
##whether
842
l1
qi
vt
##lin
##gang
##nab
##1st
thre
anch
anwar
beer
disaster
una
race
respondentsworkmen
1064
quarrying
##aiii
1417
##naj
ramb
mahat
bias
sarai
##noon
madhuri
krishnaiah
##arambil
557
dharma
extrajudicial
identifying
preceded
##opsid
travanc
legitimately
contributions
constituencies
walk
sambasiv
##adddhhhaa
selvam
pranav
##vhohfwlrq
emanating
882
9a
927
gair
jf
##hdu
##kul
##other
##frey
##orz
##ece
##ador
##idfw
sukumar
cheated
##ffrug
arith
match
upadh
scrup
##shala
patan
commitment
pw17
##ipalem
##128
##ampal
##903
bharad
hazard
cinem
mazdoor
dewangan
translation
masters
aggravated
662
782
fai
kewal
mens
mcc
tms
##lor
##iit
##would
##vlq
##62007
##mw
##inent
anis
rew
reorgan
##urba
##abari
1037
advances
rajeshwar
afternoon
prepon
1399
concoc
generated
intake
##ughter
hargovind
james
##072017
##322013
##974
godara
lacuna
surrenders
multiplic
inherit
dalal
nawahb
xxi
kirti
katghora
##rxuw
sequence
concurrence
picked
detrimental
anurag
upgraded
scripts
muvattupuzha
dod
dance
mile
r7
veena
##etr
##tap
##nah
thigh
##atus
##umala
##legal
##resident
monika
suppress
##manand
detect
##tracted
statutor
502
##302
palan
sword
tele
##authority
##overnment
ratn
##criminal
nawal
dishonour
kodanda
grandmother
narsim
nazki
impliedly
##making
jayasankar
kisan
redundant
621
dang
kri
kah
kunal
pull
##hman
##hhii
##nik
##mh
##anan
intimating
toil
##ico
sul
sufficiency
##riii
resh
##ears
sublet
parallel
##eeted
##007
1128
1282
scribe
provisionally
dayanand
execut
collar
confessed
432
wp10
phen
denomin
ashw
##neet
suspend
godfrey
negligently
958
illust
sadhana
machines
ksb
compoundable
significantly
kkkhhhaa
sreen
infraction
tulsi
muffasil
scenario
syllabus
636
820
gat
pel
ua
yun
##oppa
##fod
##aru
onkar
shib
1911
##essa
##acre
##minent
##opic
purport
bhajan
overla
somehow
##121
crlmc
031
thirteen
illegalities
##value
##772013
operational
545
##092016
ghulam
skull
kanak
township
akil
begins
bsnl
split
yashwant
stnem
adequately
ytirohtua
abstract
##frxqvh
##collector
823
flex
kp
p17
ssp
yas
yli
yoj
##beh
##72008
##filed
coapp
##rika
##lac
hassan
goda
consensus
##assa
advisor
amra
yearly
mahal
deceaseds
attach
##ukad
loose
mediation
gangaram
##382013
491
sca2
596
641
gopalan
achieving
unreliable
sangita
anomaly
jayantilal
kujur
778
nf
ngh
yr
##pay
##zkr
##jinder
##32007
##mil
intr
appli
petitione
##rts
chullai
admissibility
##quh
commenting
1030
mata
1210
rope
scalp
1492
##ugdwhg
##ditional
##ajh
##manna
##teb
selfe
##apura
##674
##195
##uvu
nonexamination
mohamed
ulterior
paag
759
crossing
baburao
##rene
petty
##hei
##rahc
akbar
imam
chargesheeted
rashid
textiles
saraswati
chatterjee
waters
661
742
963
918
a10
fw
foc
flag
pang
plying
tash
tsop
yds
##iet
##eo
##jith
hair
percep
##ffo
trucks
##ointment
ramalingam
mahaveer
occurs
erection
variance
crem
592
##vhq
unreported
##nanded
foreigners
akhtar
constrain
rabindra
thoroughly
dhirendra
ismail
improbable
pharmaceuticals
1n
746
877
966
dq
lso
##listed
##cn
##istics
anus
foreh
##tham
##usive
##irpur
##champa
##ulc
##mem
##associ
amravati
governmental
##ouses
##too
revol
indol
.,,
##eennn
remot
usman
##uki
england
kham
denies
416
kothi
planned
##evision
tripathy
investors
pollin
bsf
yamuna
refrain
vakalatnama
qureshi
corollary
selfevident
3i
706
741
ereh
fb
piraman
rol
sect
##kes
##uate
##vid
##viii
##orders
forear
##stone
##ucric
leader
##took
##ensively
1711
bhai
surendran
housewife
registrarcs
##144
variety
474
regularise
legislations
allottees
badri
retiring
tttooo
gpsc
unserved
reiterate
languishing
mechanic
##holder
redressed
exigency
preemp
................................................................................................................
embargo
##asundaram
pousha
878
cbl
fhat
nri
vind
##cas
##2p
##edes
##inth
##itous
retaining
##idy
conject
##chem
petitionertenant
##unnn
##eema
##agopal
##alloor
rectify
##aware
marital
sheela
##tism
##anik
nonappearance
khush
456
drawer
harilal
pensioners
##ohg
##057
##052013
##458
malp
##opposite
padam
audi
proprietary
ransom
lokur
bhavnagar
liters
cleaner
cmappl
debarred
lyngdoh
forehead
aie
hkh
naib
rcc
taj
vim
ylt
##aray
inex
##three
##lick
conclusively
extends
##upalli
monies
clearances
##504
classiii
##wlhv
opposition
sbi
inhab
##282013
nearest
##anthi
tnp
memorial
gnieb
distributors
cgsc
varun
##itization
voter
bhupinder
inferences
khatiwada
soreng
remembered
csca132002013
displayed
shadow
christian
scrupulously
598
994
aft
cities
futi
gyan
kss
##lectur
inequ
##ication
##owkh
perumb
agrees
1195
1157
appellantconvict
##aia
lawyers
##ifi
sindh
##itsuj
tik
collateral
##502
kartar
##689
bara
##operative
##charged
##adium
allottee
##neb
thaker
ensured
##fkdo
##institution
ramanathapuram
utpad
parietal
sathees
jiwan
incompetent
affirming
reengagement
easement
bawa
ich
native
ots
pcr
##wood
##wamy
##gdy
##nil
##mur
coowners
##amba
##2021
exgra
chased
##tingal
communities
1148
amre
meer
concrete
insertion
##okkk
punitive
##ehold
biharsh
colourable
karnal
##gnid
harun
ourselves
##391
booked
dddeeec
requisites
##dssh
ranging
pattnaik
litres
portal
forcible
surprise
##zdug
cooperativesociety
bharadwaj
531
762
804
rita
yp
##math
ani
reli
##verty
##quo
boiled
##nafr
2211
##axmi
nihtiw
##incipal
chandram
desertion
##aaarrryyy
##308
hoshi
##616
shortly
summarized
573
advert
mohanlal
possesses
reaches
gopinathan
unauthorisedly
gadkhol
dacoits
arrack
##counsel
veterinary
4b
599
978
auth
gha
hn
mts
ny
niv
pig
pine
tg
yarn
##keep
##sk
##sen
##2nd
##3udgh
##tax
##6x
##737
##nit
##erting
##atpur
##anath
##esis
##isors
stadium
##imit
##immoc
chik
##essai
##olq
##ipo
civic
##acher
1312
2511
2013f
##phy
handling
##ogative
##noor
##884
##302013
##352013
##952013
672
sca154
954
akin
##ography
rites
chowkidar
hired
rebuttal
clinic
culture
mungeli
parvati
syiemship
promptly
hostel
promulgated
kanhaiya
clarity
cwppil212013
futile
sca154632007
669
704
hm
iab
rend
utili
##cu
##sinh
##mala
##fdqglgdwh
##ored
anterior
nom
reward
##irg
goh
##aguda
##seuq
appealed
provocation
##hib
empan
setout
mahapatra
minim
appellantspetitioners
##ercoil
centers
##termined
hyper
##iben
jung
##908
601
studied
nagercoil
bharati
493
enforcing
##barga
plantation
swaran
##zlwkwkh
overriding
illustrate
nidhi
##mugao
replace
bhargava
numerous
statutorily
631
848
ayy
bj
cam
dora
emo
gsr
homes
mla
miz
vn
##yd
##edd
##atant
##aterial
inam
asg
##uries
resale
##stan
##osss
##eetha
consign
judged
payee
##shuvrq
1822
invent
mahavir
discred
uses
lao
##factory
##303
contempor
##384
securitization
cevs
recommending
giridih
autor
staffing
assailant
negotiation
##kjh
nedum
sankara
promotees
prerogative
cosharers
feasible
bawana
leasehold
vidyalayi
ais
ett
ial
jd
kos
opc
vuq
##path
##resh
##02010
##uria
resum
prv
##apani
landed
##uthy
1304
sii
referable
##ooorr
##izes
soninlaw
dhc
##907
jamshed
##392
##396
noitucesorp
pw1a
implicit
absorb
cpi
packets
abhin
gopi
##proper
vidyut
reopening
abolished
vaibhav
surprisingly
misleading
forearm
721
malli
ost
spur
tend
tks
##dem
##uance
##vig
##nas
of49
tod
token
##lekar
suri
##vehhq
deka
distir
##uld
chepa
1922
##aval
1182
111999
##award
imposes
##log
mehar
##exure
bailor
##dep
sharing
##aste
suppl
miscre
##148
bush
##608
dhiraj
606
581
emd
mormugao
emphasised
adhere
vadakk
chettiar
substantively
oookkk
abhil
mmmaaarrr
bajrang
ritesh
gulbarga
sipcot
##acceptable
remotely
exgratia
oookkkaaa
803
jhal
pam
tand
##but
##fhh
##orrr
##roli
##lear
##chhhaa
alim
##ondi
##lyyy
##ulv
chhattis
chinn
adal
##umi
##iphei
impressed
evidenti
doirep
sonak
intestate
wpms
##ibi
believing
##082013
##082012
542
violations
minds
adjust
492
suspending
fitted
speech
seals
anju
vaiphei
tones
chowdary
hoard
remark
worthwhile
nurses
couple
rfkk
shakti
bbbh
captioned
sympathetically
evaluating
discernible
preponder
distirct
702
822
a13
e1
edi
jb
jak
rer
##lng
##pn
##pus
##rich
##justice
##xp
##rot
whi
##ayaj
exorbit
adi
rach
##awane
##titute
lif
rajak
1507
versusthe
invitation
expanded
##ruti
monu
firoz
bald
refuted
##iba
##spe
nageshwar
426
bablu
television
mulla
##opping
lateral
##ruption
batra
paliwal
killing
diversion
uddin
trademark
genealogy
chepauk
516
964
jee
lg
odd
##tance
##netset
##ecorp
org
unacceptable
chid
##trust
subbar
##agadh
1013
##avil
tran
##ubirt
##iiiddd
##axap
##11999
caf
readiness
plat
##238
##whq
##886
605
husbands
violates
##wlrqri
bharthal
aaannn
mitras
partitioned
##revision
##honble
hanif
embod
nasik
laboratories
izf
enclosing
phaseii
mazum
dispossession
kavita
concealment
reopen
throwing
##contracts
apprentice
commonsense
salunke
evidentiary
709
740
jayan
kans
lend
nous
vali
##list
##itis
##22011
##cel
##adah
shen
exam
##osis
chu
##eeb
incidence
nekat
himher
##ugarh
employments
##ehhq
##ukudi
deni
##uhjxod
samud
otaxap
676
685
breaches
kureshi
impropri
bloodst
vasanti
youth
icds
billing
egalliv
instrumentality
mlc
##rxu
rifle
indirect
interse
tnedic
neglect
ayurvedic
##titious
kabirdham
ashwini
ck
cured
eu
ese
ehi
gq
galli
kank
lb
waged
##rons
##dam
##gaya
thick
##enn
##itants
1904
judl
##agger
evaded
1119
districtnanded
##apadu
scuff
##harma
##angara
2611
surm
selecting
04112015
##ogue
476
##342013
##272013
602
samal
visible
consented
arrival
thakor
statusquo
eiil
constitutionality
lokay
rahim
##uxqd
attracting
privileges
inquire
obstructing
agreementscontracts
remitting
lamba
janjgirchampa
seasonal
anomal
##first
ketkar
whereto
yunus
1d
dung
fanth
i3
kakk
rhe
##rj
##dxwkr
##sad
bemet
##ushan
##stoin
ito
##abandi
1925
##aining
pardi
##estat
lea
meted
disposition
uss
barman
##601
bearer
samm
##092014
jaichand
jagadia
larg
daughterinlaw
##fhvv
vagh
packing
propositions
shareholder
medicines
surajpur
headquarter
ytre
looted
esuoh
vouchers
shobha
miscreants
861
998
aqu
dkhar
gwali
lights
##iu
##ko
##915
##ilfdwlrq
##imaxe
##uling
##ighway
agitate
recons
1094
districtwest
leela
landlady
incur
defense
motilal
devadhar
##ruv
reportable
desc
franch
##501
henceforth
correcting
locals
##nioppa
##oorthy
sadashiv
accommodate
harassing
##fsl
rationale
popular
beatings
trespasser
##village
bhawani
gifted
journey
2g
jumb
katt
lath
maf
nv
nai
nang
tic
wel
wet
##bat
##jala
##4c
##52011
##52007
##nad
##tions
##esc
ink
ispat
##third
##additional
sudar
allege
dei
##unn
##aina
hawk
##sem
1021
grading
##apudi
rajarshi
1397
expw
##1100
2013h
overwriting
##acket
##2222
laic
trader
managers
##ibai
junagadh
sumer
operates
talking
satara
renumbered
permanency
associations
addressee
tuo
derre
debtors
formerly
shakuntala
fishery
philips
archit
balakashram
tuljapur
espondent
shantanu
frustrate
telephonic
culminated
frequently
##ssolfdwlrq
inapplicable
romesh
jjjuuudddggge
bemetara
2o
2f
532
895
alex
irt
mhat
vh
wan
##bani
##din
##upur
##5c
ths
##inj
resettlement
##20b
##udy
##akkara
goal
arrah
1014
##quires
evidencing
201213
magn
sonawane
##airam
declarant
##karo
475
madhukar
summar
##ihev
##062016
publishing
80hh
##nanam
bahu
dhananjay
shimla2
deduced
wareh
ministerial
srinivasan
1885
probationer
366a
chhatts
logic
adequacy
adulteration
reverified
celeb
gwalior
012
536
809
a12
cii
gut
mj
m3
nks
wn
##rud
##vsh
tomor
ashra
##2020
##akkk
##olb
##tinam
1048
1158
1266
scrap
premed
1334
##deoh
##teenth
maharaja
annexure8
brown
604
574
kalita
##psor
640
mukhia
draws
interviewed
##application
##central
substituting
dalvi
noncompound
misconception
eauction
sumitra
##echairman
stenographers
##tibility
awasthi
ventil
impropriety
tomorrow
mhc
##edvlv
##anal
inoperative
petitioning
##chari
##uters
1906
##akam
poverty
grass
canara
defe
1712
##ttta
disposes
2013c
genesis
reluct
clearing
loh
##682007
khy
##193
##904
583
rio
intentional
deadly
51e
##wasan
banwari
happy
ylno
assert
##develop
hundreds
nongstoin
wrist
mahadeo
contingent
kalpana
##wlwx
slightly
abovenamed
##detenu
vasanthakumar
noushad
844
869
dai
kizh
maa
sond
vj
vaik
##vve
##gay
thooth
##lave
##ivres
##uts
##unath
pariy
heera
1124
1103
corner
rajpu
##shulr
bhang
1604
basement
loading
busy
459
##8213
##606
##672
jamabandi
pin787
birla
thakore
patients
thiruvalla
ambala
##plan
varkala
##cient
huf
linked
akhing
mithilesh
sathasivam
delegate
touchstone
encroachers
repairing
defrauding
procurement
##6hfwlrq
kkkhhhaaannn
2e
c2
fist
gg
jp
##ruddin
##1d
inception
##rolu
##andis
##imi
attingal
subm
parveen
acto
##iei
##ahari
judgecum
1211
moef
patti
dik
aforeno
##taz
##unicipal
##505
##9888
##faced
##wlfh
##annoor
##252
##082014
servesh
579
##lvvx
sau
sanitary
dered
supervisors
cpan
packed
jobs
steels
khatri
truthful
phasei
cranes
insecticide
pochanpur
plenary
fictitious
instructor
destination
##lecturers
exorbitant
scuffle
thoothukudi
699
deti
eee
vex
##hav
##wrd
##gopal
##mus
##1t
##asu
##roo
##usgarh
##veh
withhold
pris
1927
##ford
##erehw
##endant
##minder
bokaro
rajani
##opt
1510
himanshu
##retni
whereab
1824
postulates
empha
mahanta
misbeh
constitutionally
magistratec
##itidda
##emption
judicially
penetr
deviations
607
486
pleaders
##072
##celloc
altering
jagad
kamat
malice
tendering
functionaries
surrounded
methodology
dddeee
jaldhar
##1982
governors
advantages
sushila
sambre
conventional
oblique
adjudged
threats
hargovinddas
mallikar
a15
ili
mich
nac
ue
##bhar
##y2
##dssrlq
##qi
##jnath
##3rd
##ino
anisha
##elwal
##ays
alwar
aluva
##ands
unres
casts
parental
gola
perin
##otam
1147
amol
secs
seitrap
purporting
sriv
partem
affair
oppression
maker
namakkal
##mbhatt
buyers
##ndd
annexure7
idbi
##nggg
blast
483
671
expertise
pandian
nationalised
occupancy
grazing
implications
##authorities
organizing
dddrrr
unsatis
settlements
fateful
dorjee
discontinue
fruits
##wwwiiilll
viva
radhika
priyanka
meticulously
##1812g
annexurec
unconcerned
mahatma
jayasankaran
coapp1812g
malprac
##fkdo3udgh
preponderance
noncompoundable
kkkhhhaaannnwwwiiilll
941
dudh
eer
hid
lgc
mub
##hir
##sum
##vn
##gre
##oys
##arayan
##icated
##adit
##urbar
coast
alm
shopping
##andah
untra
directive
##avoce
##bert
seper
hima
bhuv
##atim
plaza
2105
chanda
ers
##unda
##132
##639
crowd
##604
para4
nagaland
satyanarayan
judgementorder
choubey
sssttt
sampath
corroborate
##holders
dessai
uniformly
endowment
djus
shalini
discovered
extinguished
illustrative
erehw
amreli
rajpurohit
kkkhhhaaannnwwwiiilllkkkaaarrr
1h
729
bsb
daw
hunch
leni
riz
riding
waz
ym
##bup
##kati
##gri
##tp
##naw
thy
##urkar
##urpr
##cher
##chen
##abs
underlining
districtpatna
1279
##lllaa
minist
guiding
detection
cars
panchas
age21
wp20
drip
myn
myopic
##record
chambers
binny
sanitation
885
contemplate
lots
rrraa
equivalence
biju
travels
encashed
grown
##transfer
ubaid
decreasing
extinguish
merchants
##eeennnttt
##ghflvlrq
dddeeeccceee
3r
?,
eia
ekka
fash
gms
gmd
lite
mati
p18
que
ron
rock
uc
##well
##sury
##vkd
##tel
##mara
thri
inquired
##ecourt
##urate
##uraj
shil
##ivil
##ulp
##ainst
pertained
enti
recip
##arious
##tick
manak
crush
delif
##993
copc
receives
ca13
commissionerate
##ukan
schedules
acquisitions
knock
universal
##187
##275
##042014
breath
cements
enclave
##062015
##icker
ambika
vasavi
##1986
typographical
instrumentalities
keys
induced
override
gardens
alienation
conjugal
sheeted
overlapping
fanthome
797
903
dak
hood
kb
kode
rks
rbi
sary
vu
##a3
##ael
##huh
##qa
##regn
suder
##usi
petitionerrespondent
##ipara
trii
##tsss
purports
ramrao
##encl
possibilities
apm
2811
dia
senate
##kkim
karupp
##143
##191
cwpt
para6
engineerinchief
credence
cccooo
tirur
guarantor
sadanand
versions
culled
amitav
8617
venkateshwar
##krz
kolla
externment
kanchan
horticulture
assertions
rescind
##decision
frustrated
tabular
sewage
dleh
2the
bd
eso
gayat
lish
nadar
##gil
##82015
##treat
##oner
##rocer
asc
##iong
##206
chock
##unu
parag
##aham
##lia
rajbir
1300
bhans
##iia
mohar
##hanpur
201011
valmiki
namdeo
equities
modvat
cooperativeofficer
immaterial
panig
nathu
tuition
##wdwlrq
chhaya
tonnac
interrogated
voce
walls
johns
chandrasekhar
nakas
nurul
theatres
##ffffff
unconditionally
lavad
barik
##palika
travancore
dddeeeccceeemmmbbbeeerrr
2i
788
726
847
b4
bap
wc
##luh
##hod
##rent
##deep
##qwkh
##02012
##municipal
reis
isha
resided
##utra
casually
regime
1235
revived
outlets
bhut
25503
dayin
dayout
2013a
2013e
relieve
valorem
somewhere
tiie
defendantappellant
200304
contracted
lohara
ecne
media
formally
fare
khukuri
irin
dhjs
drains
scheduleii
##umberable
knowingly
sufferings
extracts
526
burning
reservoir
restricting
sandhu
fast15
macp
mirza
vitiates
mmmooo
##zlk
muthuk
neighbouring
polytechn
replacement
translated
##durg
troper
nationalized
adapted
whisper
mhatre
hunches
668
894
8000
962
ain
cu
cts
dand
eii
kay
kist
mca
nce
poured
umm
vet
yed
##yana
##wpc
##jw
##asaheb
##itas
##ouda
rewa
##elal
ster
exagger
chitt
accru
##aggg
1215
trials
##ssss
demised
##ampatti
dispatch
transportowners
##072014
##ojqj
satnam
bhagw
ccchhhaa
apparatus
ndmc
kotwal
corroborative
awai
nongovernment
swaransingh
straighway
thoughtful
shoes
bhagwanpur
ladies
hazarika
supersession
sympathy
sonamura
deferment
maryadit
frequent
##2392004
eighth
30121993
chowdhury
innumberable
kasturba
govindarajulu
kottarakkara
palpably
perceptibility
##association
panigrahi
948
gf
hop
hrish
qg
tti
yap
zil
##bm
##bate
##been
##eram
##asia
##inga
##lew
aswal
##andy
abnor
commiss
quit
define
##ashankar
1508
##shal
##ruoc
##1010
directory
##anjit
senthil
wpcnos
##677
##aneya
sdm
##adiya
samir
palla
587
654
657
kalyani
##362013
##psy
nalla
ajug
gratuitous
surviving
rashly
hier
compulsion
rebello
bhatkar
quarterly
daga
bullet
ncb
shalin
2492007
jaswinder
inadvertently
cyber
vivavoce
raghavendra
incapac
purushoth
technicalities
##amkela
ouster
ahsan
##parambil
chhattsigarh
whereabouts
25503200
!,
bic
cestat
ky
m2
mould
mai
qwkh
vd
##atic
##cj
##311
##xh
##ilgdy
##urx
coowner
stagn
resub
##andal
parks
##otra
1055
direc
judgmentwith
##apy
furn
1705
copyright
villag
2013d
divya
applicantrespondent
collier
##669
##635
##15116
##aterally
urges
temples
groupnetset
651
kunnath
##patti
worthy
##iscal
conferment
brahmbhatt
breaking
abhijit
alienate
trespassed
sapna
hanumangarh
amrendra
varying
karunag
amanullah
merchant
pin787057
wp208213
fashion
groupnetset15116
779
792
949
bru
cure
fiscal
lati
vv
vg
##reading
aslam
##chool
enrol
evac
advocatec
1317
hereto
howsoever
diverted
2802
##ehw
desopsid
wpo
wp7
baramkela
##hsdu
##hhh
##rrraa
remedial
sugato
scrutinize
arunachal
mutated
hcneb
analysed
##eswaran
##eker
dispensary
swarn
prospectively
livic
##employees
xviii
ankit
kutty
raghunandan
raiding
##uoma
uploading
rajasheker
4c
925
ale
hame
koli
lhe
wdo
yus
##bg
##ewkh
##oly
##arg
inquiries
ansh
##ette
##ollo
abu
arum
##away
##aprasad
##iiiss
expense
employing
occip
008
argues
##602
##559
##693
nagapat
##yanath
pett
pathy
cccooonnn
olr
pipes
asserting
lakshman
pulp
subclauses
##.............
ankush
philos
##ichandani
jabbar
balika
solutions
pudukottai
murugan
purushottam
##erofa
nonlocals
neetu
tailor
sudarshan
1company
dic
haki
lung
##lum
##rani
thes
##onge
##inam
##inning
##idated
resumption
##stances
##allen
countries
evil
##illing
1233
1431
rajagopal
##llar
metric
authorize
##loyee
##ancherry
##csca
statue
##145
##annan
brkr
tnuoma
murari
sky
kanal
ranjana
adhering
silver
successive
paramjit
intervened
irresis
ptc
chandrasekaran
combination
sikand
gardani
rebutted
sponsoring
##civil
##years
incapable
reevaluation
encumbrances
##whuplq
amrahs
sudershan
965
gal
hanging
kuth
kashi
ousted
rane
tall
tale
vall
vending
##woh
##tre
##xy
##far
##inum
##atlon
##astha
##ppus
##pplvvlrq
##thought
sujit
acr
##chan
shyl
perumal
##ffl
appellantstate
trades
sameer
##hiii
152392004
critic
monop
boarded
producers
ilr
nandurbar
paragraph2
tahil
sanctity
depositors
explanations
dinkar
ssm
silk
mistri
conveni
jyothi
ofchhat
routes
inflicting
coloured
hamirpur
insistence
manipulated
contingency
ancest
nonbiodegradable
reminders
technician
palace
haemorrhage
gnivah
concocted
jumbish
ashraf
gayatri
awaiting
hrishikesh
761
988
921
bade
bhik
dli
gord
huda
##bec
##gad
##02016
##xia
##166
##fg
##erence
##atnam
beld
##mpara
##udas
respondentlandlord
##akke
ardn
##otes
queries
##pecuniary
revenues
1644
##khuh
devis
##ooosss
appellantsdefendants
deten
##tisgarh
##ofth
naray
nonob
nandi
##2000y2
peter
tnats
##huylfh
1209
pressur
858
undes
consume
stranger
nilesh
peoples
values
characteristics
##frqfhu
##gdwhg
##hdam
halls
exhausted
khandelwal
saurashtra
pratibha
maveli
ensuing
bhikhabhai
balgru
nikhil
sambasiva
satheesachandran
pardiwala
bhansali
irinjal
furniture
703
831
dun
eating
fet
fakir
kuch
pds
rac
wli
##pun
##hr
##scc
##fan
inm
toto
##reti
##thon
onissa
sunn
acq
shake
##20000
##imitation
##abi
1905
enters
decep
preserved
lia
1424
##ashid
##opard
postpon
##oki
supplier
caus
verb
annexurer
ecalp
nonform
##637
##141
lake
virus
grouped
satur
adjusting
approaches
vijayakumar
vijayalakshmi
##wwr
grains
mostly
virtual
stamped
katak
sainik
lanubirt
forfeit
predecessorin
unilaterally
##today
culprits
insignificant
noitatneserper
unsatisfactory
hierarch
892
dattu
faz
uco
wk
##bri
##aud
##zs
##wt
##3c
##xenna
##ittee
asphy
distill
cashi
abuses
##avas
1227
1278
ropa
##ensation
##opy
1557
1731
##ankutty
periodical
##loyment
basti
coramhonble
overhead
ecitsuj
balaram
##walkar
nonpecuniary
lala
saravan
belt
puts
199495
samant
##972
financing
nagam
kamb
dasgupta
496
cca
litigants
shankarrao
antem
vishwakarma
kullu
##peta
##espondents
structural
embark
jeth
bajpai
improvements
bijapur
consciously
##appropriate
tliat
stcaf
hypothec
nurse
tttaa
cosharer
awadhesh
fetched
bifurc
library
hakim
maidan
sehgal
cremation
biharsharif
767
840
947
b3
eun
fm
gall
gita
glt
##l2
##pone
##yad
##kdyh
##xi
nose
##lai
unlo
##umani
pars
parsh
compli
##eeess
counters
1129
suchiang
assisting
1249
1610
expire
##ooorrr
apology
frank
khated
bark
brushed
##fulf
##697
businesses
##280
##taken
palayam
precondition
##eeeppp
##ambaram
regularizing
ambaj
laxminar
##frug
##fkr
milan
objectives
##eeellllll
kesar
preex
parmeshwar
relegated
jashpur
utilize
pariyoj
nagapattinam
balgruha
ipp
mount
navan
##bound
##rur
##xvh
##fwhg
##tiers
##anur
ineff
##deryh
cold
covilla
##mping
deme
dismant
##abur
1907
##akur
godh
popat
##avidy
lifting
defences
##ubha
species
extensively
elt
minus
baliram
##wlr
nagarpalika
deprec
blocks
##022015
##ushna
british
noitats
practitioners
cavity
772
##ursing
##rahman
govindan
vigilant
advantageous
mahabir
##waha
sukhdev
22324
sesha
disallowance
routray
diesel
gowda
##frxqvho
nomencl
embodied
chockalingam
tahilramani
dust
dosh
gour
kong
moin
nes
##litude
##wit
##eja
##gj
##jor
##82014
##itably
nov
##elimit
bythe
##chair
##akonam
##tinkara
##enda
dechh
film
1017
1078
trend
afterthought
doma
##ifdar
hears
1899
cauti
dieng
connecting
engra
3762
wp48
dhing
fa1
pensioner
malkhana
turp
lareneg
sca188
floors
addressing
pressmedia
restoring
mukul
300a
##frp
1154
sidh
rtet
sushma
jeopard
ankur
svn
sarojini
##bbbeeellllll
stairc
vazifdar
rrreeebbbeeellllll
samarendra
##aaallleee
abetment
##sl22008
reassessment
bhagirath
scanned
circumspection
sammelan
asphyxia
antemortem
22324sl22008
dechhen
,!
7000
dara
eth
gw
ies
kd
ked
tension
tanda
vkj
##cence
##cks
##rar
##rvw
##dri
##vwlwx
##mucric
##intal
tol
bef
rek
##cee
stan
##cherla
##lace
disappro
1915
##acks
##occc
##aganj
##ods
abichandani
##ipa
##ishi
amd
1217
preet
sikh
##ugned
##shall
1817
##upathi
2311
##managing
##aaammm
nonest
##antile
##4444
dhola
tamb
jamal
199596
chaur
wrongfully
noitacilppa
##apatti
helpers
##reprene
coverage
inherently
corroborates
weekly
sustaining
hitesh
puja
amplitude
bijwasan
ioner
reappreciation
basha
tourist
##racy
dewolla
fnukad
predecessors
inadvertent
eighty
intimidate
fertilizer
overwhelming
sreenivas
samudrala
jjjuuudddgggeee
yusuf
occipital
3s
796
849
997
c3
cir
gri
jub
lech
pup
pint
zoo
##bre
##high
##iwal
##tara
##editary
##atter
##tional
##itant
coir
##amber
depar
201112
##akha
##eef
##006
commander
##ticle
##harwal
mo1
##khd
apo
surana
redemption
careg
narrate
dtc
demur
##14db
sara
sarup
##ampally
##1972
endlaw
##onymous
talapatra
slr
546
nagpal
659
malic
shahpur
##yalal
stipulations
thiruvallur
rakhi
strateg
dw3
vishw
##revoc
srinivasulu
nawadah
manoharan
headmistress
demarcated
radio
prerak
apprised
sessentiw
616
716
ezh
kary
nisar
sow
tila
##pdw
##gde
##42007
##tv
##firm
tomar
##ref
##idh
shocking
##osphere
##uta
##unj
petitionersmr
appellanth
##ahalli
1166
quintal
##awal
seiruj
concedes
##maa
mok
elur
21a
2013b
201314
##official
3233
excludes
colle
lait
haren
##uvx
199697
tamada
naga
6500
##ambakkam
ssi
##426
##angaon
recognize
reserves
kunh
bones
widest
gradually
##aswami
##1984
packet
paramjeet
hsedar
osmania
pattadar
cellular
##shc14db
bakshi
donor
nonapplicants
stepped
vessels
##srvwri
prolonged
huzurnagar
accumulated
anishabad
inventory
802
hun
iinn
kani
nour
pent
tai
##yoor
##rance
##kin
##vwr
##oii
##323
thar
##oria
##icer
cook
##sto
1901
computers
##agg
##issue
##iph
1090
##tob
##angadi
marath
sikar
buttress
2012shc14db
bibh
opinions
annexurei
dhub
headman
##696
immoral
##082011
684
conductors
##amboke
jayesh
firearm
helpless
lds
harihar
ayhdam
milind
convenor
udai
saket
prisoners
vagina
bhusan
entreprene
260a
philip
writpetitionno
neighbourhood
##vhuy
inadvertence
ponnur
##dovr
suryaw
repatriation
uppal
18052012
sebasti
bamboo
lairt
lokayukta
aforenoted
magistratecum
##avidyalaya
seirujni
3p
922
gagan
hors
hals
nahar
ponda
##ekh
##vwd
##mf
##attinkara
toppo
##elec
cow
converting
acquires
dee
addi
1909
parad
##ellant
##odz
##sez
1099
1062
advisable
appellantwrit
##apoor
accusedpetitioners
martin
outpost
dock
applicantpetitioner
deserted
entitling
##uku
200506
spect
drun
nonfulf
karta
wp8
farmer
##rqh
##448
##251
para2
myself
608
##recnoc
656
gurb
591
##062014
785
gunny
rameshbhai
revewoh
raghub
rigid
emerpus
venkatas
asserts
ranka
khars
suggesting
##vdl
selvaraj
chawl
bundle
chandiwal
pregnant
subscribers
cinemat
perumbavoor
##regnum
nonformal
doshit
rrreeebbbeeellllllooo
3l
841
929
946
996
aunt
iit
kend
kayam
lending
rising
uch
##yolpme
##rice
##inim
informs
##cele
forg
conve
whil
##anted
unqu
unsc
unders
peramb
respondentsplaintiffs
quiet
##establish
##awala
leel
singar
interregnum
neyy
nehw
obey
##ophy
##opathy
1504
workcharged
patrons
setup
expand
terrace
pw21
##kkx
##cost
##adhe
talwalkar
578
alike
koil
malak
##bbed
bharath
##uddha
foods
csr
siraj
mmmhhhaa
##iented
enterprise
photocopies
munsiffs
subramaniam
##txhv
elcihev
seetharam
##ulrashid
proximate
bifurcation
indefinite
discredit
bloodstained
prisons
ahsanuddin
katakey
sca188682007
1l
1p
879
ated
aji
cfsl
fas
ffi
jug
kari
l4
mug
mason
nst
rus
rose
##rxw
##gude
##jad
##tip
ancient
##etics
##term
respondentclaimant
##abb
adin
##ains
perpe
decade
writer
1020
##ousing
##look
meager
insens
delimitation
clb
##omi
pw18
magan
occeducation
##temp
spend
33a
##ogai
##684
lalan
khong
hymen
##suit
dho
##aragh
##305
meanings
1007
##vijay
allotments
satyam
##yanagar
ceases
csca8
csca17
mulchand
economics
##knh
bhandar
organising
nominations
pronote
saiyed
kakatiya
consultant
##abhavi
##fox
sevak
faithfully
prompted
cbdt
sandhya
pusor
contravenes
indemnify
##cejbo
unequivocal
acquiescence
toddy
gardanibagh
nomenclature
hsedarp
aux
aims
bow
cite
hub
iind
jv
lond
p19
telling
tili
##qs
##22014
##62003
##92008
##nur
noin
stale
shn
chack
parth
alloys
commens
1221
bohra
defining
seod
1703
wherefrom
fiy
detcerid
chandia
##guu
buy
##662009
##147
##142009
thirum
phukan
##348
everybody
##rrp
viswan
##485
murti
riwkh
calculate
gnis
ssb
hole
##qglqj
intervenor
conceived
##ispens
dahod
sevabhavi
absconded
krishnagiri
analogy
sheikhpura
tangible
##xqghu
kumbakonam
harmonious
literacy
##advocate
feeder
traditional
pendente
rewop
reshma
almora
leniency
hakimpara
shylla
suryawanshi
2201
819
952
cv
game
iri
kadi
tlic
umar
wer
##zrx
##rata
##wri
##keeper
##02011
##nidhar
##tifying
beque
##chu
orderjudgment
##mmmm
1082
##eshyam
##liers
##ideen
honb
roz
1494
##loom
1815
mandhata
desoped
khande
10000
##ohtiw
jatin
viscer
bilas
##atches
646
##vvve
grabbing
volum
organizations
adherence
dharmavaram
fertile
##uqer
131d
nutan
contemnors
mahbubnagar
tiruchir
eruxenna
tribunalcumlabour
hazardous
enrolment
irresistible
neyyattinkara
perpetr
bequeath
bdr
dant
fag
hed
i4
jg
kore
kuz
l0
wm
wen
##bury
##his
##hud
##02008
##92007
##err
##itn
rema
fortified
ond
unus
##gets
##akuda
aband
evading
hisar
1167
nevig
rajd
15a
revati
indispens
guess
receivable
selur
agreeable
khad
##ikrishnan
rejoin
denoit
marketvalue
##253
##274
jaiman
sufferance
shahi
gurdev
##vvv
binay
distributing
wardhman
##criber
petiton
##rupt
arap
##lands
figured
##thatthe
reconsidered
obstructed
infrastructural
payscales
subjecting
191g
##commissioner
slaughter
sivagnanam
krishnamurthy
lanoitidda
automobile
horizontal
##quisite
tashiling
cyberabad
saturday
lechas
824
821
928
cyc
ghan
humb
kt
lamb
rivi
ttd
##tage
thread
##erts
##isis
##eliver
##riil
proj
parit
hegde
agr
##ipadu
##sog
##008
##otted
1098
1065
1039
##uthur
1418
##angar
##anship
bhog
deva
##ctd
##omy
##omed
##urists
readily
##uksh
balco
licencing
hosh
victor
##052015
586
##292013
recruitments
dasarp
murl
noitanim
vidyap
afrnafr
lengthy
drocer
sukhdeo
rotcelloc
prabodh
stored
perfect
##decree
ooorrrddd
25b1
chunk
electroc
mallaiah
##uhvsrqghqwv
hukam
##technical
##supply
##eplwwhg
saifabad
decisive
redetermin
##chemical
harunulrashid
hoardings
knocked
philosophy
riviera
ooorrrdddeeerrr
736
979
cigar
hpp
nhai
uks
##lip
##rf
##serv
inim
##alayam
anv
##itpur
##itaben
noag
##irms
alka
unin
unav
##uds
petitionerdetenu
prbs
consisted
enrich
##mei
##ipt
appellantclaimant
##apalle
crz
1810
devasthan
sureshwar
20072008
verandah
govali
owns
plate
cropped
##wlph
brut
##082017
lesson
652
burd
##inium
tuohtiw
organised
koteswara
machil
authentication
rw1
jhaj
##employee
##easible
##shc67
sikri
limboo
independence
dluohs
sheema
experienced
fleeing
explosive
hariprasad
imperson
denomination
##gnidrocca
architect
8a
961
bmc
cco
lighting
peremp
worn
yyy
##lb
##bly
##circ
##gm
reena
##lage
##udhan
1942
undertook
##etni
raos
##alling
poth
commences
trou
##partite
1402
theirs
revising
srigang
sharmila
makhan
roadways
##131
040
##dylqj
##wkhshwlwlrqhu
etar
dhond
sbc
##649
##afa
##627
jamdar
,,.
calender
granite
mitigating
temporal
births
ranip
collegiate
chakrav
importantly
avoidable
aravind
muthu
haridas
kundal
##represented
madhavnagar
rods
alienating
clinical
##bbbeeerrr
forbid
esuac
attains
shouting
##college
eldest
reconciliation
##ffruglqj
inheritance
mizoram
surmises
mallikarjuna
cinematograph
machilipatnam
6s
739
bf
dus
digh
een
founder
jul
kel
l2
vfh
yours
##rut
##kula
##vni
##fur
##eds
##urvey
##rier
prothon
unaware
##udq
##ocu
##tituted
##aps
interruption
##ancum
roj
rajapur
rajpal
##orkar
##onga
postpone
periodically
prize
200708
chandrika
construe
labelled
##adevan
##who
dheer
captive
myll
ganguly
541
##pauk
claimantrespondent
babita
12052
##crl
##asiya
helpful
improved
sssuu
anjaney
survived
concessional
designs
bansidhar
pedest
kilpauk
##appeals
wireless
inconsistencies
shethna
fertilizers
garbage
madhusudan
jirayat
##psorhh
##treatment
engrafted
dhingra
hppwd
bii
balia
fak
iota
mend
sich
song
sphere
tus
tee
tss
tangi
vc
##ais
##km
##42011
coff
stressed
stern
itc
shani
unanim
##raf
subedar
parmanand
##endants
##ichi
accrue
permod
abets
repelled
rajat
##ensible
1329
17b
1710
cries
moves
##992
reasonings
##omb
ustice
challans
spouses
sponge
declares
karsog
age19
subscriber
##940
##nnn
positions
shortfall
permissions
kishori
csca7
hardware
unduly
ledger
unsafe
successors
entrustment
unfounded
tnemetats
##xeol
131e
##kuan
##wajit
snoiss
##rughugdwhg
##mmmppp
gypsy
reexamination
mercantile
gniraeppa
arithm
lsok
resumed
jamshedpur
bicycle
##frqfhuqhg
hierarchy
unscrup
viscera
mylliem
2200
dial
dcc
dsp
jaid
sadi
##lce
##a4
##prom
##ppades
##iring
##ithal
##osa
casting
##oct
peril
consigned
abbas
communal
1031
tripartite
##illip
##estone
1269
scrib
1310
##iiic
twin
hereditary
daytoday
20134
2010shc67
overage
##trap
constant
refs
##233
signs
madhavan
487
flr
calculations
practis
692
dilig
##beit
amitava
hemlata
accomplice
objectively
dehri
xxii
##eswaram
bansh
keshote
vijender
uniformity
aaauu
palika
games
straightaway
indisputable
##kishan
vegetable
specifications
padmanabhan
sadhu
basudeo
gajanan
preservation
ypoc
hoshiarpur
gmdc
conveniently
dholakia
unscrupulous
5c
etitioner
gaz
laj
melli
nms
wires
zafar
##lm
##glqj
##olic
##2iil
##xu
##mali
##them
restruct
##chuk
arhs
amrev
1257
##lii
##top
1452
1502
seiti
1311
ramasamy
villager
surg
bals
khadi
nandini
199798
##attuk
daor
pauri
752
swati
unclaimed
tyres
870
aiims
sadan
kuruksh
ylgnidrocca
empowering
contradicted
nirman
bandra
dharamshala
superannuated
mangla
narsingh
canvass
micro
sujatha
seethapathy
mistaken
##xjqhg
##lapalle
summarised
saryug
zilha
abnormal
indispensable
sriganganagar
prothonot
801
936
cens
eme
efficiently
f0
hig
ila
sada
tll
yel
##lani
##vest
##only
##leb
sut
albeit
shell
##imar
1920
subbi
##agir
poh
##igai
##apra
##uba
2223
web
publications
mahant
##1015
31a
verbal
defendantrespondent
refin
conducive
procession
barah
idle
##552
##5555
husk
plaintiffsrespondents
connections
##905
sanju
##389
65105
kalabur
##ovil
waited
giriraj
chamar
uncalled
ambul
clarifying
auda
nnnn
planted
habib
sangha
nirgude
deliberation
deliberations
izk
pedda
amalapuram
highlighting
fishing
rationalization
................
balasore
khalasi
destroy
professorslecturers
abundant
neglected
excavation
sneha
##suhvhqw
ofricer
conjectures
brit
daksh
gab
lm
pair
ranch
vani
##560
##1e
##erga
##inct
##atna
inch
##asis
reverting
expos
parida
learning
decim
1106
1191
1547
transco
charter
2910
accountable
khera
##sukh
wayanad
##241
dharnidhar
malk
simplicitor
telugu
gunthas
exemptions
ravichand
743
organis
sidar
valuers
amaravathi
tcaf
116c
rotation
bhimrao
elaborated
rabstan
shipping
gavai
nonexistent
##ulqjwkh
pujari
baidyanath
dwellers
pattanaik
wp1021
mazumdar
irinjalakuda
predecessorininterest
ineffective
tilauthu
appellanthusband
dhubri
undersigned
kurukshetra
2l
829
bss
bpcl
ghu
pula
vm
vogue
##uhtx
##vas
##jf
##jhar
##orum
##ectivity
##icl
stake
acute
shit
##andra
##odiya
raig
petitionersocieties
1032
##awalia
199091
truly
finalization
boat
##oproc
##rednu
marlapalle
##cccc
pw23
##appointment
015
threejudge
drastic
goodwill
479
promoter
liberally
myd
ashwin
healthy
visual
dailyw
talukdar
##572013
bahuddeshiya
facets
vikrant
ganesan
##being
chakra
governance
gopinath
obstruct
pulled
cryp
tejinder
111999888
##transport
bhartiya
dimin
washing
fruitful
grudge
atmosphere
enjoined
mrtu
##cepser
awareness
arulm
hawkers
hooda
##200001111
turpitude
kalaburagi
4i
701
791
jin
jaj
nell
xat
xix
##peti
##page
of2
##attur
inw
##algaon
##they
##leoh
sumeet
asj
##amended
##amman
shaj
shali
##ivar
200203
##unnu
subpara
subrahman
gohil
##esheet
claus
rajive
timelimit
specifies
allowable
vibh
mahend
2107
salam
discount
punia
puneet
2810
newasa
018
northe
##130
nonsupply
##adev
##338
##887
##671
forcefully
754
kishun
encoun
1207
780
##arsi
meaningful
851
implicating
derive
##586
deserving
ldc
seize
rashmi
sivakumar
##narg
kharka
measurements
0102
sexually
neew
##jkw
fisher
distinguishing
mundkar
practicing
sambalpur
infringed
stnm
##patient
polyth
tvog
pscum
##oooooo
indefeasible
dnuof
uploaded
apportionment
relinquishment
multiplicity
bbbhhh
##urprwlrq
staircase
nnnnoooo
d6
dul
eri
mly
nq
vash
wii
walia
woke
wlc
yesh
yagn
zub
##lines
##cg
##ezz
##42014
##nani
ana
##rega
##thu
##leman
##idem
shy
respondentboard
##ows
##umati
##eez
rapl
abover
##igudem
##awad
##apada
assn
mangan
scam
sewak
authorizing
kumaran
1627
setty
devani
##115
clock
2604
receivers
diag
relieving
##of49
##122009
##135
il24
3742
delhi110
##259
##626
##092009
##statement
658
kamdar
chaub
baban
birbal
ssk
contemplation
compartment
222000000333
petrochemical
comprises
kuer
embezz
drove
keshar
bhaskaran
pursis
tapan
inducing
facilitating
sangeet
nemi
dattatr
loohcs
thermal
sandhawalia
disentitle
wifh
mahboob
##ttteee
subbrokers
deployed
muddamal
autorickshaw
penetration
##allenged
ambajogai
humbly
murlidhar
prothonotary
,...
897
816
909
fj
hil
pledged
rts
rii
spp
xs
yak
##bp
##bia
##ront
##dled
##eferred
thim
##erates
##anag
##ecretary
itt
deterior
unh
##abal
chor
chiman
subc
haw
##agre
repro
arn
##ishankar
##aving
rscr
##apalam
1398
1347
1600
2507
##eft
vallabh
usa
bankers
016
mustak
kartik
##facto
farsa
dhari
##uvh
controvert
competency
excepting
##usssttt
558
##rece
576
##012012
skm
maur
derog
exchanged
3008
participants
helped
sssiiiddd
amaresh
tnemyap
ooff
completes
##nandan
swaraj
snois
deoghar
##jdlqvw
girija
4661
growing
vipul
ballot
rukmini
reexamine
hukum
segreg
demonstrates
sreedharan
constructive
venkataramana
platform
##itisation
alexander
##fkdo3udghvk
cccooommmppp
johnson
arumug
##ooosssaaallleee
subbiah
decimals
bbbhhhooosssaaallleee
yagnik
6c
jbt
kks
kva
lnd
r8
vaj
venue
zoos
##cipal
##yur
##kf
##jat
##6000
##nard
oft
##inha
noiti
forem
##chew
##raw
##rail
##ficatory
##olvw
##tinagar
actuated
abut
appellantapplicant
1272
...,
ober
rajas
1706
outright
1897
pater
2103
tax4
##kkottai
20062007
karki
punishments
##annexure
dhand
19992000
##nga
electrician
blame
validation
immunity
edoc
ghly
##012017
783
854
volition
ambalal
quoting
lakhsacre
squad
ganapathi
banned
ssseeeppp
dcp
sangram
ksrtc
##ettes
xxiii
fero
prospecting
straw
voiced
homoe
intellect
advertising
defaults
bhiwani
##delay
..............
proportionality
lumpsum
abducted
shashik
cisf
fittings
suppressing
toilet
abhilasha
##0721997
deprecated
csca80721997
899
dwari
lest
pgi
sist
sred
smita
uu
uth
##cy
##cile
##des
##qf
##oonn
acb
##ioner
proce
shish
##andu
##lable
aradhe
1214
1277
othere
bother
scri
crane
##ubrolu
meenu
timings
1622
1608
##purch
sinc
##porp
misunder
apte
##epalli
##ssso
assessable
##guh
200405
balancing
tenzing
##oga
##235
sahani
similarity
##306
lakhi
##287
609
everyone
##viya
559
##palem
sambh
esent
##uriya
##oji
##wkdv
durai
gurud
venkaiah
##789
noitcivnoc
girdhari
surrendering
derel
ratnak
sells
##qrz
##000000
bishnu
rcp
analysing
##ylgh
sudip
sirsa
veil
clarifications
kothamangalam
walking
hamper
mortgagee
accusations
tortured
ailment
imagine
sajjan
omprakash
nahan
rjasthan
noisivid
clinching
...............
balasaheb
##fdqqrweh
convince
waghm
respondentinsurance
##hanjali
democracy
##uhfuxlwphqw
ujjal
indiscrimin
eliminate
underwent
hameed
kundalwadi
mydukur
sssiiidddeee
4s
dari
fod
fdr
gon
jari
nall
yc
##plv
##rfdwh
##iety
##antin
##oration
##thana
onetime
suht
##ersh
als
deity
shaw
disf
distress
##ulfw
chatt
casec
stateof
agai
##ffe
##allu
pole
petitionersociety
1018
##ahal
amir
amrik
##apeta
1265
incurring
crisis
output
ramnath
1806
##118
secretarycum
villageb
discip
reception
diwakar
surve
##122
##122014
spac
spoke
##gued
declaratory
confirms
##630
##wluh
##8888
agriculturists
equi
modesty
##285
esic
delivering
alterations
kovil
751
babubhai
gurcharan
626
yester
kanpur
##wwww
succinct
container
ganoo
dhani
##amau
##police
##542012
supervise
ftc
typing
khatau
consultancy
##qdph
inderjit
##buil
sarda
rishikesh
##ireddy
##madhepura
inapplicability
muscle
dongar
shashank
utpadan
jungle
##property
magnitude
sondurb
eunever
##chairman
##araghavan
abovereferred
foremost
890
942
d4
jugal
lur
magar
oun
pans
stit
sna
santi
t4
tally
wlv
yang
##px
##zer
##rincipal
##muk
##mia
##fam
##ican
##etitioners
sullar
##irr
respo
respondenthusband
##owda
##ulangara
hasten
##eeesss
consenting
##issshhh
commutation
1290
neii
1302
decisionmaking
moor
poster
circums
##managar
##pher
century
014
excuse
investigator
eciffo
##ustrial
annexure9
##nnnaa
##628
securitisation
crept
pande
##452013
meghwal
carriages
choudhrie
jayap
dsr
dsidc
vadakara
owt
eighteen
chooses
prabhakara
aaappp
masjid
escort
##eeerr
hamid
vidhyalaya
tanwar
799001
prajapat
borrowers
gurdeep
evaluate
##eeeccc
##aldota
stigma
ghazi
empanelled
jaichandren
80hhc
##tttaaa
##developed
unreserved
commensurate
coffee
##ppadesucca
dattatraya
sondurbaldota
3n
993
boun
gariy
hang
iht
kic
lun
n1
oit
puz
sivas
urt
veng
zah
##lk
##back
##cw
##hand
##oning
##atan
inner
##eco
orde
ong
resjudic
##oser
##abha
##quent
1066
1049
1163
1149
landless
##opath
1333
marine
kumars
workcharge
ramashish
pwl
carp
##anjar
deposing
exercisable
##136
ecna
##152
sikkin
denotes
denrecnoc
##jara
dhen
urmila
applicantsappellants
603
usefully
mantri
ghos
ghose
categorized
noitas
776
grace
953
clarificatory
##hglq
silence
sabharwal
contribute
nominate
grewal
##innnggg
cardinal
fortnight
ltc
vaginal
assembled
##zzz
##rolf
accessories
muduli
quantities
notionally
nidubrolu
ninth
nemo
diaserofa
reconcile
wheelers
snehanjali
absurdity
##natsmucric
unequivocally
bullock
randhir
dimensions
parlance
chidambaram
lishat
karunagappally
caregivers
ranipool
anjaneyulu
polythene
843
ace
bapu
hta
iil
itioner
lign
o1
p22
pudu
tfa
torn
vere
w1
yella
##pect
##ititep
##qdr
##9v
##my
##arkar
##roy
##thed
##add
cocon
##usni
stak
petitionerworkman
cheema
admir
##active
competing
1131
quick
##party
crying
1382
1308
himmat
bhoi
mothers
2504
##ajit
##izee
2909
##kky
frontal
##125
panchkula
annexured
colla
logo
ection
launder
trauma
##bhadra
##notification
##1970
transferable
##muzaffarpur
imminent
##374
554
counterfe
syad
##1610
sca14
petn
##dvrq
784
ssentiw
775
##572
towns
expiration
ajai
ajeet
##untla
kashinath
envisage
unimp
cilbup
unauthorizedly
ecnad
tampered
##rrriiilll
kutch
overlooking
aziz
watchman
dumka
rarest
pregnancy
shafi
defamation
chhabra
##lpsxjqhg
shubh
uraizee
##keepers
lifetime
emphatically
colleag
nourishment
whilst
unusual
arhsim
cryptic
neewteb
pscumjw
oberoi
yesterday
aaappprrriiilll
gariyaband
resjudicata
1201
920
aangan
cag
fp
hatched
jarn
koul
wb
wri
##uing
##qe
##vam
##82008
##72007
##nom
thad
inappropriate
##alem
##righ
resurvey
##vekar
alle
##laim
exposed
respondentassessee
##ulting
china
##urely
##aila
1121
1139
##ems
impost
interval
maynard
1422
##athal
##athers
marwah
outrage
##shhhaa
1630
crimin
plaintiffcompany
pw19
overtak
##kkam
##appur
eciton
4050
age20
sridhar
##bhak
proclaimed
##153
##iksh
##such
variable
dhav
draugh
##1978
nagaraj
equals
janata
vicechairman
##enger
samanta
tnet
jagtap
5002
muncipal
shivani
dina
tirumala
693
##caet
3110
happening
##1985
demolishing
kakade
pramila
strained
sreekumar
##thalmanna
bleak
##jdug
thorat
##written
##zlwkrxw
screen
provincialisation
listii
habitually
##delhi
gorakh
washed
mathematical
confinement
##nepmoc
111444
mridul
##occup
purshottam
fractures
premeditation
vexati
perinthalmanna
stagnation
navaniti
##frxqvhoiruwkh
dhobi
sichey
dereliction
jarnail
bam
bimla
hamm
kseb
lamin
rto
uf
wra
##pot
##cb
##cii
##hp
##iaj
##1i
tht
##orary
beach
##mental
peri
##iparam
##likar
corners
1477
1534
1307
purna
##ccchhh
##119
26022014
2807
##122016
narpat
030
##aaaggg
##223
##ogram
##151
harbh
harnam
##212009
##772009
##283
##376
##329
erring
panipat
poramboke
thiruvannamalai
biswajit
##1983
##ucherry
manjeri
innocuous
inadequ
dnyan
##irtcele
velay
mangilal
##diruh
##napmoc
induction
sickness
onerous
reckoning
kemkar
gniraeh
vegetables
titioner
monopoly
saravanan
chaubey
feroze
dwarika
fty
hin
iin
iir
jet
oti
omb
rum
sate
ties
wv
wlr
##pore
##jb
##52017
##xious
##mic
##attom
##antic
##oug
orch
coc
resisting
proxy
dehs
##tering
disin
##etta
subraman
##endous
perception
rati
1140
impart
considerably
##hiih
rohan
rajaji
1509
1388
1635
inserting
suprem
sheel
basak
2013j
minute
2012s
limestone
3195
##traction
plank
##126
producer
balachandran
balkrishna
paidup
lalitha
dealings
sarwan
##337
draob
harka
##640
observance
numbering
##381
condem
##022009
dua
##482013
munish
liquidated
osd
practise
realise
mathura
kulwinder
radheshyam
cessation
unreasonableness
hsitas
hazipur
cabin
izfr
machineries
rfp
hamal
4102
sundernagar
nitesh
shantilal
##lapalli
subbarao
##,,,
storeyed
arbind
pragmatic
udhampur
kushwaha
isolated
exploitation
dholaria
purnia
bairwa
aluminium
contemporaneous
eseht
entities
denoitnem
restructuring
fishermen
paternal
893
968
aimed
flu
geetha
jur
jia
l8
mld
pti
sos
wf
##dan
##sn
##sus
##sim
##vkh
##onia
##aled
reen
isare
##ppu
##roorz
##cet
##idhi
acid
##student
deussi
distr
unamended
##rae
pric
##unni
##ereh
##olkar
##tinker
accede
republic
##titne
lekh
1260
1245
1403
##opet
workload
ramdeo
pattom
criminals
pw31
##ehlqj
##oolll
norbu
##132009
srp
##ogical
annexureiii
##hsuh
##828
believable
##641
##618
1001
kait
ottiers
renuka
199394
citing
##20022003
shivram
baddi
##fiw
fraction
1087
mutt
111000
sabour
discriminated
jagdalpur
lapic
forums
sivaraman
tnemt
radhakrishna
netaji
##uqes
bansi
shifts
repealing
consciousness
fffooorrr
nutri
bhadrak
throws
vakil
wholesal
strangulation
##isclosure
mercy
noitacif
disengaged
dentam
jayanandan
mubarak
##ollof
postponed
preexisting
sebastian
##electric
abandonment
paritosh
noitasnepmoc
lignite
,?
931
azam
eti
ega
hue
ied
iis
m1
ril
##hb
##dk
##dil
##east
##jy
##jly
##nk
##nec
##mari
##tij
##ilya
##roper
sued
##amond
##2025
##udeen
repalle
histor
presided
1116
##mine
1223
neuro
rop
1649
timebound
exten
mahandi
impugning
##astra
nikesh
occservice
actionable
lohar
ecivres
##dayal
##140
faroo
##draw
irret
sahi
prevents
deviate
talks
##472013
##979
malabar
##dqd
sugarc
ripp
exemplars
instituting
##576
obligated
##fhrrp
##hgwkh
mukta
bhuwan
##qjh
##vwdqg
amarnath
##avier
##gyrfdwh
conferencing
rebate
epfhrrp
nongbri
dropping
rotcerid
flows
##rughan
disprove
##rrriiissshhh
mundka
mhada
amrut
gurdip
bungal
tools
brajesh
connotation
sanadara
##fluenced
sanchar
madhyama
executant
revolver
tranqu
anomalies
mavelikkara
inmates
chacko
uninfluenced
neiipp
906
mena
netset
rik
sion
sway
##wwh
##dba
##uity
##410
##5h
##32005
ofc
##anya
remiss
cohab
##riem
stuff
##stat
almir
respondentpetitioner
##osity
##utan
##unct
compare
##ighted
##odfh
maturity
canals
1234
1295
neve
accuseds
msv
eluc
limbs
dibr
distant
##133
misconst
sridharan
sarka
muzaff
mohali
krishnak
funded
hospit
sams
edged
cccc
metes
munni
1204
granites
surveyors
##ologies
872
nalagarh
morigaon
##962013
sandip
safi
warden
hcp
6002
imran
bishwanath
venkataraman
attractive
invalidated
##kjk
kailashahar
divorced
##uppur
##assessees
fabrics
prabhakaran
kameshwaranagar
##yakant
drinks
relevancy
abrasions
disobey
##uggguu
puducherry
vazh
unilateral
vasudevan
enjoins
24112008
unchallenged
hragiar
statistics
vaikom
##ttteeemmmbbbeeerrr
script
laundering
irretriev
992
aq
baik
bigg
cq
fighting
hath
hca
itis
ips
latha
oooo
r0
rhy
ust
valli
##hm
##iag
##special
##jng
##12006
##arv
##esign
##orc
##ilak
reaff
##usc
acrs
deif
##rag
##rable
##imon
##iva
##abazar
parg
compute
beena
rais
##diilgdy
triven
1178
##apan
correspondent
neip
neena
bhas
1807
##ccs
heroin
shrikant
2550
opmv
maha
mahipal
monica
biology
##tapp
benefited
lohra
##221
brar
harpal
##uvar
depression
blamed
##recogn
palam
589
jagjit
malviya
##487
##ovt
burns
digging
771
##432013
requisitioned
oooccc
niraj
embrace
pushkar
##xql
bhilwara
cmpmo
##mmmeeennnttt
vvvsss
tioner
slapped
##apalayam
##aaannnyyy
materia
gambh
##phqwlrq
csca13915
111333
shrirampur
apportioned
bobde
vulner
appliances
franchise
untrained
ajugrus
scribed
refsnart
aaauuuggguu
cccooommmpppaaannnyyy
ssseeepppttteeemmmbbbeeerrr
succinctly
ferozepur
dibrugarh
biggest
csca139152012
aaauuuggguuusssttt
curb
cnos
dha
ech
f3
gay
nishad
p21
sth
ssec
yn
##listing
##ye
##zies
##tle
##nahc
##mac
##eretni
##tiiic
##atrix
inthe
##ouli
realities
revert
concep
deon
debit
dewan
shrad
chund
pral
##ungo
periph
##issues
decd
raey
abhanpur
evi
102014
1198
##arik
trench
1435
authoritative
concur
concurred
1634
ramla
25a
allows
##puty
2104
##aliar
pw45
2709
dib
personsincharge
##indsa
##appp
##tract
baleshwar
simga
barring
##447
denimaxe
dhindsa
drafting
##174
harin
##243
##645
##rrro
##ohy
eschew
753
dedrocer
severely
darigaon
980
871
ambwani
planner
ignou
searching
owed
vasu
navi
sangrur
amarjit
mussoor
presumably
jaswal
##proc
elbow
canceling
indermeet
enlargement
shikar
##worth
stainless
erutan
noissim
describing
fractured
predominantly
mmmaaarrrccchhh
deredisnoc
cashier
tushar
vexatious
sugarcane
sarkaghat
1f
3f
6b
aer
eud
gaf
hb
iie
jairam
kate
khi
lari
nach
rip
ria
tong
tables
vats
ynapmoc
##wv
##kutty
##dong
##down
##omit
##mk
##econom
orth
coco
contig
##ayapalem
unab
chim
##akota
##fice
subcomm
parekh
evade
1067
advancing
1247
interior
mana
mantha
1318
indiffer
timely
bheem
rami
##tttooo
2165
sinking
diamond
collision
##appalam
narharpur
spinning
##502011
007
locations
travers
##146
hyder
dhruv
drav
##dhe
https
1004
jamalpur
lessees
tempt
bilash
##ewad
skills
gnil
kanungo
geography
ajr
baig
kilome
juvenility
concededly
distinguishes
vidhyut
kutti
analyzing
confiscated
gniw
santhi
mallik
##netnes
fighters
siddipet
defamatory
cordial
nedumangad
##eeessshhh
##pdwwh
ghuge
aan
cub
df
dpe
dmr
mmo
nail
rynj
tx
##yhq
##sdv
##vised
##gend
##gaj
##jag
##22007
##nala
##1s
thev
nok
##elo
asok
coven
##202007
##abati
prat
pariv
paravur
agm
conspic
deced
respondentscomplainant
##urep
##diwh
##period
amandeep
justic
1216
imply
mayur
1800
##khog
devender
##pco
clr
pritinker
aptrans
##asta
memory
valsad
annapur
occstudent
##of2005
banker
obsc
esteem
clause8
airtel
##171
detailing
palamau
dharmanagar
sathi
megha
##062011
781
773
despatched
53a
restrictive
targets
##azetted
rangareddy
unfilled
ramanand
baijnath
khare
kharva
##doors
##pdlq
jitender
222200001111
##frqwh
hpseb
greatest
rotom
rlng
kathua
madhavrao
pravesh
sisab
##waker
straightway
retfaereht
wheeler
curtailed
nondisclosure
draftsman
chowdhary
kaij
vidhya
chairmancum
wadhwa
excellence
sukumaran
upadhay
reorganization
flexibility
##vveee
muthukumar
quintals
london
arithmetical
surgical
intellectual
admiral
concepts
rynjah
aptransco
943
aec
bay
htob
ken
lon
sni
ttr
tile
##zan
##zapur
##date
##tif
##aranjan
anm
##oubt
##icts
novo
##rej
##lease
##ads
ast
underground
##endr
##sey
##ieves
##ucitrap
##ipali
##......
1052
##ahas
passive
furl
meagre
deline
plaintiffpetitioner
2013g
salient
saleem
24458
23a
2710
smi
2903
foisted
034
drilling
srl
dhawan
##uvila
##olded
recruiting
testatrix
symb
756
sca13
pink
##062010
853
##iniwas
maan
##limited
diluted
3002
dddaaaggg
shamsher
rolling
framework
typist
foreigner
cantt
concemed
ritlal
2942010
ecnet
##directions
mehinder
reappra
332b
noisiced
##aaannniii
##wlqwkh
murugesan
providers
culminating
111555
uncertainty
ottapalam
banjara
...............................................................................................................................................
abduction
demonstrator
jadcherla
2two
##wlfoh
anchalik
11952008
incapacitation
detenus
sunny
malakpet
##vvveeennn
posterior
almirah
940
bns
ction
cumbers
eat
foul
hich
hinder
ition
iaw
jen
jnd
loud
maria
nazar
nwo
pere
paik
ull
umb
vx
vimla
##lis
##b2
##rul
##kdo
##aser
retrial
suting
protracted
shesh
unity
##ivan
##trs
##acting
partha
mathai
##parties
impress
rajdeo
versa
13a
payy
1804
1879
##khed
##khla
2305
pw20
nosrep
2009s
specialist
users
##acker
##indam
3333
##137
accountability
tenor
favoured
pensions
##906
##272
##rrraaammm
##adih
exhibit1
##092004
nagesh
nagaur
tnacilppa
lodhi
987
garhi
identifiable
ibid
dhanuka
sampat
unsound
##hyh
,.,
dissection
2112
3102
wedded
wednes
consultants
chainpur
catalo
##rolley
##qhxuh
approximate
##ahijala
malafides
19306
psychology
7491
kcolb
kaushalya
##dddaaarrr
abrok
##cccyyy
##kshmi
tactics
noitacude
anirudh
nonlocal
annulment
american
awaited
bellary
intrins
alimony
reluctant
##txhvwlrq
sadiq
ghaziabad
htaed
##rrriiissshhhnnnaa
ooooffff
mussoorie
dddaaagggaaa
cumbersome
citation
darr
esh
nanj
oas
paw
rder
t3
tane
vah
vks
##khi
##uar
##qt
##vik
##2a
##534
##mis
##mun
##mary
##eddy
oforder
##atar
##arcer
##isel
##ithura
1917
##against
##ffa
##iala
petitionersappellants
##estation
appealno
faces
1288
incarcer
neha
rajim
1355
##ifl
ramas
##khari
misdir
sharwan
suppliers
smugg
executor
chandras
redd
reddi
##asekar
khus
decreeholder
##1979
##uval
##647
cwps
para3
##183
ourt
tahir
##ohfw
653
visa
kamala
fullf
regions
mohanbhai
pressjournal
643
tirumal
digambar
leveli
mpsez
distribute
ajith
##venth
1112010
bano
nonproduction
tsrif
lakshminar
##insurance
music
vitiating
semis
nongazetted
vagu
polling
peacefully
ampati
bijoy
hiralal
yardstick
ladakh
animus
##ipatti
radius
sahayaks
efficacy
decreetal
launching
ramprasad
mancherial
dhurwa
aarti
##eremployee
nullify
##contractor
##vhqlr
shenoy
ancestors
pintu
raigad
##sssooolll
pudukkottai
vulnerable
pressjournalmedia
0n
836
cet
ert
f1
gore
hud
hob
horn
ioc
jks
konda
l5
nani
ninet
sour
ssu
sirs
sattar
vec
wool
xirt
##yes
##vin
##god
##ox
##82010
##esa
inpatient
##iry
##aye
unm
unal
respondentno
##utur
chod
##forthe
soman
evicting
province
lexic
##eship
1238
1702
authorising
mov
2582
2569
sind
2013i
tehri
discoura
api
diwan
annoy
annamalai
deserved
##phys
##offici
200607
##122015
##undara
spending
baljit
024
karthi
trailer
##wkhshwlwlrqhuv
##ikulam
nandu
5572014
##huy
venge
emos
fulltime
##xxx
##objection
technically
bidar
887
booklet
abdulla
shillong793
kashm
widely
midnight
##ulllyyy
##evan
ranks
gainfully
prints
guleria
179607
kameshwarnagar
khatian
dorbar
##txlu
replacing
gurdaspur
reimbursed
telephonically
pharmacy
predetermined
refixation
##wkhuhvsrqghqw1r
intracourt
flagrant
constraints
reliability
tnedicni
khyriem
malpractice
talekar
tttaaah
khandeparkar
vereus
draughts
ombuds
menace
oooccctttooo
semiskilled
oooccctttooobbbeeerrr
bm
c5
eve
fencing
lcr
p20
riv
rta
ting
tun
wjc
x1
##kanth
##kela
##due
##sm
##jnaj
##itar
##enter
began
ite
shank
unbel
chopp
atch
##unit
underlined
##sebl
abb
##ipada
filthy
updated
1478
1309
1714
payers
beniwal
instig
2527
mahato
defended
minimal
avats
owning
##elopment
crlp
namb
##gues
##aaann
021
favoura
##wkhshwlwlrqh
courti
courtin
##umba
inspires
47a
##247
##grs
para52
mota
##lqd
httpshcs
meritless
cmj
koder
mdr
noitseuq
tirkey
nathuni
##orao
ajoy
reinfor
##wdn
##ggg
systematic
kulwant
imti
bishun
iiinnnsssooolll
##uqca
dharampur
dispensation
swarup
hpsebl
clubs
##omplain
##rughu
##rolling
chirag
baghmara
##cheduled
anxiety
tangia
complicated
karunakaran
colonies
arraigned
ottappalam
insecticides
cidco
noitaroproc
chellur
subbroker
##adddhhhaaakkk
sindhu
ytrebil
defeating
rrraaadddhhhaaakkk
conveying
devasthanam
diagnos
ecnadrocca
condemned
##vvveeennncccyyy
iiinnnsssooolllvvveeennncccyyy
698
7b
cup
d7
fera
gann
jil
jant
latches
pes
ssh
tng
tnedn
vfk
wd
wg
zool
##aug
##pack
##passed
##hard
##okh
##52014
##fast
##invo
##atso
##aras
##anwala
realize
##ppally
##admin
suthar
sharif
acceded
##asses
1079
1142
##poss
secnatsmucric
singla
1222
1225
1243
neut
manjit
manpower
##ouring
1419
1448
##opala
1377
1305
1708
purani
bhun
1888
1887
throughmr
moon
##atima
##tta
##117
25603
companion
clan
##ajeet
##anchayat
attaching
deser
narg
032
annexe
##bhhhaa
annexureii
principals
capt
##642016
##adham
hosdurg
claimantsappellants
httpwww
breached
kopp
visits
daman
681
emoc
claimantappellants
pin68
councils
teli
696
millions
beside
adjourn
somik
bindu
##fdxvh
oozing
responde
absented
assignees
presuming
##araja
##illlrrraaammm
blacks
disqual
lpg
mazdoors
udhyog
##aiiinnn
amalgamated
seshadri
disallowing
yashpal
fnk
conjunction
kanjir
feasibility
ensued
renoiss
##hhiiilllrrraaammm
gohain
unloading
auxili
encounter
sincere
coconut
rhyme
##rrriiissshhhnnnaaannn
vengeance
tttaaahhhiiilllrrraaammm
rrraaadddhhhaaakkkrrriiissshhhnnnaaannn
tttaaahhhiiilllrrraaammmaaannniii
932
dawa
gouri
lone
pitch
rned
tins
vw
yh
yaj
##lary
##dars
##qoob
##vp
##vendra
##414
##82007
##nut
##neshwar
##fon
thot
##attil
##article
##tioned
##itr
##econ
accel
alibi
##rack
##udv
##abe
adoni
##unz
##unition
##unde
##unjay
##umathi
##ucco
regret
commuted
##otten
1069
##igel
##ahr
quorum
##perint
ami
1268
mank
##berty
1535
bhoop
162014
1602
##upsid
opr
clut
##alias
diwaker
2911
recomp
spa
karaik
laud
age22
058
refuting
##445
nagarajan
##652
arranging
worded
##284
gangman
talwar
daundi
summed
kalawati
##492013
ghas
jjjaaannn
munshaw
guruv
aaabb
gnin
ssed
ssshhh
scrutinised
stockbro
rigour
extensions
navneet
jjjuuulllyyy
playground
objecting
arati
sectors
yogi
##892012
links
jaspal
dominant
vella
siksh
harmful
##bhau
gyatso
fingers
##uuuaaarrryyy
colonization
sensitive
disengagement
chairmanship
administering
explicitly
yojana
dungarpur
rescinded
ccchhhaaannnddd
hearsay
inimical
##hiihfw
wednesbury
jjjaaannnuuuaaarrryyy
0112
2h
bld
dind
fel
fll
hen
jer
jfc
nala
oy
sided
ytic
##lop
##supra
##3t
##main
thips
##arbha
ance
anvil
##ecution
##ream
rewari
##then
coin
shtn
shersh
##udur
##udwlrq
haf
##ende
perum
agril
##agal
abid
1101
1294
1552
##ointed
bhavi
instigation
##iiig
moot
198990
##omot
judicious
charama
charanjit
##formation
0002
##ooott
##1014
rightful
lime
tika
redesign
plough
balan
##wkhs
barua
phased
subserve
##noxious
##ficiency
mula
ideal
##556
fa7
##648
##ngg
broke
sdjm
##652012
##289
daeh
peth
vijayaraghavan
##competent
milled
comparing
kashipur
bengaluru
kotak
hindrance
##dwani
vais
midst
biscu
ingen
##works
triplic
investor
unnikrishnan
##pdwh
jhun
kupp
widows
##tructure
literal
amputation
##proceed
dominion
propounder
gadkari
##adarsh
##pppooorr
sardessai
khader
naksha
disbursements
psychi
bangar
tubes
dattat
##zrun
##avirhs
shouted
dhaleswar
yaqoob
##aaarrraa
rambabu
consignee
bhangale
srivillip
colliery
##driver
korea
trouble
unabated
catalogued
darrang
unbelievable
thipsay
shershah
22013
6f
8c
839
cic
csa
iru
kynj
nuz
punal
##bn
##bhat
##zong
##rise
##iest
##gments
##erji
##inperson
##urpur
cocp
std
stup
##ithi
ordersheet
chella
atma
accounted
##odaya
raich
##ucod
##ials
##ialpmoc
##200304
##laintiff
##estt
secl
secre
cancer
honours
manusc
scs
1488
##ashed
1595
1358
1788
##uger
##iful
critical
ramlal
3010
##ankumar
transgress
2400
2412
misreading
##efed
##hala
mandav
chandru
centr
erud
20032004
developmental
medial
nons
##226
##636
objectionable
consequentially
##232
mohandas
madhur
kalra
##292
sunit
##ewat
wrongdo
sweeper
##atching
##ividu
##402013
containers
r1a
vishwas
vishnoi
bengalore
rasheed
##bole
billsinvo
citations
##orarium
avoidance
##hqfh
uniyal
semen
##gluh
chhatrasinh
kilomet
8002
elaborating
thorugh
narsaiah
touched
brijesh
##ernity
massive
nonapplicantstate
##office
damodaran
siddhartha
apprentices
connotes
deceived
impersonal
pharmacist
pageno
tagged
##established
##opathic
gambhir
##economic
annapurna
fullfledged
##physical
ombudsman
##bhhhaaayyy
aaabbbhhhaaayyy
biscuits
kynjing
billsinvoices
7c
cbs
cimm
dsc
egn
eey
edu
gaw
hither
jes
kz
luck
nari
ncc
rect
rann
sari
tate
vinc
yaw
za
##prasad
##fif
##tific
##arath
req
reaction
appur
##idable
cod
resin
resting
shre
unde
##udha
respondentapplicant
chips
1941
##akanta
##unth
subjudge
paramb
gomati
enor
##odal
pooth
regist
reputed
arindam
##mitt
10b
governs
landowner
##ticed
honorarium
mango
manwat
obnoxious
1432
##angir
1533
circulate
extents
otherside
villagemo
apsp
29a
injurious
##982009
##668
##keyan
locate
confused
barot
backlog
sarab
##827
urging
commonly
##082009
##385
samadhan
##neesh
lodh
occupiers
panna
##493
porwal
ghai
##012009
774
treaty
gopalpur
retires
sanoth
##462013
dilap
akividu
dye
3111
##aaattteee
generate
somayaj
convener
shyamal
dalmi
shams
selfex
narasamma
jyoth
bhupender
chinch
chintal
dahiya
shelke
##rughuv
mudaliar
tanuku
364a
##roller
##urpwkh
naked
##dnanjar
keon
nhpc
bachelors
colonisation
introduces
cooperativesocieties
ydob
disagreement
indolent
##speaking
##vkdoo
projecting
electrocution
burdened
snoisses
arumugam
hammer
harbhajan
##gendop
xirtucesorp
lexicon
draughtsman
shtnom
cimmco
0110
1af
5b
891
agh
a17
a32
eminent
i2
jagar
nts
pab
pso
sms
ugh
wnt
##yi
##rm
##iie
##ukk
##jector
##nee
##1c
##orial
##eceased
noida
befit
##thel
##adhana
##amanch
resolving
##veedu
alathur
shama
##ondas
disappear
undeveloped
orderly
adoor
judis
##ichak
perceived
conspect
ratified
##soon
reproduction
respondentsoriginal
petitionersassessees
districtmuzaffarpur
##missed
matador
##ageer
##ideo
roving
1516
siro
##executive
##khiew
hero
viable
salwar
circumstanced
pw24
2602
avenues
##129
##aniya
##igne
##9899
##236
##180
##nekar
pals
koti
687
##luassa
##ewell
murmu
forestor
##yalur
786
meaningless
##umanoor
852
##422013
hardwar
956
##heb
freeze
haldwani
saddled
nilgir
vishn
pw2a
somas
bishal
mouza
kshi
##cumsecretary
integration
kasim
bodhgaya
parbat
ammunition
vivekanand
##arcity
nodoubt
remittance
listi
elihw
sajeev
##holic
lliw
septic
alcoholic
bardez
dnuorg
describe
kawas
##ylhzriwkh
coparcenary
counsei
focus
piglets
doraisamy
##municipality
mmmooohhh
qgld
beldar
barkath
preetam
kayamkulam
dheeraj
britto
abutting
extenso
bnsharma
taneja
renoissimmoc
conspectus
nilgiris
a14
bant
cti
cun
fid
fles
gts
lamp
mene
ror
rim
sord
tenth
vf
vfkd
wip
##com
##house
##rants
##daha
##uii
##services
##gin
##xt
##nw
##nirp
thas
##edded
##arbit
##isin
anonymous
##asagar
##thhhaa
byep
##usable
##cham
deaf
##ivali
submi
gokh
##ffalo
##aven
appellantcomplainant
passion
hons
scarcity
crux
1558
1314
revo
indigen
concomit
1617
2541
viability
clma
villaged
salvi
divecha
##isterial
smell
mandeep
mandiram
##indy
##anja
088
08th
candidly
3783
formidable
subscribed
annexuree
##172014
harpreet
##252008
lakra
##651
dispatched
ulc
##mih
dharoi
jagg
##291
profitable
minded
emalias
1202
adjudicatory
noitared
girdhar
residency
patidar
dileep
##const
30734
111888
santa
ayub
ordinances
venkataiah
structured
jagdishpur
roller
hitting
betterment
irregularly
narasimh
voting
192a
##10500
donee
guddu
4991
mawlum
lingaiah
111222
##krishnan
stepping
##kishore
rinku
thangkhiew
##ogniz
##assseee
dettimmoc
impaired
subletting
inamdar
##dssrlqwhg
cautious
peremptory
hawking
muzaffar
auxiliary
dilapidated
dalmianagar
967
dcs
dors
gid
gari
pema
rcs
srespondents
tmt
ure
xavier
zero
##bud
##hen
##zhg
##iance
##wade
##ksha
##eht
##uee
##tw
##nif
##inding
##anies
##ask
##itarian
rey
forging
##etia
asopa
##irb
##ayar
shard
unwill
##iven
1902
learne
accor
abrupt
repudi
1068
##200203
112013
##awari
1251
##istration
1515
1555
1543
##ugra
clt
circumvent
##tigarh
cargo
plas
##127
narrating
prahal
##lished
##ipura
##aaadddhhhaa
ected
nonpetitioner
##224
latitude
3750
irani
prosecutors
4500
saroor
branded
dhaka
##goh
##252014
deviated
husain
##attam
##273
sanjeet
##accchhh
##ohfwlrq
syam
67686
67886
palm
alteram
nagabh
dharampal
chaut
##lvh
##lvk
absolved
explanatory
omerga
mij
ashoka
multist
gpf
##chandani
222000000222
tarsem
justifi
ooonnn
prevailed
ferro
invalidate
hhhaa
nanak
bajirao
inflict
datar
transformers
pulla
messenger
##communication
vatakara
##ellahc
notings
67786
blanket
##dgkr
##lqwhu
chinnappa
exserviceman
refixed
synth
##fkhz
prerevised
automobiles
##learned
dddeeevvv
coastal
##surylvlrq
thrikk
apmahc
petrochemicals
sredro
pralhad
ramlakhan
contiguous
furlough
1the
3the
5h
926
ahi
airc
bpl
jsu
mate
ric
tore
uuu
vard
##bare
##prakash
##ssh
##gat
##02009
##x1
##anr
##ented
##entral
nopu
##thef
bylaw
##iran
whic
actively
##ayannur
unen
unlimited
##ghg
respondentwrit
##osph
chot
adam
1945
1926
1943
##ummm
parminder
goonda
rave
poov
##.......
regi
arund
soy
##iga
##avres
##apit
1218
##lif
14a
1430
1658
mohi
motives
##anchery
000per
2708
##102010
2607
##agarajan
educated
##anjaneya
plight
##emphas
4064
particul
courtii
lalu
phc
##ampudi
urin
controverting
##252009
##302011
yadu
liberties
sdassistant
##658
applicantsaccused
##902
##ihuh
financially
##huwl
##uuuddd
laro
exemplary
identically
lords
deadbody
petl
layouts
##522007
##hiksha
expires
voltas
ambal
consumes
restricts
4002
banaji
##crip
biswal
##iyil
chetty
ranking
prabhud
ngos
nasir
5a2
##allee
chhatt
sreejith
7002
shobh
cultivated
kalyanasundaram
preraks
anupam
pratima
forbear
rukmani
reminder
mukundapuram
disentitled
voucher
pushpendra
prerequisite
madhyamik
telegram
surendranagar
ecneffo
godhra
insensitive
pulak
waghmare
bungalow
dravidar
somayajulu
keonjhar
menezes
##aaadddhhhaaarrr
dddeeevvvaaadddhhhaaarrr
1o
bcc
ding
darh
dadh
dada
e2
ement
fou
hw
kopt
lance
mgn
mps
nana
s3
tape
vth
##aurangabad
##produc
##zq
##zen
##run
##uon
##vz
##vdq
##ook
##jul
##62002
##92005
##enge
##arga
##alaxmi
##itv
##itted
##elc
ase
##usr
##stc
shruti
petitionerhusband
##acts
##olw
##quisition
paral
parul
permiss
##seless
##iey
presupp
1169
1192
##minor
1230
maner
1401
##atham
1568
##ubani
1335
1717
##ugan
##uggi
2231
1898
deltitne
willfully
transition
sheer
mahanty
##ruwhg
monte
pw28
genital
##indled
##ukia
narasing
investigations
##ressive
trac
trai
wpl
barpeta
phawa
penalize
##826
##249
vacations
##772
##778
##vestigating
##vestigation
bliss
moto
##uhh
##atsus
jageshwar
##yanand
panicker
ghim
ghadc
riico
flou
omkar
float
mitig
##ipline
974
grain
padhi
##uza
naub
firmly
pipra
sudheer
jjjuuunnn
ehr
cashew
chowki
3108
sivak
checkpost
##iother
irrevers
utilizing
impressions
estimates
enabled
##artnam
superstructure
appeu
insufficiency
##rohtas
wadane
pahwa
describes
nishant
meticulous
padmanabha
grabbers
sulthan
aaannnoooooo
eiilmu
entrepreneurs
equipped
jayaprakash
ecnetnes
sikshya
ccchhhaaannndddrrraa
ingenious
mmmooohhhtttaaa
jjjuuunnneee
aaannnooooooppp
1ii
2complainant
?!
akk
bend
borkar
cyl
doshi
doda
gani
iff
jora
mule
tide
tind
vst
##hers
##kv
##docu
##gun
##guru
##jiguda
##622
##xd
##nia
##mone
thur
ofthis
##inbhai
##isl
##isivid
##lev
##adw
asto
##chhattisgarh
##ithat
alag
shala
##rati
##abhan
##owk
##owing
hash
##ighter
agitating
consulting
encomp
##iplo
directives
goverdhan
##mind
##esha
##eshbhai
##aparambil
imputation
neht
##ista
1514
onethird
1650
1633
1603
devolved
sheohar
bailiff
pw22
bike
3194
sonitpur
ears
##appalli
##aae
##139
khe
khetra
determinative
sark
muf
##332014
##atorily
hossain
claimantsrespondents
##their
##uhjdug
##901
daud
palanpur
kalwak
kochar
satp
communicating
mishri
642
laceration
981
##oynagar
##uzhi
##knath
govindrao
emergent
generis
obtains
overlook
##artnoc
analyzed
dictated
dluoc
rehtehw
hypoth
khalid
sonepat
evitar
##ohduqhgfrxqvhoiruwkh
c482
meals
aniruddha
manorama
somajiguda
khajuria
##urxqg
kendriya
unavoid
practising
organisations
snoisivorp
swayed
remissness
##tiiiccceee
parivahan
jfcm
byepass
kalwakurthy
ayan
biodegradable
eknath
hul
jahan
krib
mail
nip
nlc
smp
soura
vkk
zzzz
##len
##kor
thamb
##onorder
of2007
toli
sumo
##raft
cheek
abin
##ipar
ary
artis
1061
##ishan
gr1
1188
##illment
199293
intere
honbl
boch
1434
##ansi
##shhhii
concent
referenc
##maur
1695
1890
clotted
2142
2303
pw26
sharmas
##1034
3131
detnarg
vertical
mainabai
fron
##anjali
schoolgovernment
0211
##662
##661
##ogs
socio
procuring
khlie
irfan
irrevoc
##notice
##whh
##ampeta
harjinder
199899
depicted
modalities
superficial
rupak
##neer
otni
forceful
##312005
chauk
##eshwara
bounden
godbole
stipend
##eerabad
badly
975
##412013
875
provisos
facet
assails
raghavan
dhana
writings
##vastav
ayodh
chhatis
amarjeet
negotiated
bbbeee
embedded
##11996
dksbz
gulzar
mathews
111111
autonomy
demarcate
ariyalur
wilson
9002
##fdqeh
##lvwulfw
reexamined
caveator
477a
chikk
contravened
panne
##jjjjjjjjjjjjjjjjjjjjjjjjjjjjjjjj
interestingly
quarrell
disconnected
##hsduwphqw
650010500
unqualified
enrichment
dailywage
arulmigu
subrahmanyam
##wwwwpppp
magarlod
subramanyam
ccccwwwwpppp
hitherto
##accchhhuuuddd
monteiro
irreversible
ccchhhaaannndddrrraaaccchhhuuuddd
3three
969
bav
dap
fah
fanc
het
nayan
rosh
rcriminal
tif
##bail
##dcl
##eted
##sri
##3d
##nett
##163
thwar
oficer
##athara
##anadu
ancl
##ilee
##elp
disttp
##imani
petitionermanagement
##akonda
##aciduj
subcollector
parted
paroo
##ardar
potd
1160
vsthe
imputed
intermitt
robbed
##utham
rajs
##angible
himat
bhol
offen
##notes
plaintiffrespondents
2410
examiners
pw40
##1012
ca8
sonal
chands
vernac
iiisss
nariman
foh
boarding
##982015
090
intangible
khos
sahar
##nov
dhill
##242
##246
##gression
##375
connectedmatters
woleb
ga2
nagri
interpol
kamaraj
emac
wrongs
cutter
exemplar
kumhar
lateron
skel
##791
##ambalam
##vvx
oooffffff
geographical
realising
##frps
tseretni
4204
sangli
correspondingly
aids
presumptions
veeraiah
rpf
##workers
shamsh
clothing
invalidity
##ucexe
sakharam
mmt
intervener
##oleved
strain
snoititep
251ba
consistency
trichur
noisnep
sisir
impartial
auditorium
##surfhvv
##dolilfdwlrq
prathmik
##fkhg
adapt
ribs
gupte
##iurpwkh
shanmugam
##forceable
luxury
##batse
verbatim
ravichandran
mahboobnagar
lakhimpur
spaces
##building
karthikeyan
favourably
tngst
punalur
prahalad
potdar
ait
c0
jute
liver
lda
osa
pou
pem
pfa
qj
rns
tts
tanti
ump
##bid
##bhan
##ait
##peh
##handed
##zo
##wwkh
##vad
##ogeh
##mand
##enant
##inthe
inacc
##isee
##elpara
apper
##adn
stair
##2031
chs
adani
pror
##akumari
##tram
##trade
hai
parsa
periy
respondentsrespondent
commuting
gruh
1199
manan
lix
rajk
rajeswari
dob
indigent
induce
1877
1802
##khu
198889
devised
shrimali
212013
##ruj
impugn
discounted
ap25
usgaonkar
2904
narkati
0304
##667
##ogi
substation
##330
##558
inflex
##242011
yadi
octro
httpshc
##engine
nagu
moneys
chaitan
1203
noitcerid
ssshhhaa
physiother
##iliar
recognise
ttk
deri
chitr
3007
promises
##thhheeerrr
worship
attracts
parameswaran
attributes
invalidation
responding
##kdvehhq
clubbing
ipse
vitals
lorries
ecnere
ishwari
lpasw
bakrol
acknowledging
analyse
kesari
footings
40006000
telephones
##lavaram
jawaharlal
entails
##rqwkhedvlv
reengaged
motivated
aaifr
precautions
coolie
tnatsissa
khatedari
disapproved
vfhk
##rrrooo
##pppooorrrttt
naubatpur
unavoidable
vernacular
8d
ayal
aachi
census
fma
gases
jol
jade
kvs
loses
peh
pyar
sgn
vashish
##b1
##bii
##beg
##hor
##haw
##wx
##sal
##nent
##nesh
##fee
##fkk
##arf
##eso
foreman
##adurai
##usnoc
##ional
unni
petitionerapplicant
200102
learnedcounsel
enif
##ucity
##diii
##assil
1026
11000
1197
quid
amuse
amdc
leak
##liwal
mannar
manilal
crmp
rajnish
rajouri
##lls
1545
##ifany
##shankar
##shfw
concili
##puria
1847
plainly
2508
clay
212014
##itep
villagep
partap
apl
20092010
bikash
2008om
suryap
educationally
##unications
01st
selc
nonresident
##bhum
##633
lalpur
phosph
3593
##eeping
##173
harsha
capit
##ngi
mohall
blade
rentals
rupinder
1009
##atsingh
chandrapur
##052014
paucity
natu
tnemp
metals
personality
shopkeepers
birchand
extracting
categorization
soudha
tyre
arrests
refundable
freehold
sandal
debited
emphasise
##frph
dddeeessshhh
##dwwkh
happily
sabark
taught
umri
frauds
krushna
bishan
twentyfive
##561997
veerabh
parishads
##702013
miraj
##mdno
0104
quantification
hsd
sathish
eleventh
boxes
bhaskara
constraining
gulshan
kidney
anganbari
pooran
bashir
hazaribag
witli
lamare
culpability
##appealsof
futility
fhis
sgt
##xqghuwkh
crystall
poisonous
jorgay
sewri
##aaalllll
##madhubani
mrtp
mumtaz
swapan
inflation
america
##uxqdfkdo3udghvk
##dxwkrul
truthfulness
jagadish
##absor
nonfulfillment
redetermination
noagdnanjar
censure
yeshwant
##iparamba
zoology
jhunjh
vincent
sirohi
unwilling
saroornagar
blissfully
chhatisgarh
inflexible
3e
8i
aam
ave
bses
ez
e3
flaw
flying
hathi
iap
kee
l3
lmv
mbr
nangal
rre
rmr
wives
yda
zo
##cons
##zy
##rir
##rint
##dgh
ofa
##around
##anak
##asted
asgi
##about
chick
##forest
undergraduate
compt
consents
##mits
contc
preserve
lever
##apucco
finalize
upreti
1425
1416
1577
1345
1794
maroti
butt
timbus
indravati
crim
patrolling
elders
rulings
27102016
apg
biot
mandali
2914
magisterial
##ehkdo
dettim
respectful
redeem
carc
##123
stationery
##138
ecnar
balaiah
confed
43b
khel
punishing
inflow
##245
levies
##691997
comfort
remainder
##379
slps
visw
##496
gurmeet
petmon
miah
ashokbhai
971
ambiguous
jayakumar
kunju
1070
1073
sandesh
bagaha
chaudhury
silchar
millet
tonnes
ranked
0203
cheruk
sathe
##rollable
dahy
ecnats
##kanal
storied
ejus
channels
noisiver
robust
fhty
76062003
irrationality
proddutur
inevitably
volunteered
uncontrollable
anuradha
sacri
manoranjan
dettimbus
narsimha
preemption
tnpid
##ushanam
golaghat
exaggerated
accrues
shakeel
hypothecation
hubli
velayudhan
25692000
avatsavirhs
clutches
##amanchili
chautala
disttpatna
3wp
euro
f2
fence
fue
fok
hj
imb
jand
nisi
qudd
tup
tni
uie
vb
yuv
##l1
##present
##wane
##eying
##uge
##uig
##uoi
##vm
##oma
##7c
##ilbatse
reang
##ria
##aying
##sters
courttribunal
##tery
shoba
dispur
##202012
##owa
##ocol
perv
rectifying
##ipally
##ipati
evasive
hadap
maths
1219
1254
##life
nehra
neeta
singha
##athe
1520
1338
1316
1609
ramni
##khe
msc
twojudge
basanti
##deh
##debt
##porppa
misinter
##ooonn
guindy
201415
magaz
divisions
detc
referenceto
##122011
contracting
etair
clause11
lals
executives
##332005
hare
relaps
faulty
privies
hosur
##189
##ossal
gangway
##oher
disttmadhepura
ahmedpur
sheetal
natwar
afsar
758
##062009
adjudicator
gnctd
retro
falsehood
binita
51a
886
nilu
##plwdwlrq
bagal
baitha
militants
bindeshwari
progression
madanpur
##871997
mushar
sundari
##heri
linus
dnah
izkir
bhupesh
##zzzz
rounds
chhattigarh
photographer
imaginary
satyajeet
perfected
pleasure
prerna
affixing
unwarrantedly
chunni
channelized
humili
##nagabad
rrreeepppooorrrttt
chanan
indemnity
chelam
##visions
indiscipline
nnnooott
oxford
shatrughan
adalath
irtoh
##elivery
sistani
triveni
chundawat
hobli
unaltered
##omplainant
wrongdoer
indigenous
unenforceable
fanciful
ejusdem
12017
bada
bubb
guman
los
nung
pavan
ruch
wides
winter
yk
yous
##aed
##hqg
##rub
##epartment
##grq
##5th
##tj
##fro
##alan
##itj
toxic
##amand
cong
##chak
dewar
shital
##andian
notaries
subordin
##olia
ence
soor
qualities
##estax
singular
trun
##apali
vsstate
robbing
##istak
##ashree
1561
##reddy
1767
martial
maruthi
##shulq
1625
1648
1878
moz
##tttii
##khani
devidas
##ooper
2627
2608
nipp
2922
2907
##phulw
distts
##appal
naming
##ricul
excusable
convene
colossal
0405
09103
##662010
##bhoj
##682012
##152003
sahadevan
##annagar
finalise
validate
1006
protested
sametime
##eedings
temper
satyap
chait
malv
swamin
duress
##xxxx
extraction
787
salesman
choudhari
anilkumar
geologist
debate
paperbook
##anyu
helping
kotla
threaten
disbursing
encroaching
##material
choosing
backwardness
##mdr
sirdar
mortgag
lineman
##araju
##vxeplwwhg
conspired
##rxv
kodung
messages
ecnis
comprehend
##direction
examples
##vanan
jogendra
....................................................................
logically
pnb
tnalleppadesucca
amrita
kavali
domic
gnidrocca
khatik
rishideo
##wlqjwkh
alarmingly
styled
decrease
rudrapur
adulterated
##xwkrul
tiruvannamalai
gnikrow
balasubramanian
##aaaaaaaaaaaaaaaaaaaaaaaa
inhabitants
##dxwkrulw
derrefer
detimil
##riilfh
raosaheb
dhenkanal
tnemtnioppa
chairmancummanaging
srivilliputhur
somasetty
##champaran
gokhale
dhillon
sabarkantha
22004
5uh
798
8s
919
bought
ces
ctr
cake
gb
gno
gathers
icc
keen
kvat
losing
mia
rca
tou
##babu
##pxe
##caf
##wphq
##dos
##qvi
##315
##table
##asish
##itates
nommoc
##thro
##adesh
suh
2051
##change
alp
deor
##ratively
##imanyu
chol
##ighat
##mma
##odhan
abr
replication
respondentswrit
petitionersdefendants
1220
rajam
1301
revenu
siy
##shot
ramaswamy
secretar
##992009
##112009
mismanagement
guage
divn
dividing
2804
2805
specialized
attri
##phth
##of2004
redev
selfac
complainantrespondent
delhi11
##682009
##152009
##821
documentation
ahnis
capitation
##242012
##7777
##186
sanjanwala
##affar
slips
##478
##eedd
##neuqes
##oja
##umprincipal
lartn
csca15
##echnical
dartv
explains
985
clarifies
cumula
fast2
squat
thrice
222000000999
macma
somabhai
7930
ramanathan
cpwd
kharga
mirzapur
##klp
sirmaur
craft
##upply
narsing
bakkar
depots
trainee
rodri
gnidra
improperly
doranda
arif
3292003
laheri
pratish
bootleggers
10122008
curtailment
sepahijala
cartridge
yellow
tutored
tiruvallur
falsity
muscles
##akalpa
oustees
stigmatic
faiz
indolence
minimized
chutia
seperate
recipient
resubelpara
kuthiala
bifurcated
bibhuti
ranchhod
counterfeit
dattatray
##huwlvh
oooffffffiiic
chelameswar
##bhojpur
bich
dush
fsi
gdc
j1
jural
rz
rps
slab
sshri
tanker
vam
wy
wear
##lan
##lit
##lers
##lecha
##cap
##i2
##ualities
##vwdwh
##gos
##fv
##fjr
##tited
##enior
ini
anitha
anuja
##reason
bei
stead
##ayag
prominent
shim
uner
unofficial
##imilar
respondentmanagement
##ivada
##osures
chanchal
##unithura
subhas
consulted
abad
arshad
1258
vss
manger
1491
1579
sekar
17a
17664
viewing
timing
workable
##iiill
ramgopal
1895
msd
mahua
##ruuu
discord
##1032008
bihta
surj
appellantsclaimants
senti
entitles
##ackal
redep
013
5062
##tiveness
##mood
0530
##632015
managerial
##230
3500
20002001
##rishna
classic
##ibma
##175
##1976
lakhani
##656
vicep
endanger
jagmohan
renov
claimantappellant
severance
murli
brig
carriers
omcs
khanapur
80ib
apparels
##wwrwkh
gopalakrishnan
##572009
951
haldar
illogical
dera
thinking
dwindled
sasid
sellers
ylla
countrymade
rivalry
warned
shambh
manjeet
accurate
percentages
abhimanyu
##uqne
##location
pw4a
mmmm
sakti
sakal
kollam691
tanks
##mikant
nobodys
##loner
subinspectors
adjustments
alienated
bhattacharji
sickle
khagaul
imparted
subsidiarycompany
##hriat
760e
amresh
rbef
biksh
sujata
enjoys
affirmation
poonamallee
##trrreee
gobind
thankappan
##9462004
chavakkad
coma1032008
statistical
rapid
organs
largely
deception
jubilee
vidyapeeth
shashikant
##ohydqw
sca139462004
##vhqlrulw
noitaredisnoc
gruhakalpa
ap25u
bubbles
##aaaaaaaaaaaaaaaaaaaaaaaaaaaa
2m
8b
aaj
boul
dell
duk
digha
fancy
gadh
kalia
lcs
ppa
poul
tth
vkn
wani
##lot
##cus
##cale
##code
##yrs
##zg
##zad
##gently
##xc
##np
##nals
##fj
thanda
##onk
##isdiction
##istrict
##ito
##itur
##ectr
bea
##roj
appcc
2045
ashar
##urq
##urts
##sts
##mpet
respdt
exe
petitionerassociation
##owned
orderdated
chad
##truc
##across
##umm
submer
##olqj
goondas
##odqg
##allv
counc
films
##urement
##igram
1253
passports
scra
##ensed
1320
1332
1791
1759
viewer
bhum
1672
2210
##second
expun
msr
25000
misapp
20122013
page2
aphc
##1033
26032015
smear
##agaraj
executes
##ehs
detract
generality
3274
##itivity
engg
##aaannnddd
drum
delaying
laq
formulation
confining
dtl
phras
phoph
takingup
sarf
##4412012
harrass
1005
talked
##372010
##ohjd
exhibit2
categoryb
marriages
jaipal
kalyana
precision
encumber
pinaki
tiruppur
technologies
8532012
##appellate
970
vidyanagar
9019
possessor
##ggll
benevol
fireb
begun
vasco
siddh
imfl
bais
chhagan
sangit
bodhan
mukhop
ksr
utens
dlc
reversal
abhoynagar
##pdn
##pdcl
bhadoo
metering
bajar
mithapur
ascertainment
kilns
energ
cheat
##garti
##built
mapusa
vinayaka
##yarthi
notific
abhiy
mushahar
dictation
quantifiable
differentiation
sesac
complications
karthik
streamlined
dollars
readers
announcement
abetted
.............................................................
khurana
sodium
mislead
backs
chhotu
##qjlqhhu
mediator
csca114412012
watersupply
##butted
advocatecrl
ofchhatusgarh
laxminarayan
hilsa
dongargarh
aanganwari
ripples
pargana
unmistak
unabatedly
raichur
urinals
sarkanda
intereference
fohkkx
chaitanya
jadeja
quddusi
lartnec
harrassment
6n
a24
bks
dii
fof
fakh
felling
ffl
gaming
iar
jacket
nimb
raging
tte
vain
##bin
##bench
##pb
##caw
##heet
##wm
##wel
##vdv
##noo
##ortive
begu
onlook
##stages
alla
shro
unani
unmind
##ghq
##202008
##udnoc
respondentde
chath
chuni
19g
##aint
mrcs
goi
##mmmaa
##ffs
recoll
##ucts
##igal
quas
##minently
interconnected
nepo
singhbhum
robs
1495
1406
rajanna
1594
151987
##logy
13b
1762
dog
schol
concise
##wardhan
1662
1637
30a
##kheda
##1112
dayaram
2403
biased
31x
mandatorily
wellestablished
narsi
prakhand
logs
##132015
##982012
balanced
ballabh
nontrib
formulating
##wkhsh
latehar
knives
busiest
##alein
##ulydwh
##judgh
familiar
deprav
depressed
##302009
##659
##uhod
##ediary
replying
approvals
edge
757
visually
malki
bharathi
tamilvanan
thakker
noitam
noitca
##noces
rehman
dilshad
##ggl
organic
dhanraj
xxxix
tsr
govindbhai
navy
amita
unrebutted
missed
intimacy
791990
reflecting
totalling
panels
fellow
comprise
lacked
506i
116c1
naseem
seventeen
chinnam
##11993
##11998
budha
elbail
neighbor
##pread
reinstating
244a
cosm
surrounds
migrants
imparti
kadamkuan
##ketan
karamchari
lasundara
strangely
defrauds
jjjuuudddggg
quarrels
necks
unchanged
covillagers
noinipo
##zrxog
diligent
seitirohtua
65105zzzz
sambhaji
inadequacy
misconstrued
kilometers
comptroller
widespread
depravity
12011
3g
991
apur
c6
dss
frog
gin
git
hip
iithe
lent
oar
rour
rakh
tse
tends
usec
ukky
wou
##cut
##hco
##hgewkh
##kp
##eight
##sana
##8q
##xk
##ngh
tham
##enough
##estine
##oring
##ecti
##refer
befaced
##riti
aland
alang
dezies
##andmr
##lacious
disench
dislod
unp
unwork
##2040
##raaa
##imohan
exerts
##utar
chary
##aker
undertrial
##etelling
##accc
casewise
gog
peruse
agenda
actg
##ialp
applicationno
gramp
1194
##ealno
saidapet
##esto
##ariously
##apuzha
122014
1267
##liat
##idevi
coral
##istrib
##harge
1458
afterwards
1321
marathi
payer
siya
2299
patlip
##note
setp
2531
2108
##ajirao
2309
magsit
##waroop
##kkil
purposely
partyinperson
017
##229
complaintant
wp3
##142012
farms
sarathy
##442
##441
bridges
mandalam
##172
##177
ida
##642
##643
nagaraju
##692003
supern
rupa
taletelling
contemplating
augment
##972009
eventualities
41a
financed
nagrath
fallacious
##162009
chaper
fitter
198788
772006
983
##rigade
##402012
mpm
17311
jayalakshmi
realistic
##922009
drawings
##plant
ganpati
akram
mutatis
anandi
dharmesh
multiplied
sidhar
navadia
savara
binds
kranti
bahadurganj
losts
jhuggi
pukh
madhuben
tfel
columns
distinctly
mundra
siksha
krishnanagar
horse
pakhanj
diseases
gathering
321ii
chiray
##apalan
radiates
sanklecha
2821994
repaired
##chedule
overst
hanumanth
forbearing
##rofni
customary
##tibra
thiruvananthapuram695001
ujjain
repatriated
deterrent
switched
etalleppa
##eachable
foresee
poonia
dhakad
##ulcni
tnpsc
##institutions
rendred
submtited
seperately
polytechnics
##csca4
criticism
nonobst
virtualphysical
noitanimaxe
gurudwara
ratnakar
puzhal
colleagues
marwahi
hcae
##phqwlrqhg
deonath
shraddha
peripheral
nokma
payyannur
eeyolpme
concomitant
kribhco
offenes
##ehkdoiri
firebrigade
onlooker
unmindful
jjjuuudddgggmmmeeennnttt
patliputra
magsitrate
2state
4four
898
aur
badi
cct
gmc
iic
jaaaaaaaaaaaaaaaaaaaaaaaaaaaa
lip
mechnical
nder
nary
p664
p354
rir
sper
saji
tpe
tdhe
##hut
##hind
##eure
##jured
##3a
##3r
##tti
##xed
##fls
##iner
##atty
##anathan
##ashiksha
##ouh
toten
##ecomp
fortify
2035
strec
##itheft
deora
shw
petitioneroct
chile
casediary
haq
enquiring
##ipeta
allaround
contd
##avad
districtrohtas
leiz
12b
##liya
mansa
scaven
rajaiah
##ensity
prema
seign
1327
authorizes
doke
indias
bhur
indended
1621
1657
abovein
1866
msp
elgnis
##112010
##1115
2561
2501
publicrevenue
optim
##deen
maheshwar
2405
impugns
pw56
0000
2012om
27a
2838
##epo
occus
merley
overha
tibet
marksheet
##ukonda
##undra
namita
20042005
color
3447
lohia
09th
##karam
courv
khod
busservices
barari
municipl
determines
corrective
##rqwk
##ategory
##602014
cooperatived
denning
premier
##672010
##1974
junk
receiptbooks
##657
vicariously
endoning
ours
condotion
tnuoc
##uriwkh
satram
crossacross
##akhed
turns
womens
swam
pimp
##eeebbb
anticipation
litigating
pathshal
873
##262013
dws
rfaos
somnath
##boiled
##merit
selfelo
dhamdaha
attribute
##gyhuwlvh
ntzlk
1231970
karimganj
nanu
casualty
wideenough
strip
pw7a
elev
chhatarsinh
obstante
##11991
kothapalli
breakup
gapdelay
##imanoor
kathas
p1054
diehard
11111987
##wklvrxuw
deficient
jewels
hanumantha
##examination
encouraged
bunches
unpaidup
humble
jivabhai
jorhat
fourteenth
ayurveda
synops
banjare
##sduwphqw
commonsence
##zkhuh
windows
hdfc
##sette
ligature
spells
disasterous
rendition
ettumanoor
reconstituted
misbehaviour
ministate
polytechnic
gallore
marathwada
1221988
voluminous
remaim
chunkportion
maurya
proceeedings
chattarsinh
##rights
tablesstages
delineated
tripliciate
stupendous
selfexplained
particularized
prabhudessai
##iploma
octroitheft
carcass
relapsing
rourkela
disenchanted
unworkable
setpover
lostsight
jaaaaaaaaaaaaaaaaaaaaaaaaaaaaaa
strecth
petitioneroctroi
leizurely
scavenging
pathshalashiksha
selfeloquent
2x
7i
bda
dud
erom
jod
jhanj
kit
l9
llew
mair
nered
tid
tcej
waman
yf
ytili
##lla
##lwk
##hl
##wy
##kc
##gkj
##nat
##mail
##160
##12003
ofr
##oragarh
angam
##ecen
##irts
##rain
##imuthu
##osp
chaly
1919
1918
1903
cassette
##ettered
##olo
##ocer
##eex
##issued
##issuance
abn
ars
arid
alloted
##aves
1177
199192
assures
1229
mayor
1445
##answer
seet
revoking
lawmei
bhul
bhair
bheru
1668
ramakrish
invites
##.........
3050
devesh
complains
##okta
2503
##loyees
misled
pw48
2809
nihal
usd
maganbhai
tipper
tikam
plinth
20052006
availment
buffalo
04th
nonspeaking
karu
originals
##luser
##1402
khim
subscription
annexuref
##duel
##whqw
##araopet
##552006
finalisation
signals
##1973
para5
pensionery
##342012
madho
##272009
##952009
petron
creature
editor
negate
psus
##elfth
##actionifany
functionary
##ovr
tirupur
sany
behari
maq
rehearing
7465
##26th
kurtha
##achandra
controversies
lotlikar
speaker
420500
ratnam
anjaria
proprietorship
generator
veerendr
serialno
masaur
##waja
angles
rotceps
fffeeebbb
hiring
mangalam
mehro
pnp
discarding
##erajiv
kabeer
baghel
jangam
tliis
kushal
pyare
forbes
##wkdwd
dwark
diverse
##burys
chatterji
bhakta
komar
librarian
[...]
